<pad>	0
<unk>	0
<s>	0
</s>	0
▁t	-0
he	-1
▁a	-2
in	-3
re	-4
on	-5
▁the	-6
er	-7
is	-8
▁w	-9
▁s	-10
at	-11
nd	-12
▁o	-13
en	-14
▁c	-15
ed	-16
es	-17
an	-18
it	-19
▁f	-20
▁b	-21
▁p	-22
or	-23
▁in	-24
ar	-25
▁h	-26
as	-27
ou	-28
ing	-29
al	-30
▁T	-31
▁of	-32
▁d	-33
▁to	-34
▁m	-35
il	-36
▁and	-37
ic	-38
ion	-39
▁I	-40
le	-41
▁A	-42
▁S	-43
▁The	-44
ent	-45
om	-46
▁is	-47
▁th	-48
▁be	-49
▁n	-50
ve	-51
▁re	-52
▁M	-53
ot	-54
▁l	-55
us	-56
id	-57
ad	-58
▁P	-59
ol	-60
▁g	-61
▁B	-62
▁C	-63
ct	-64
▁e	-65
▁H	-66
im	-67
am	-68
ver	-69
▁on	-70
ow	-71
ir	-72
et	-73
ur	-74
ay	-75
st	-76
ill	-77
ly	-78
ut	-79
ro	-80
▁W	-81
ter	-82
▁R	-83
▁for	-84
od	-85
▁st	-86
▁al	-87
ra	-88
ation	-89
el	-90
▁he	-91
ig	-92
▁y	-93
▁ha	-94
ce	-95
▁was	-96
res	-97
▁G	-98
ul	-99
▁are	-100
▁K	-101
ch	-102
ak	-103
▁D	-104
ith	-105
▁has	-106
▁N	-107
ia	-108
▁we	-109
▁you	-110
▁with	-111
▁will	-112
▁that	-113
ist	-114
ri	-115
ers	-116
her	-117
ment	-118
▁it	-119
▁an	-120
est	-121
▁have	-122
and	-123
os	-124
op	-125
▁Ind	-126
▁v	-127
hi	-128
▁J	-129
▁at	-130
un	-131
hat	-132
▁con	-133
ain	-134
ld	-135
ice	-136
▁this	-137
▁1	-138
pp	-139
red	-140
ab	-141
▁de	-142
ge	-143
if	-144
▁se	-145
art	-146
so	-147
▁not	-148
ate	-149
nt	-150
▁as	-151
um	-152
▁F	-153
ess	-154
▁also	-155
▁ne	-156
th	-157
ac	-158
ho	-159
▁He	-160
▁com	-161
▁r	-162
se	-163
▁fr	-164
▁by	-165
our	-166
ha	-167
ong	-168
▁pro	-169
ht	-170
▁L	-171
▁Th	-172
▁been	-173
ort	-174
▁go	-175
▁wor	-176
ies	-177
ant	-178
▁do	-179
▁India	-180
up	-181
▁It	-182
▁from	-183
ity	-184
▁k	-185
▁ex	-186
iv	-187
""	-188
▁were	-189
ress	-190
▁his	-191
▁le	-192
olice	-193
▁sp	-194
ister	-195
ime	-196
▁E	-197
▁O	-198
cc	-199
ore	-200
▁2	-201
ud	-202
qu	-203
ial	-204
ect	-205
▁su	-206
▁inc	-207
em	-208
ould	-209
han	-210
inister	-211
ome	-212
ident	-213
▁This	-214
ah	-215
ive	-216
▁Y	-217
ry	-218
▁pe	-219
ust	-220
ure	-221
ap	-222
ard	-223
ric	-224
▁In	-225
ople	-226
▁can	-227
are	-228
one	-229
▁lo	-230
▁U	-231
▁sh	-232
ok	-233
ight	-234
ide	-235
▁so	-236
ep	-237
▁What	-238
ther	-239
all	-240
ag	-241
ian	-242
ions	-243
▁ab	-244
wo	-245
▁all	-246
▁pl	-247
ase	-248
▁Minister	-249
ef	-250
very	-251
ous	-252
ind	-253
▁How	-254
▁had	-255
out	-256
ated	-257
av	-258
▁people	-259
ult	-260
end	-261
▁me	-262
▁V	-263
▁fil	-264
▁wh	-265
▁ch	-266
ff	-267
▁Pr	-268
▁your	-269
▁us	-270
▁j	-271
▁res	-272
ik	-273
age	-274
▁police	-275
ost	-276
ast	-277
▁Ch	-278
▁But	-279
pl	-280
▁im	-281
ue	-282
▁man	-283
▁or	-284
ake	-285
▁ar	-286
▁ag	-287
▁(	-288
▁pr	-289
ew	-290
▁Mod	-291
▁sa	-292
vern	-293
ble	-294
ell	-295
ire	-296
ack	-297
ount	-298
und	-299
00	-300
JP	-301
▁There	-302
▁acc	-303
▁their	-304
▁part	-305
▁Modi	-306
▁film	-307
▁up	-308
ater	-309
▁BJP	-310
port	-311
▁act	-312
aj	-313
ever	-314
▁one	-315
▁ad	-316
li	-317
ays	-318
▁out	-319
ple	-320
▁work	-321
gh	-322
hed	-323
▁Rs	-324
cial	-325
ame	-326
fter	-327
vernment	-328
ach	-329
▁dis	-330
▁int	-331
hen	-332
▁tr	-333
▁Cong	-334
ations	-335
▁Congress	-336
▁St	-337
▁other	-338
ail	-339
ild	-340
▁no	-341
▁about	-342
▁them	-343
▁You	-344
ans	-345
orm	-346
ath	-347
har	-348
ree	-349
▁cont	-350
irst	-351
▁We	-352
▁time	-353
ank	-354
ted	-355
ence	-356
ally	-357
▁said	-358
ary	-359
▁again	-360
▁app	-361
ace	-362
▁te	-363
hy	-364
oll	-365
rou	-366
ife	-367
ck	-368
▁off	-369
▁un	-370
▁reg	-371
▁3	-372
▁our	-373
▁who	-374
umb	-375
▁him	-376
▁two	-377
▁her	-378
▁per	-379
▁en	-380
▁An	-381
ine	-382
lect	-383
ons	-384
og	-385
▁inv	-386
▁God	-387
ren	-388
ings	-389
▁att	-390
ont	-391
able	-392
▁qu	-393
▁first	-394
ose	-395
under	-396
▁Je	-397
▁what	-398
now	-399
▁they	-400
ass	-401
▁over	-402
ign	-403
▁case	-404
▁under	-405
▁there	-406
reat	-407
ci	-408
ov	-409
▁Al	-410
▁So	-411
amil	-412
hov	-413
ord	-414
du	-415
ear	-416
hovah	-417
▁pres	-418
▁Jehovah	-419
per	-420
▁need	-421
ile	-422
▁ser	-423
ade	-424
▁ra	-425
ition	-426
▁government	-427
▁""	-428
ich	-429
old	-430
▁Indian	-431
▁They	-432
pt	-433
▁tra	-434
ance	-435
▁lead	-436
▁Prime	-437
ered	-438
▁new	-439
act	-440
▁cl	-441
▁against	-442
▁very	-443
▁As	-444
▁any	-445
▁am	-446
vel	-447
▁get	-448
ang	-449
ike	-450
mit	-451
▁med	-452
▁after	-453
rent	-454
▁-	-455
ious	-456
oy	-457
other	-458
▁did	-459
▁pers	-460
..	-461
▁Khan	-462
▁more	-463
▁count	-464
▁And	-465
iz	-466
ied	-467
ical	-468
▁its	-469
ond	-470
hief	-471
uj	-472
ish	-473
ens	-474
▁ev	-475
▁happ	-476
▁ro	-477
▁5	-478
ound	-479
ark	-480
▁Police	-481
ndra	-482
ict	-483
▁should	-484
ital	-485
▁dec	-486
ood	-487
ite	-488
oor	-489
oth	-490
arat	-491
ash	-492
form	-493
▁incident	-494
rest	-495
▁rec	-496
ob	-497
fe	-498
ates	-499
ai	-500
▁tak	-501
▁my	-502
▁cro	-503
ible	-504
ie	-505
▁On	-506
▁some	-507
esh	-508
we	-509
▁being	-510
▁know	-511
▁sc	-512
ities	-513
ujarat	-514
▁mat	-515
▁invest	-516
▁state	-517
▁Sh	-518
ured	-519
▁comp	-520
▁Gujarat	-521
istan	-522
▁bus	-523
▁She	-524
▁hel	-525
▁which	-526
▁bec	-527
▁pre	-528
igh	-529
ourt	-530
▁into	-531
▁famil	-532
hip	-533
ful	-534
oin	-535
arendra	-536
▁However	-537
▁would	-538
ub	-539
▁but	-540
▁Narendra	-541
▁good	-542
ick	-543
▁Sing	-544
▁bl	-545
lud	-546
osp	-547
ents	-548
med	-549
▁like	-550
."	-551
▁child	-552
▁De	-553
▁inj	-554
▁br	-555
▁4	-556
arm	-557
aw	-558
▁world	-559
▁how	-560
ctor	-561
▁day	-562
▁Del	-563
▁Gand	-564
ise	-565
▁Raj	-566
own	-567
here	-568
itu	-569
alth	-570
ting	-571
▁spe	-572
ces	-573
used	-574
▁Pak	-575
▁rel	-576
▁life	-577
▁many	-578
ory	-579
les	-580
▁Kap	-581
iness	-582
▁bet	-583
▁Singh	-584
▁Delhi	-585
uring	-586
▁Ag	-587
▁fl	-588
▁help	-589
ink	-590
ged	-591
▁20	-592
ved	-593
▁Ar	-594
▁rem	-595
ness	-596
ced	-597
ating	-598
▁country	-599
me	-600
ures	-601
▁sec	-602
▁Un	-603
▁includ	-604
way	-605
▁fe	-606
▁too	-607
▁made	-608
▁Pakistan	-609
ulture	-610
▁Gandhi	-611
mer	-612
▁gr	-613
oh	-614
▁ph	-615
ospital	-616
▁these	-617
ru	-618
man	-619
▁family	-620
au	-621
ma	-622
▁Go	-623
▁does	-624
▁water	-625
ational	-626
▁wom	-627
▁investig	-628
▁That	-629
arn	-630
get	-631
▁exp	-632
▁dif	-633
▁Man	-634
▁Why	-635
aus	-636
elf	-637
▁dist	-638
rit	-639
▁PM	-640
▁start	-641
▁elect	-642
xt	-643
ee	-644
▁when	-645
ather	-646
▁Kapoor	-647
▁social	-648
ove	-649
▁resp	-650
riculture	-651
pe	-652
ction	-653
ram	-654
▁Sha	-655
ward	-656
▁No	-657
ollow	-658
mb	-659
▁spot	-660
▁vide	-661
ased	-662
ody	-663
als	-664
tern	-665
ib	-666
▁pos	-667
▁media	-668
▁present	-669
▁meet	-670
▁taken	-671
▁Re	-672
▁"""	-673
▁then	-674
lic	-675
▁Ad	-676
▁every	-677
ip	-678
▁vill	-679
iss	-680
▁iss	-681
▁such	-682
oun	-683
rict	-684
▁add	-685
▁"	-686
▁look	-687
▁she	-688
eng	-689
ars	-690
▁Agriculture	-691
▁mov	-692
▁numb	-693
vers	-694
▁injured	-695
▁Is	-696
ases	-697
▁co	-698
cy	-699
▁sha	-700
▁could	-701
▁person	-702
akh	-703
ors	-704
▁hospital	-705
tain	-706
▁ben	-707
ween	-708
ject	-709
▁cur	-710
▁report	-711
▁stud	-712
▁take	-713
band	-714
▁crore	-715
▁three	-716
alk	-717
▁Chief	-718
▁cons	-719
uk	-720
▁between	-721
hes	-722
▁incre	-723
▁ac	-724
▁Shah	-725
▁ind	-726
der	-727
esus	-728
pport	-729
▁arrest	-730
▁video	-731
▁cent	-732
▁only	-733
▁well	-734
▁For	-735
▁than	-736
ised	-737
▁chan	-738
▁Jesus	-739
uch	-740
usband	-741
▁av	-742
ght	-743
eep	-744
▁bo	-745
▁Chr	-746
▁matter	-747
▁accused	-748
▁6	-749
▁New	-750
▁imp	-751
▁make	-752
▁most	-753
day	-754
▁giv	-755
urn	-756
▁health	-757
▁village	-758
ments	-759
emb	-760
▁ent	-761
▁play	-762
▁husband	-763
ision	-764
ower	-765
▁7	-766
▁All	-767
▁see	-768
▁want	-769
ng	-770
▁sm	-771
ins	-772
▁import	-773
▁Christ	-774
ause	-775
▁lar	-776
gan	-777
cess	-778
▁Its	-779
▁just	-780
▁follow	-781
▁children	-782
▁bu	-783
ular	-784
oc	-785
ix	-786
ush	-787
▁number	-788
ss	-789
▁during	-790
ani	-791
ets	-792
▁dire	-793
▁love	-794
▁10	-795
resident	-796
ool	-797
▁car	-798
rough	-799
wn	-800
fore	-801
ited	-802
▁quest	-803
▁going	-804
▁offic	-805
▁exam	-806
▁comm	-807
▁business	-808
▁Mah	-809
its	-810
▁diffe	-811
ats	-812
riend	-813
▁happen	-814
▁ter	-815
▁Rah	-816
▁right	-817
▁year	-818
ving	-819
rib	-820
ft	-821
▁arrested	-822
illed	-823
▁vis	-824
velop	-825
▁inform	-826
ya	-827
▁cor	-828
adesh	-829
▁lakh	-830
ried	-831
▁here	-832
▁call	-833
▁Tr	-834
▁President	-835
ave	-836
rong	-837
ific	-838
▁Do	-839
▁des	-840
▁'	-841
▁current	-842
plain	-843
▁through	-844
▁death	-845
▁regist	-846
▁minister	-847
led	-848
ata	-849
▁back	-850
▁both	-851
▁8	-852
ote	-853
ral	-854
asht	-855
▁say	-856
umbai	-857
▁team	-858
▁attack	-859
blem	-860
ough	-861
ffect	-862
▁produ	-863
ouse	-864
▁fin	-865
▁Rahul	-866
▁come	-867
▁set	-868
ec	-869
▁next	-870
ning	-871
▁Mumbai	-872
▁ce	-873
ty	-874
ati	-875
uss	-876
read	-877
wood	-878
▁district	-879
olly	-880
ey	-881
▁Com	-882
...	-883
▁vir	-884
ual	-885
▁disc	-886
▁problem	-887
▁mar	-888
▁hand	-889
▁situ	-890
ts	-891
▁occ	-892
ina	-893
▁registered	-894
ves	-895
imes	-896
▁if	-897
iew	-898
ently	-899
▁pass	-900
▁Bible	-901
▁place	-902
ives	-903
▁pol	-904
▁post	-905
▁way	-906
▁dont	-907
▁benef	-908
▁stand	-909
ana	-910
▁col	-911
ollywood	-912
jay	-913
▁If	-914
▁died	-915
ashtra	-916
▁US	-917
▁those	-918
▁Shar	-919
ven	-920
urther	-921
augh	-922
▁cap	-923
ax	-924
▁court	-925
▁ann	-926
▁even	-927
▁treat	-928
▁started	-929
▁run	-930
ks	-931
▁much	-932
mir	-933
▁seen	-934
sp	-935
▁cr	-936
▁different	-937
▁em	-938
▁while	-939
ways	-940
ution	-941
▁cases	-942
▁important	-943
con	-944
▁down	-945
▁home	-946
▁result	-947
chool	-948
▁Court	-949
▁dem	-950
▁care	-951
▁high	-952
▁sy	-953
rol	-954
▁op	-955
▁Wor	-956
▁Bollywood	-957
cted	-958
▁Pe	-959
aughter	-960
▁prov	-961
cer	-962
abad	-963
▁sur	-964
▁must	-965
▁rece	-966
▁long	-967
ared	-968
▁pict	-969
▁serv	-970
▁where	-971
▁reas	-972
▁show	-973
▁la	-974
▁won	-975
▁19	-976
▁His	-977
▁develop	-978
▁Ab	-979
▁Me	-980
olog	-981
▁prot	-982
ashmir	-983
ince	-984
imal	-985
▁Amit	-986
▁Sab	-987
ility	-988
▁spir	-989
▁given	-990
▁12	-991
▁Pat	-992
▁currently	-993
uth	-994
▁ask	-995
▁farm	-996
arli	-997
▁Mahar	-998
▁party	-999
▁situation	-1000
▁mon	-1001
▁Kashmir	-1002
▁At	-1003
self	-1004
▁chief	-1005
▁movie	-1006
hing	-1007
▁regard	-1008
▁meeting	-1009
ues	-1010
▁dep	-1011
▁sign	-1012
▁det	-1013
▁avail	-1014
▁fire	-1015
▁last	-1016
ph	-1017
▁took	-1018
▁treatment	-1019
ror	-1020
▁15	-1021
▁same	-1022
▁contin	-1023
▁Pradesh	-1024
▁daughter	-1025
▁One	-1026
▁may	-1027
▁yet	-1028
▁9	-1029
umar	-1030
▁Gods	-1031
▁friend	-1032
▁investigation	-1033
▁After	-1034
▁train	-1035
▁ve	-1036
ines	-1037
▁air	-1038
▁Then	-1039
▁four	-1040
rick	-1041
▁cam	-1042
ached	-1043
ccess	-1044
ird	-1045
▁Im	-1046
▁ass	-1047
▁read	-1048
br	-1049
▁ob	-1050
ended	-1051
▁wife	-1052
▁large	-1053
▁complain	-1054
▁cond	-1055
ener	-1056
▁great	-1057
▁Government	-1058
ics	-1059
ages	-1060
▁dri	-1061
▁each	-1062
pur	-1063
ists	-1064
▁sim	-1065
▁Maharashtra	-1066
ran	-1067
▁fac	-1068
ission	-1069
▁killed	-1070
▁further	-1071
▁done	-1072
▁before	-1073
ump	-1074
▁viral	-1075
air	-1076
▁ref	-1077
ala	-1078
▁prog	-1079
▁201	-1080
▁gir	-1081
ena	-1082
ten	-1083
▁own	-1084
▁tem	-1085
sw	-1086
▁Sal	-1087
arent	-1088
gest	-1089
▁ext	-1090
▁lot	-1091
▁Sabha	-1092
ived	-1093
▁These	-1094
▁const	-1095
▁Bank	-1096
ided	-1097
▁Jam	-1098
▁When	-1099
▁Sharma	-1100
ection	-1101
▁comple	-1102
▁things	-1103
▁Te	-1104
conom	-1105
▁inst	-1106
▁found	-1107
▁trans	-1108
▁president	-1109
▁Sa	-1110
outh	-1111
▁Two	-1112
ides	-1113
oney	-1114
▁pri	-1115
aking	-1116
▁leaders	-1117
▁char	-1118
▁conf	-1119
▁inte	-1120
ries	-1121
▁hum	-1122
▁var	-1123
▁body	-1124
▁remain	-1125
reme	-1126
▁son	-1127
▁plan	-1128
▁second	-1129
000	-1130
▁loc	-1131
▁ret	-1132
▁grou	-1133
atch	-1134
▁sub	-1135
inist	-1136
▁shared	-1137
▁Jehovahs	-1138
omet	-1139
▁end	-1140
▁city	-1141
▁women	-1142
reet	-1143
▁later	-1144
▁others	-1145
▁support	-1146
▁&	-1147
ges	-1148
▁Hind	-1149
▁mark	-1150
▁talk	-1151
▁Kumar	-1152
▁sever	-1153
▁success	-1154
▁Main	-1155
▁list	-1156
▁Who	-1157
▁days	-1158
▁memb	-1159
▁phot	-1160
az	-1161
semb	-1162
▁name	-1163
▁Pro	-1164
▁People	-1165
▁several	-1166
com	-1167
▁issue	-1168
▁Inst	-1169
te	-1170
▁sk	-1171
▁available	-1172
▁few	-1173
▁win	-1174
▁sl	-1175
ants	-1176
lebr	-1177
▁leader	-1178
ock	-1179
ural	-1180
▁far	-1181
▁school	-1182
ched	-1183
ices	-1184
ploy	-1185
▁ful	-1186
ricket	-1187
ired	-1188
▁State	-1189
▁partic	-1190
▁Ex	-1191
▁gl	-1192
reen	-1193
ately	-1194
▁visit	-1195
▁accident	-1196
▁Ram	-1197
abour	-1198
ative	-1199
ute	-1200
▁woman	-1201
▁met	-1202
▁says	-1203
kar	-1204
BI	-1205
▁used	-1206
▁open	-1207
▁inter	-1208
▁become	-1209
ner	-1210
▁mil	-1211
▁heav	-1212
itness	-1213
▁Christian	-1214
arth	-1215
ross	-1216
▁Son	-1217
ually	-1218
▁father	-1219
▁persons	-1220
▁due	-1221
▁compan	-1222
▁husbandry	-1223
▁role	-1224
▁among	-1225
▁polit	-1226
▁celebr	-1227
▁law	-1228
▁laun	-1229
gether	-1230
▁decision	-1231
▁together	-1232
iel	-1233
▁inf	-1234
▁official	-1235
▁11	-1236
▁heart	-1237
▁never	-1238
▁cle	-1239
ature	-1240
▁rele	-1241
▁fa	-1242
urity	-1243
▁main	-1244
▁requ	-1245
icle	-1246
aring	-1247
ug	-1248
▁eas	-1249
sembly	-1250
▁Sup	-1251
ublic	-1252
▁actor	-1253
▁action	-1254
▁answ	-1255
ording	-1256
▁still	-1257
ior	-1258
▁along	-1259
▁appro	-1260
▁Labour	-1261
▁reported	-1262
▁Z	-1263
▁World	-1264
▁seats	-1265
▁let	-1266
arents	-1267
ected	-1268
▁build	-1269
ued	-1270
▁Ran	-1271
ivers	-1272
thing	-1273
▁keep	-1274
▁word	-1275
▁Animal	-1276
▁question	-1277
ps	-1278
ality	-1279
ention	-1280
▁occas	-1281
▁power	-1282
▁rain	-1283
▁times	-1284
▁former	-1285
"""	-1286
▁prom	-1287
▁road	-1288
▁process	-1289
▁relations	-1290
▁sal	-1291
▁special	-1292
▁elections	-1293
▁area	-1294
▁food	-1295
oss	-1296
▁form	-1297
▁house	-1298
▁announ	-1299
▁around	-1300
chn	-1301
▁poss	-1302
▁reached	-1303
▁big	-1304
▁use	-1305
▁feel	-1306
▁head	-1307
▁near	-1308
▁brother	-1309
▁sit	-1310
▁away	-1311
▁years	-1312
▁Ah	-1313
arch	-1314
ought	-1315
ara	-1316
ield	-1317
▁another	-1318
stem	-1319
▁beg	-1320
▁econom	-1321
▁complaint	-1322
ppos	-1323
▁adv	-1324
▁month	-1325
▁think	-1326
▁including	-1327
▁Wh	-1328
▁across	-1329
side	-1330
▁held	-1331
▁sent	-1332
▁faith	-1333
ples	-1334
▁Both	-1335
▁fore	-1336
ism	-1337
▁discuss	-1338
ized	-1339
▁rep	-1340
ushed	-1341
▁always	-1342
▁account	-1343
dom	-1344
▁To	-1345
▁Shri	-1346
▁came	-1347
▁occasion	-1348
na	-1349
▁Your	-1350
▁Shi	-1351
▁Many	-1352
▁exper	-1353
mu	-1354
▁friends	-1355
ety	-1356
▁got	-1357
▁called	-1358
aut	-1359
ias	-1360
▁Lok	-1361
▁Some	-1362
▁pric	-1363
▁students	-1364
ret	-1365
▁gu	-1366
▁went	-1367
▁strong	-1368
ook	-1369
▁oil	-1370
▁conn	-1371
▁Union	-1372
▁farmers	-1373
-1	-1374
anka	-1375
▁join	-1376
▁increase	-1377
▁interest	-1378
▁why	-1379
▁oper	-1380
land	-1381
▁true	-1382
▁My	-1383
ffic	-1384
ering	-1385
▁Cent	-1386
▁event	-1387
▁China	-1388
▁young	-1389
▁include	-1390
my	-1391
tle	-1392
▁however	-1393
▁Be	-1394
▁cre	-1395
▁men	-1396
▁sho	-1397
ished	-1398
▁National	-1399
▁Pri	-1400
▁Salman	-1401
▁top	-1402
,000	-1403
▁information	-1404
ek	-1405
▁.	-1406
ika	-1407
▁pop	-1408
engal	-1409
▁give	-1410
▁parents	-1411
▁cou	-1412
ling	-1413
▁Acc	-1414
▁mother	-1415
▁13	-1416
▁lit	-1417
▁Bengal	-1418
rat	-1419
▁14	-1420
ajor	-1421
ency	-1422
▁mod	-1423
▁money	-1424
▁terror	-1425
▁Add	-1426
▁Ahmed	-1427
aim	-1428
ale	-1429
▁Cor	-1430
▁tot	-1431
▁tre	-1432
▁girl	-1433
▁Trump	-1434
▁Bh	-1435
▁Vi	-1436
ressed	-1437
▁small	-1438
▁fact	-1439
▁soon	-1440
mitted	-1441
▁Am	-1442
ament	-1443
andid	-1444
stand	-1445
▁Jammu	-1446
▁rushed	-1447
▁Le	-1448
▁Patel	-1449
gar	-1450
not	-1451
▁example	-1452
irus	-1453
ters	-1454
▁Act	-1455
▁put	-1456
▁beli	-1457
▁since	-1458
▁San	-1459
▁bel	-1460
ready	-1461
▁hold	-1462
▁today	-1463
▁members	-1464
ope	-1465
wit	-1466
▁Pa	-1467
ified	-1468
▁news	-1469
▁rest	-1470
▁cricket	-1471
▁try	-1472
▁best	-1473
▁grow	-1474
▁serious	-1475
▁front	-1476
▁entire	-1477
▁happened	-1478
aff	-1479
chan	-1480
▁find	-1481
▁test	-1482
▁learn	-1483
▁might	-1484
▁because	-1485
ense	-1486
ology	-1487
▁High	-1488
eal	-1489
▁Ali	-1490
▁Not	-1491
▁view	-1492
▁system	-1493
▁received	-1494
pr	-1495
).	-1496
▁Af	-1497
▁already	-1498
ract	-1499
▁100	-1500
▁Sec	-1501
▁five	-1502
▁poin	-1503
ams	-1504
agar	-1505
▁Shiv	-1506
▁filed	-1507
▁organ	-1508
▁Pun	-1509
▁bat	-1510
▁King	-1511
▁side	-1512
▁following	-1513
fic	-1514
uck	-1515
onav	-1516
▁pan	-1517
iving	-1518
cept	-1519
▁Eng	-1520
▁demand	-1521
onavirus	-1522
▁art	-1523
▁che	-1524
▁With	-1525
▁field	-1526
▁affect	-1527
▁respons	-1528
era	-1529
orts	-1530
▁Every	-1531
ll	-1532
ali	-1533
sel	-1534
▁Ma	-1535
medi	-1536
▁Thats	-1537
▁project	-1538
▁Dont	-1539
▁decl	-1540
arly	-1541
▁mind	-1542
▁happy	-1543
gy	-1544
▁18	-1545
ohli	-1546
orth	-1547
▁poll	-1548
▁suff	-1549
▁prices	-1550
▁sitting	-1551
app	-1552
▁Mad	-1553
▁Vir	-1554
▁mot	-1555
▁val	-1556
▁Aust	-1557
▁face	-1558
▁pati	-1559
▁step	-1560
▁asked	-1561
▁del	-1562
▁reason	-1563
▁program	-1564
adi	-1565
arty	-1566
▁leg	-1567
▁West	-1568
▁prop	-1569
▁Supreme	-1570
ned	-1571
ising	-1572
20	-1573
els	-1574
▁Ne	-1575
▁candid	-1576
▁really	-1577
ert	-1578
ped	-1579
▁pet	-1580
▁Kohli	-1581
▁major	-1582
▁Air	-1583
▁veh	-1584
▁bank	-1585
▁South	-1586
▁impro	-1587
wards	-1588
▁land	-1589
▁somet	-1590
inistry	-1591
mission	-1592
▁security	-1593
vi	-1594
oon	-1595
ined	-1596
▁Res	-1597
▁sol	-1598
▁More	-1599
▁cong	-1600
▁runs	-1601
▁light	-1602
▁doctor	-1603
▁Austral	-1604
▁development	-1605
hya	-1606
mon	-1607
▁50	-1608
▁ap	-1609
▁cost	-1610
arlier	-1611
idence	-1612
▁doing	-1613
▁films	-1614
uc	-1615
oting	-1616
itive	-1617
▁book	-1618
▁prev	-1619
▁stop	-1620
▁earth	-1621
▁stars	-1622
▁total	-1623
▁public	-1624
▁perform	-1625
ternational	-1626
▁Se	-1627
ging	-1628
reng	-1629
▁200	-1630
▁deb	-1631
LA	-1632
oms	-1633
ones	-1634
▁gone	-1635
▁pray	-1636
pportun	-1637
▁Bi	-1638
▁Indias	-1639
▁various	-1640
▁def	-1641
▁job	-1642
▁opt	-1643
▁Home	-1644
▁vict	-1645
▁needs	-1646
▁Ahmedabad	-1647
▁wr	-1648
▁Dep	-1649
▁chall	-1650
▁opportun	-1651
▁problems	-1652
▁relationship	-1653
▁Test	-1654
▁dead	-1655
▁cannot	-1656
▁street	-1657
▁Can	-1658
▁fun	-1659
▁effect	-1660
▁sister	-1661
▁questions	-1662
hatt	-1663
irth	-1664
▁phone	-1665
▁return	-1666
▁benefit	-1667
▁25	-1668
ider	-1669
▁hist	-1670
▁gener	-1671
▁immedi	-1672
ourse	-1673
▁informed	-1674
▁pictures	-1675
▁el	-1676
▁real	-1677
▁areas	-1678
ination	-1679
oid	-1680
▁bas	-1681
▁min	-1682
▁pur	-1683
agram	-1684
▁priv	-1685
ilities	-1686
▁Q	-1687
joy	-1688
itiz	-1689
▁now	-1690
▁park	-1691
nder	-1692
▁feat	-1693
▁Instagram	-1694
▁countries	-1695
ka	-1696
ury	-1697
▁dr	-1698
ship	-1699
▁Don	-1700
▁Paul	-1701
▁hard	-1702
▁left	-1703
▁writ	-1704
ancial	-1705
▁Vijay	-1706
go	-1707
erv	-1708
▁old	-1709
▁star	-1710
▁states	-1711
▁streng	-1712
ames	-1713
ches	-1714
▁Whats	-1715
▁known	-1716
▁driver	-1717
▁ed	-1718
enior	-1719
▁human	-1720
▁answer	-1721
▁protest	-1722
▁understand	-1723
▁16	-1724
▁rul	-1725
▁unt	-1726
▁Where	-1727
▁experi	-1728
▁election	-1729
tt	-1730
angu	-1731
less	-1732
▁third	-1733
▁change	-1734
The	-1735
war	-1736
osed	-1737
ourn	-1738
▁gra	-1739
▁level	-1740
ises	-1741
▁kind	-1742
▁turn	-1743
illion	-1744
▁According	-1745
be	-1746
hav	-1747
rence	-1748
▁respect	-1749
orn	-1750
▁ple	-1751
yanka	-1752
▁Deep	-1753
▁without	-1754
ger	-1755
ily	-1756
▁Con	-1757
▁prep	-1758
▁condu	-1759
▁recently	-1760
cl	-1761
ald	-1762
▁Sc	-1763
▁eng	-1764
ables	-1765
uture	-1766
▁oppos	-1767
artment	-1768
▁spiritu	-1769
▁Her	-1770
▁bre	-1771
▁peace	-1772
▁techn	-1773
▁white	-1774
▁making	-1775
."""	-1776
▁Fin	-1777
asing	-1778
▁alle	-1779
▁record	-1780
▁travel	-1781
▁married	-1782
▁launched	-1783
edd	-1784
jab	-1785
ria	-1786
oles	-1787
ying	-1788
▁Kar	-1789
▁beh	-1790
▁Form	-1791
▁dise	-1792
▁free	-1793
▁attended	-1794
irm	-1795
reg	-1796
witter	-1797
▁cause	-1798
▁series	-1799
▁Assembly	-1800
▁particip	-1801
▁Australia	-1802
▁MLA	-1803
▁move	-1804
▁course	-1805
▁directed	-1806
aid	-1807
ours	-1808
pped	-1809
▁cho	-1810
▁cust	-1811
ficult	-1812
▁Health	-1813
▁past	-1814
▁announced	-1815
▁hon	-1816
▁init	-1817
▁invol	-1818
▁match	-1819
▁parts	-1820
▁price	-1821
ork	-1822
▁17	-1823
▁Fr	-1824
akes	-1825
weet	-1826
▁Dev	-1827
▁enjoy	-1828
▁wrong	-1829
▁company	-1830
▁picture	-1831
▁Priyanka	-1832
▁investigating	-1833
aka	-1834
▁Cl	-1835
ored	-1836
▁pay	-1837
▁Just	-1838
▁belie	-1839
▁spirit	-1840
iversity	-1841
▁building	-1842
▁underway	-1843
▁lives	-1844
ID	-1845
iol	-1846
▁pow	-1847
▁Punjab	-1848
▁became	-1849
▁service	-1850
▁anything	-1851
oot	-1852
▁viol	-1853
▁heavy	-1854
▁mur	-1855
▁tax	-1856
iance	-1857
▁lost	-1858
selves	-1859
▁taking	-1860
▁working	-1861
cle	-1862
line	-1863
than	-1864
▁enc	-1865
▁Bhar	-1866
▁proper	-1867
ait	-1868
idd	-1869
▁sw	-1870
inal	-1871
▁rev	-1872
▁Bach	-1873
▁sour	-1874
▁relig	-1875
▁detail	-1876
▁future	-1877
▁activ	-1878
▁truth	-1879
▁better	-1880
▁Twitter	-1881
▁condition	-1882
mi	-1883
wh	-1884
▁plac	-1885
▁sing	-1886
itions	-1887
▁Other	-1888
▁birth	-1889
▁close	-1890
▁often	-1891
itizens	-1892
▁indust	-1893
▁difficult	-1894
aks	-1895
ukh	-1896
amed	-1897
▁Here	-1898
▁Rajas	-1899
▁ident	-1900
▁actress	-1901
▁standing	-1902
ize	-1903
▁30	-1904
▁Pl	-1905
▁Virat	-1906
▁didnt	-1907
▁fight	-1908
▁nation	-1909
▁reasons	-1910
pan	-1911
ude	-1912
▁arri	-1913
▁full	-1914
▁pain	-1915
▁possible	-1916
▁Rajasthan	-1917
uty	-1918
▁MP	-1919
▁bow	-1920
▁night	-1921
▁coming	-1922
▁control	-1923
▁results	-1924
CI	-1925
▁[	-1926
put	-1927
uge	-1928
pper	-1929
▁div	-1930
▁eff	-1931
▁red	-1932
meric	-1933
round	-1934
▁Bihar	-1935
▁Party	-1936
▁Former	-1937
▁employ	-1938
▁getting	-1939
▁nothing	-1940
),	-1941
▁es	-1942
▁Jan	-1943
uries	-1944
▁easy	-1945
▁commun	-1946
▁temple	-1947
▁immediately	-1948
gn	-1949
ung	-1950
▁ey	-1951
room	-1952
▁Karn	-1953
▁likely	-1954
▁Rep	-1955
ained	-1956
ession	-1957
▁CM	-1958
▁CO	-1959
ttar	-1960
▁Day	-1961
▁hig	-1962
uthor	-1963
▁blood	-1964
▁claim	-1965
▁order	-1966
▁whole	-1967
▁words	-1968
▁Bachchan	-1969
ada	-1970
▁Col	-1971
▁wick	-1972
▁allow	-1973
itnesses	-1974
▁Pet	-1975
▁shi	-1976
ences	-1977
▁something	-1978
cient	-1979
ember	-1980
▁Bang	-1981
ration	-1982
ibility	-1983
▁himself	-1984
▁released	-1985
▁political	-1986
-19	-1987
row	-1988
over	-1989
▁Mus	-1990
▁cha	-1991
▁equ	-1992
▁spok	-1993
▁Uttar	-1994
▁black	-1995
▁attend	-1996
ees	-1997
aram	-1998
▁lod	-1999
ellow	-2000
▁Read	-2001
▁live	-2002
▁ones	-2003
CT	-2004
sc	-2005
ointed	-2006
▁group	-2007
▁short	-2008
lection	-2009
iod	-2010
▁Bl	-2011
icles	-2012
while	-2013
pecial	-2014
▁station	-2015
▁officials	-2016
cing	-2017
▁gave	-2018
▁glob	-2019
▁week	-2020
ids	-2021
▁Sena	-2022
▁prof	-2023
▁tell	-2024
overed	-2025
▁press	-2026
▁study	-2027
ms	-2028
hay	-2029
isha	-2030
▁jud	-2031
▁played	-2032
io	-2033
jee	-2034
wal	-2035
▁able	-2036
▁mean	-2037
▁Karnat	-2038
▁popular	-2039
iqu	-2040
upt	-2041
usp	-2042
▁App	-2043
▁est	-2044
▁wind	-2045
▁address	-2046
▁thought	-2047
hys	-2048
▁Rel	-2049
coming	-2050
▁behind	-2051
▁camera	-2052
▁market	-2053
▁Karnataka	-2054
cent	-2055
oper	-2056
▁age	-2057
▁Army	-2058
▁financial	-2059
▁Ph	-2060
oura	-2061
▁Mal	-2062
▁commit	-2063
▁period	-2064
▁Kingdom	-2065
arliament	-2066
aged	-2067
▁Aks	-2068
▁dev	-2069
riage	-2070
▁mess	-2071
▁green	-2072
▁langu	-2073
▁thing	-2074
▁couple	-2075
pa	-2076
lim	-2077
▁Of	-2078
▁Nit	-2079
▁bath	-2080
▁concer	-2081
ST	-2082
int	-2083
ival	-2084
▁Will	-2085
▁redu	-2086
▁walk	-2087
▁States	-2088
▁sector	-2089
▁complete	-2090
nel	-2091
▁Dh	-2092
iver	-2093
ohit	-2094
▁don	-2095
▁led	-2096
▁Also	-2097
▁dies	-2098
▁self	-2099
ertain	-2100
▁Tamil	-2101
▁quite	-2102
▁simple	-2103
▁Our	-2104
▁bad	-2105
▁crit	-2106
ohn	-2107
▁Pad	-2108
▁loss	-2109
▁supp	-2110
ential	-2111
▁Chand	-2112
▁bring	-2113
▁office	-2114
men	-2115
rah	-2116
udd	-2117
abin	-2118
fted	-2119
lish	-2120
▁Cup	-2121
▁accom	-2122
▁clean	-2123
▁youth	-2124
ule	-2125
ason	-2126
▁Yes	-2127
▁ant	-2128
▁bro	-2129
▁mus	-2130
▁Isra	-2131
▁ever	-2132
▁sche	-2133
aching	-2134
▁Afric	-2135
▁began	-2136
▁comes	-2137
▁history	-2138
▁patients	-2139
▁coronavirus	-2140
bs	-2141
iah	-2142
▁Ra	-2143
▁ur	-2144
▁CBI	-2145
ically	-2146
▁rains	-2147
▁positive	-2148
▁Christians	-2149
adu	-2150
rug	-2151
acher	-2152
▁John	-2153
▁Mean	-2154
▁Rukh	-2155
▁Sush	-2156
▁educ	-2157
▁trad	-2158
▁based	-2159
▁begin	-2160
▁lodged	-2161
▁Deepika	-2162
▁medical	-2163
ery	-2164
▁Let	-2165
▁Sur	-2166
▁cal	-2167
▁tri	-2168
▁salt	-2169
retary	-2170
▁motor	-2171
▁needed	-2172
.5	-2173
his	-2174
come	-2175
fall	-2176
reed	-2177
▁six	-2178
ither	-2179
▁data	-2180
▁dest	-2181
▁active	-2182
oad	-2183
▁Dav	-2184
▁conv	-2185
▁initi	-2186
▁Akshay	-2187
▁resign	-2188
▁captain	-2189
▁largest	-2190
▁features	-2191
oud	-2192
▁En	-2193
ains	-2194
ogra	-2195
▁dou	-2196
▁mom	-2197
▁Stud	-2198
▁sold	-2199
▁stay	-2200
rought	-2201
▁issues	-2202
▁shifted	-2203
▁continue	-2204
▁Witnesses	-2205
▁spiritual	-2206
▁increasing	-2207
bo	-2208
▁21	-2209
▁Sp	-2210
head	-2211
ruct	-2212
▁dra	-2213
▁hot	-2214
▁deal	-2215
▁stat	-2216
engers	-2217
▁Three	-2218
▁thank	-2219
▁brothers	-2220
king	-2221
▁Cha	-2222
▁Rup	-2223
▁cant	-2224
▁huge	-2225
▁class	-2226
▁local	-2227
▁photo	-2228
▁Meanwhile	-2229
abh	-2230
▁Hy	-2231
▁ord	-2232
▁looking	-2233
▁towards	-2234
ification	-2235
ane	-2236
ium	-2237
ened	-2238
ript	-2239
▁Sat	-2240
▁key	-2241
▁sup	-2242
▁Take	-2243
▁gold	-2244
everal	-2245
▁First	-2246
▁Rohit	-2247
▁drink	-2248
▁Israel	-2249
▁Several	-2250
▁product	-2251
▁connection	-2252
amp	-2253
mpt	-2254
▁24	-2255
▁aw	-2256
ners	-2257
▁cir	-2258
ulation	-2259
▁issued	-2260
▁murder	-2261
▁expected	-2262
ke	-2263
icy	-2264
▁Dr	-2265
ards	-2266
▁cup	-2267
iding	-2268
▁fail	-2269
▁less	-2270
▁till	-2271
▁appre	-2272
▁bench	-2273
▁smart	-2274
▁successful	-2275
hest	-2276
▁Sun	-2277
▁aut	-2278
▁gar	-2279
ories	-2280
▁milk	-2281
▁ways	-2282
▁Hindi	-2283
▁beaut	-2284
▁ready	-2285
▁works	-2286
▁living	-2287
▁search	-2288
▁contest	-2289
▁workers	-2290
▁economic	-2291
▁IP	-2292
▁ca	-2293
cies	-2294
fort	-2295
▁Are	-2296
cience	-2297
▁story	-2298
▁Madhya	-2299
▁congreg	-2300
▁disease	-2301
▁services	-2302
amb	-2303
itc	-2304
uted	-2305
▁vot	-2306
▁coun	-2307
▁date	-2308
▁seem	-2309
edding	-2310
▁worship	-2311
asp	-2312
tee	-2313
body	-2314
▁Yog	-2315
▁ris	-2316
▁seat	-2317
mptoms	-2318
▁Donald	-2319
▁During	-2320
▁anyone	-2321
▁little	-2322
▁spread	-2323
▁marriage	-2324
gr	-2325
▁%	-2326
ern	-2327
▁ri	-2328
cell	-2329
▁COV	-2330
▁mor	-2331
range	-2332
▁national	-2333
▁1,	-2334
chie	-2335
▁war	-2336
▁phys	-2337
▁told	-2338
▁crores	-2339
▁having	-2340
▁brought	-2341
▁improve	-2342
att	-2343
erc	-2344
▁Or	-2345
ivil	-2346
ring	-2347
veer	-2348
▁inn	-2349
▁pot	-2350
▁rate	-2351
▁private	-2352
▁upcoming	-2353
▁happiness	-2354
,""	-2355
rew	-2356
▁ty	-2357
▁Che	-2358
▁bowl	-2359
▁poor	-2360
▁prin	-2361
▁song	-2362
abinet	-2363
▁final	-2364
▁tweet	-2365
ruction	-2366
soci	-2367
▁Var	-2368
▁lim	-2369
▁mob	-2370
esides	-2371
▁wrote	-2372
▁worked	-2373
▁consider	-2374
▁director	-2375
▁injuries	-2376
▁yourself	-2377
por	-2378
rate	-2379
▁Sam	-2380
▁Tel	-2381
▁ill	-2382
ciety	-2383
▁Keep	-2384
▁once	-2385
▁stri	-2386
▁COVID	-2387
▁North	-2388
cessary	-2389
▁amount	-2390
▁traffic	-2391
▁addition	-2392
▁bathroom	-2393
add	-2394
▁dam	-2395
going	-2396
▁Dire	-2397
▁Rail	-2398
▁foot	-2399
▁Sanjay	-2400
▁applic	-2401
alf	-2402
iron	-2403
then	-2404
▁Amb	-2405
▁Pre	-2406
▁vac	-2407
▁fine	-2408
▁achie	-2409
▁bless	-2410
▁pract	-2411
▁shall	-2412
▁share	-2413
▁United	-2414
▁admitted	-2415
▁industry	-2416
▁particular	-2417
eds	-2418
ify	-2419
▁37	-2420
▁May	-2421
▁ide	-2422
▁eyes	-2423
▁fest	-2424
▁steps	-2425
▁Africa	-2426
▁decided	-2427
▁citizens	-2428
CP	-2429
by	-2430
onse	-2431
resh	-2432
▁Med	-2433
▁mult	-2434
▁Ministry	-2435
▁University	-2436
tty	-2437
▁Nav	-2438
ushka	-2439
▁insp	-2440
▁using	-2441
▁author	-2442
▁direct	-2443
▁senior	-2444
▁personal	-2445
▁Ay	-2446
▁kn	-2447
iful	-2448
ilar	-2449
ivid	-2450
▁Now	-2451
▁circ	-2452
▁David	-2453
▁appear	-2454
▁design	-2455
▁places	-2456
▁powder	-2457
▁earlier	-2458
CTV	-2459
ari	-2460
eed	-2461
wan	-2462
▁Sy	-2463
nath	-2464
▁Wom	-2465
▁CCTV	-2466
▁Kare	-2467
▁Lord	-2468
▁reve	-2469
▁toil	-2470
▁apost	-2471
▁means	-2472
▁speak	-2473
▁region	-2474
▁though	-2475
▁Anushka	-2476
▁England	-2477
▁Ranveer	-2478
▁expressed	-2479
la	-2480
▁/	-2481
ama	-2482
ier	-2483
▁Su	-2484
▁di	-2485
vere	-2486
▁Mar	-2487
▁boy	-2488
▁fav	-2489
▁low	-2490
▁fans	-2491
▁susp	-2492
ousand	-2493
▁added	-2494
▁avoid	-2495
ication	-2496
▁global	-2497
▁photos	-2498
▁options	-2499
▁statement	-2500
ron	-2501
▁By	-2502
▁Art	-2503
▁upon	-2504
isions	-2505
▁Hindu	-2506
▁Follow	-2507
▁trying	-2508
▁contrib	-2509
▁provide	-2510
▁produced	-2511
▁international	-2512
▁X	-2513
▁Sm	-2514
omes	-2515
▁ang	-2516
▁hit	-2517
▁Bhatt	-2518
▁milit	-2519
▁sugar	-2520
▁Central	-2521
▁believe	-2522
▁families	-2523
▁increased	-2524
▁experience	-2525
ton	-2526
alls	-2527
rain	-2528
ffair	-2529
rying	-2530
▁Later	-2531
▁below	-2532
▁roles	-2533
ference	-2534
▁common	-2535
▁cooper	-2536
▁ground	-2537
▁Kareena	-2538
▁declared	-2539
rab	-2540
rop	-2541
▁Jos	-2542
▁disp	-2543
▁alone	-2544
plement	-2545
▁Govern	-2546
▁raised	-2547
▁appreci	-2548
▁economy	-2549
▁Commission	-2550
▁celebrated	-2551
▁Ka	-2552
▁TV	-2553
ians	-2554
▁Most	-2555
▁bird	-2556
itchen	-2557
▁saying	-2558
▁details	-2559
▁efforts	-2560
▁affected	-2561
▁position	-2562
▁progress	-2563
▁vehicles	-2564
hu	-2565
adav	-2566
aily	-2567
mend	-2568
▁imm	-2569
▁sil	-2570
ension	-2571
▁watch	-2572
▁Rupani	-2573
▁diesel	-2574
▁parties	-2575
ne	-2576
▁22	-2577
▁Bo	-2578
aves	-2579
fact	-2580
▁Muk	-2581
▁Sim	-2582
▁den	-2583
acter	-2584
aught	-2585
imary	-2586
phone	-2587
▁Dist	-2588
▁fear	-2589
▁rail	-2590
▁tour	-2591
ternal	-2592
▁basis	-2593
▁victim	-2594
▁individ	-2595
▁benefits	-2596
▁Parliament	-2597
▁strengthen	-2598
▁z	-2599
book	-2600
rant	-2601
▁Fil	-2602
▁Red	-2603
▁whe	-2604
icide	-2605
▁Cont	-2606
▁coll	-2607
▁fast	-2608
▁isnt	-2609
▁paid	-2610
▁spec	-2611
▁trib	-2612
▁teams	-2613
▁everyone	-2614
▁response	-2615
▁programme	-2616
jun	-2617
uit	-2618
▁Ap	-2619
▁ens	-2620
ances	-2621
▁norm	-2622
atives	-2623
▁Yadav	-2624
▁ahead	-2625
▁reject	-2626
▁required	-2627
▁facilities	-2628
DI	-2629
bed	-2630
utt	-2631
sequ	-2632
▁Sri	-2633
▁eat	-2634
▁Chop	-2635
▁resc	-2636
▁skin	-2637
▁mater	-2638
▁trust	-2639
▁worth	-2640
▁certain	-2641
▁Hospital	-2642
▁assembly	-2643
▁candidates	-2644
ept	-2645
▁Sw	-2646
leep	-2647
▁Par	-2648
aster	-2649
lying	-2650
ciples	-2651
▁journ	-2652
▁Americ	-2653
▁Theres	-2654
▁changed	-2655
▁outside	-2656
0.	-2657
aly	-2658
down	-2659
▁neg	-2660
▁par	-2661
▁deep	-2662
resent	-2663
▁Child	-2664
▁Their	-2665
▁award	-2666
▁compet	-2667
▁forces	-2668
▁kitchen	-2669
▁society	-2670
▁companies	-2671
▁technology	-2672
hod	-2673
ley	-2674
ows	-2675
rog	-2676
pect	-2677
▁Ker	-2678
▁ver	-2679
▁meas	-2680
▁occur	-2681
▁article	-2682
▁regular	-2683
▁maintain	-2684
▁politics	-2685
▁responsibility	-2686
▁hy	-2687
ream	-2688
vest	-2689
▁Roy	-2690
udget	-2691
▁Russ	-2692
▁point	-2693
agement	-2694
▁income	-2695
▁shooting	-2696
▁education	-2697
▁implement	-2698
GB	-2699
elt	-2700
ogn	-2701
▁po	-2702
quir	-2703
work	-2704
▁Ban	-2705
▁net	-2706
erson	-2707
▁daily	-2708
▁Father	-2709
▁scheme	-2710
▁Besides	-2711
▁wedding	-2712
▁attention	-2713
▁districts	-2714
oj	-2715
apt	-2716
hai	-2717
val	-2718
ohar	-2719
play	-2720
▁ban	-2721
▁ins	-2722
▁rise	-2723
atural	-2724
▁Gener	-2725
▁probe	-2726
▁single	-2727
▁express	-2728
▁respond	-2729
▁suicide	-2730
▁includes	-2731
▁rainfall	-2732
▁passengers	-2733
▁congregation	-2734
▁opportunities	-2735
▁?	-2736
urt	-2737
▁1.	-2738
▁40	-2739
▁Br	-2740
ites	-2741
▁hair	-2742
▁Actor	-2743
▁least	-2744
itation	-2745
▁Centre	-2746
▁season	-2747
▁playing	-2748
▁written	-2749
▁challeng	-2750
9.	-2751
ato	-2752
par	-2753
aled	-2754
fect	-2755
▁Def	-2756
▁eld	-2757
▁mag	-2758
▁obs	-2759
▁Bangl	-2760
▁Watch	-2761
▁resol	-2762
derabad	-2763
▁doesnt	-2764
▁Following	-2765
▁necessary	-2766
kh	-2767
lev	-2768
oni	-2769
ull	-2770
ergy	-2771
iers	-2772
▁Pan	-2773
▁adm	-2774
▁sum	-2775
erred	-2776
ights	-2777
▁Hary	-2778
▁Pand	-2779
▁purp	-2780
▁wait	-2781
utions	-2782
▁Justice	-2783
▁message	-2784
▁Hyderabad	-2785
▁beautiful	-2786
▁operation	-2787
▁regarding	-2788
de	-2789
aya	-2790
cil	-2791
ops	-2792
chay	-2793
ison	-2794
ties	-2795
▁deg	-2796
aries	-2797
paign	-2798
▁Best	-2799
▁Even	-2800
▁Over	-2801
▁lock	-2802
▁named	-2803
▁Kerala	-2804
▁million	-2805
▁completed	-2806
▁,	-2807
ots	-2808
▁er	-2809
ator	-2810
hold	-2811
imum	-2812
▁dig	-2813
▁ess	-2814
▁Hence	-2815
▁While	-2816
▁hands	-2817
▁heard	-2818
▁thats	-2819
▁career	-2820
▁months	-2821
▁forward	-2822
▁actually	-2823
alm	-2824
▁Ke	-2825
erve	-2826
▁ded	-2827
atory	-2828
icial	-2829
▁Anil	-2830
▁hope	-2831
▁infl	-2832
▁kill	-2833
ffairs	-2834
▁Arjun	-2835
▁Haryana	-2836
▁airport	-2837
▁doctors	-2838
▁teacher	-2839
▁vehicle	-2840
▁constitu	-2841
▁candidate	-2842
▁personnel	-2843
ber	-2844
erm	-2845
empt	-2846
rupt	-2847
▁Rec	-2848
▁Sub	-2849
▁wel	-2850
erous	-2851
▁Alia	-2852
▁From	-2853
▁fulf	-2854
▁Adity	-2855
▁makes	-2856
▁teasp	-2857
▁caused	-2858
▁moment	-2859
▁challen	-2860
▁extreme	-2861
▁primary	-2862
▁violence	-2863
▁recovered	-2864
▁opportunity	-2865
bsp	-2866
oly	-2867
oses	-2868
year	-2869
▁cut	-2870
▁foc	-2871
▁joy	-2872
▁wis	-2873
inger	-2874
▁card	-2875
▁town	-2876
lished	-2877
▁exerc	-2878
▁Muslim	-2879
▁garlic	-2880
▁impact	-2881
▁careful	-2882
▁related	-2883
▁Director	-2884
▁material	-2885
▁conducted	-2886
ient	-2887
itam	-2888
ohan	-2889
vent	-2890
viron	-2891
lected	-2892
▁music	-2893
▁rules	-2894
ization	-2895
▁Bharat	-2896
▁Chopra	-2897
▁giraff	-2898
▁petrol	-2899
▁threat	-2900
vironment	-2901
▁Bangladesh	-2902
af	-2903
ami	-2904
owd	-2905
pes	-2906
wadi	-2907
▁Met	-2908
▁tar	-2909
itude	-2910
▁MLAs	-2911
▁defe	-2912
▁emer	-2913
▁fund	-2914
▁ment	-2915
▁risk	-2916
▁helps	-2917
▁value	-2918
▁within	-2919
▁Amitabh	-2920
▁changes	-2921
▁release	-2922
▁accompan	-2923
▁involved	-2924
▁provided	-2925
ceed	-2926
▁Aam	-2927
▁Dis	-2928
▁Face	-2929
▁Such	-2930
▁cere	-2931
▁tbsp	-2932
▁Karan	-2933
▁polls	-2934
▁veget	-2935
▁similar	-2936
atr	-2937
ead	-2938
▁23	-2939
▁Av	-2940
▁Di	-2941
▁UP	-2942
ires	-2943
oday	-2944
▁Bab	-2945
▁GST	-2946
epend	-2947
ledge	-2948
▁kids	-2949
▁rich	-2950
idered	-2951
▁Dhoni	-2952
▁Nitin	-2953
▁super	-2954
▁surpr	-2955
▁takes	-2956
▁cities	-2957
▁toilet	-2958
▁century	-2959
▁encoura	-2960
▁healthy	-2961
▁highest	-2962
▁faithful	-2963
▁See	-2964
▁sac	-2965
ously	-2966
▁cast	-2967
▁caus	-2968
▁dang	-2969
▁expl	-2970
▁fall	-2971
▁room	-2972
▁Sonia	-2973
▁cross	-2974
▁plays	-2975
▁serve	-2976
▁track	-2977
▁facing	-2978
▁online	-2979
▁arrived	-2980
▁District	-2981
▁religious	-2982
▁considered	-2983
mes	-2984
iled	-2985
ixel	-2986
rodu	-2987
otion	-2988
ratul	-2989
▁Farm	-2990
▁shot	-2991
▁wond	-2992
icated	-2993
▁early	-2994
▁accept	-2995
▁appeal	-2996
▁giving	-2997
▁joined	-2998
▁passed	-2999
pecially	-3000
▁happens	-3001
▁motorcy	-3002
▁witness	-3003
▁campaign	-3004
▁function	-3005
▁appointed	-3006
▁International	-3007
IC	-3008
gu	-3009
ji	-3010
ora	-3011
abor	-3012
apan	-3013
▁Eur	-3014
▁Have	-3015
▁Lets	-3016
▁gets	-3017
▁term	-3018
▁associ	-3019
▁growth	-3020
▁temper	-3021
▁morning	-3022
▁sources	-3023
▁ministry	-3024
▁pressure	-3025
▁signific	-3026
▁i	-3027
une	-3028
uru	-3029
""."	-3030
▁Adv	-3031
order	-3032
▁Fore	-3033
▁blue	-3034
▁hous	-3035
▁sens	-3036
▁consum	-3037
▁enough	-3038
▁object	-3039
bir	-3040
ech	-3041
meg	-3042
▁2.	-3043
lege	-3044
amily	-3045
ators	-3046
▁else	-3047
▁harm	-3048
▁king	-3049
▁wide	-3050
▁Paduk	-3051
▁Under	-3052
▁image	-3053
▁spend	-3054
▁engine	-3055
▁biggest	-3056
▁created	-3057
▁Governor	-3058
▁activities	-3059
▁department	-3060
AT	-3061
ene	-3062
hel	-3063
ilt	-3064
▁35	-3065
oint	-3066
pted	-3067
▁buy	-3068
▁cat	-3069
enced	-3070
iring	-3071
▁game	-3072
inagar	-3073
▁Rajya	-3074
▁flood	-3075
▁assist	-3076
▁fourth	-3077
▁parked	-3078
▁review	-3079
▁seized	-3080
▁Earlier	-3081
▁General	-3082
▁alleged	-3083
▁leading	-3084
▁officers	-3085
▁themselves	-3086
▁participated	-3087
aug	-3088
ira	-3089
ode	-3090
▁500	-3091
▁Des	-3092
▁sex	-3093
▁vol	-3094
erjee	-3095
▁Word	-3096
▁reli	-3097
▁rese	-3098
▁Today	-3099
▁clear	-3100
▁debut	-3101
▁spoke	-3102
▁wants	-3103
ability	-3104
▁Europe	-3105
▁points	-3106
▁screen	-3107
▁Finance	-3108
▁ceremon	-3109
▁Padukone	-3110
▁demanded	-3111
▁festival	-3112
▁community	-3113
▁extremely	-3114
avy	-3115
jit	-3116
▁Sr	-3117
crib	-3118
ping	-3119
▁Ass	-3120
▁Cur	-3121
▁bur	-3122
▁dom	-3123
ively	-3124
quiry	-3125
▁Cons	-3126
▁sure	-3127
chayat	-3128
▁force	-3129
▁offer	-3130
isation	-3131
▁custom	-3132
▁scored	-3133
▁weight	-3134
▁reports	-3135
▁Everyone	-3136
▁Facebook	-3137
▁birthday	-3138
▁suffered	-3139
▁symptoms	-3140
▁thousand	-3141
▁everything	-3142
2.	-3143
▁IC	-3144
aker	-3145
back	-3146
otal	-3147
▁Love	-3148
▁bail	-3149
▁rule	-3150
▁whom	-3151
encies	-3152
▁Apart	-3153
▁Japan	-3154
▁chill	-3155
▁Deputy	-3156
▁School	-3157
▁energy	-3158
▁launch	-3159
▁natural	-3160
▁subject	-3161
▁followed	-3162
▁projects	-3163
▁discussed	-3164
▁Department	-3165
▁_	-3166
hew	-3167
ips	-3168
▁Kh	-3169
▁Mr	-3170
clud	-3171
▁Kan	-3172
▁pap	-3173
aving	-3174
▁Bill	-3175
▁cult	-3176
▁host	-3177
▁stra	-3178
▁sust	-3179
othing	-3180
rovers	-3181
▁above	-3182
▁seven	-3183
▁sleep	-3184
▁helped	-3185
▁listen	-3186
▁recogn	-3187
▁Students	-3188
▁smartphone	-3189
▁cooperation	-3190
▁performance	-3191
aur	-3192
cap	-3193
ita	-3194
▁km	-3195
▁Vad	-3196
▁sat	-3197
where	-3198
▁Ajay	-3199
▁Zeal	-3200
▁sons	-3201
▁warn	-3202
apixel	-3203
▁Since	-3204
▁multi	-3205
▁Family	-3206
▁heaven	-3207
▁instit	-3208
▁Develop	-3209
▁Farmers	-3210
▁capital	-3211
▁percent	-3212
▁Banerjee	-3213
▁language	-3214
▁Secretary	-3215
IT	-3216
mar	-3217
▁28	-3218
garh	-3219
▁Sol	-3220
▁mis	-3221
▁pat	-3222
ivity	-3223
▁Saif	-3224
▁line	-3225
▁safe	-3226
▁Kapil	-3227
▁legal	-3228
▁tried	-3229
▁Ranbir	-3230
▁colour	-3231
▁letter	-3232
▁arrange	-3233
▁concern	-3234
▁announce	-3235
▁strength	-3236
▁especially	-3237
▁terrorists	-3238
bit	-3239
▁Sin	-3240
▁lif	-3241
▁tou	-3242
ortem	-3243
▁busy	-3244
▁half	-3245
▁link	-3246
▁warm	-3247
▁Aamir	-3248
▁exist	-3249
▁loved	-3250
▁truck	-3251
▁cancer	-3252
▁posted	-3253
▁hearing	-3254
▁sisters	-3255
▁victory	-3256
▁Children	-3257
▁soldiers	-3258
▁controvers	-3259
IM	-3260
let	-3261
udi	-3262
utes	-3263
▁Bus	-3264
▁NCP	-3265
▁dog	-3266
▁Four	-3267
▁firm	-3268
▁fled	-3269
▁page	-3270
▁qual	-3271
ployed	-3272
▁board	-3273
▁grant	-3274
▁speed	-3275
▁mobile	-3276
▁prophe	-3277
▁target	-3278
▁explain	-3279
▁foreign	-3280
▁tweeted	-3281
▁represent	-3282
▁vegetables	-3283
PF	-3284
leg	-3285
uel	-3286
uly	-3287
▁Az	-3288
rief	-3289
▁abs	-3290
▁sug	-3291
hawan	-3292
▁2019	-3293
▁Happ	-3294
▁Nadu	-3295
▁late	-3296
▁Heavy	-3297
▁Techn	-3298
▁table	-3299
▁trade	-3300
▁Zealand	-3301
▁reality	-3302
▁wickets	-3303
▁administ	-3304
▁petition	-3305
▁physical	-3306
1.	-3307
oice	-3308
▁Mam	-3309
▁box	-3310
▁mer	-3311
▁squ	-3312
ondon	-3313
opped	-3314
▁Katr	-3315
▁tree	-3316
▁moved	-3317
▁reach	-3318
▁shock	-3319
▁actors	-3320
▁deaths	-3321
▁Defence	-3322
▁English	-3323
▁Katrina	-3324
▁achieve	-3325
▁matters	-3326
megapixel	-3327
▁included	-3328
▁according	-3329
▁Coronavirus	-3330
jri	-3331
▁Em	-3332
▁FI	-3333
▁ND	-3334
▁Ps	-3335
ange	-3336
eous	-3337
most	-3338
raft	-3339
view	-3340
▁Int	-3341
▁Sar	-3342
▁sea	-3343
ashed	-3344
inese	-3345
▁Sara	-3346
▁fell	-3347
▁repl	-3348
▁surv	-3349
angana	-3350
inated	-3351
ternet	-3352
▁Kejri	-3353
▁until	-3354
▁Ambani	-3355
▁Friend	-3356
▁Shetty	-3357
▁charge	-3358
▁expect	-3359
▁custody	-3360
▁officer	-3361
▁ceremony	-3362
AM	-3363
ex	-3364
▁BS	-3365
▁Qu	-3366
▁cy	-3367
▁tw	-3368
arya	-3369
emic	-3370
▁Coun	-3371
▁Those	-3372
▁agree	-3373
▁leave	-3374
▁looks	-3375
▁prime	-3376
▁react	-3377
▁Rajput	-3378
▁looked	-3379
▁wonder	-3380
▁Article	-3381
▁charges	-3382
▁comfort	-3383
▁conduct	-3384
▁display	-3385
▁numbers	-3386
▁remains	-3387
▁suggest	-3388
▁Kejriwal	-3389
▁recorded	-3390
▁rejected	-3391
▁seriously	-3392
4.	-3393
roy	-3394
vey	-3395
▁TH	-3396
hood	-3397
▁Tra	-3398
▁sin	-3399
▁tsp	-3400
orage	-3401
▁Chen	-3402
▁Good	-3403
▁cold	-3404
▁doub	-3405
▁mass	-3406
▁Thank	-3407
▁check	-3408
▁medic	-3409
▁recom	-3410
▁sense	-3411
▁Chinese	-3412
▁Sushant	-3413
▁connect	-3414
▁prevent	-3415
▁seeking	-3416
▁alliance	-3417
▁application	-3418
▁27	-3419
▁Co	-3420
▁fig	-3421
ufact	-3422
▁Dutt	-3423
▁Film	-3424
though	-3425
verage	-3426
▁alleg	-3427
▁estab	-3428
▁rally	-3429
▁loving	-3430
▁method	-3431
▁speech	-3432
▁Cabinet	-3433
▁apostle	-3434
▁command	-3435
▁protect	-3436
▁request	-3437
▁teaspoon	-3438
▁training	-3439
99	-3440
amm	-3441
eat	-3442
nai	-3443
▁26	-3444
roll	-3445
roup	-3446
▁Ben	-3447
▁ODI	-3448
▁Per	-3449
▁Pol	-3450
▁lat	-3451
▁pub	-3452
▁Arun	-3453
▁Only	-3454
▁bill	-3455
▁draw	-3456
▁vari	-3457
▁talks	-3458
▁London	-3459
▁inside	-3460
▁Indians	-3461
▁Rajnath	-3462
▁general	-3463
▁located	-3464
▁Election	-3465
'.	-3466
AN	-3467
of	-3468
rs	-3469
Ind	-3470
iab	-3471
yle	-3472
▁IS	-3473
ighb	-3474
oved	-3475
▁Rav	-3476
▁Yet	-3477
▁bab	-3478
aches	-3479
▁East	-3480
▁Tata	-3481
▁capt	-3482
▁miss	-3483
▁mist	-3484
▁toss	-3485
mortem	-3486
▁About	-3487
▁Heres	-3488
▁Water	-3489
▁Which	-3490
▁creat	-3491
▁users	-3492
▁member	-3493
▁purpose	-3494
▁resident	-3495
▁Pakistani	-3496
▁Therefore	-3497
▁congratul	-3498
▁continued	-3499
▁continues	-3500
▁suffering	-3501
▁confidence	-3502
▁accompanied	-3503
-2	-3504
duc	-3505
jan	-3506
▁Ak	-3507
▁UN	-3508
ably	-3509
emor	-3510
rect	-3511
▁IPL	-3512
▁Moh	-3513
▁Rom	-3514
▁pra	-3515
▁sou	-3516
nding	-3517
▁Chan	-3518
▁felt	-3519
▁file	-3520
ground	-3521
▁onion	-3522
▁roads	-3523
▁houses	-3524
▁wanted	-3525
ological	-3526
▁Chennai	-3527
▁comment	-3528
▁receive	-3529
sequently	-3530
▁products	-3531
▁cricketer	-3532
▁knowledge	-3533
▁responsible	-3534
ny	-3535
ony	-3536
pal	-3537
▁Gl	-3538
dict	-3539
ghan	-3540
ique	-3541
▁Bal	-3542
▁Har	-3543
▁tit	-3544
▁Asia	-3545
▁Educ	-3546
▁cash	-3547
elling	-3548
▁eight	-3549
▁mount	-3550
▁shows	-3551
▁depend	-3552
▁destroy	-3553
▁schools	-3554
▁evidence	-3555
▁committee	-3556
▁panchayat	-3557
▁completely	-3558
▁identified	-3559
▁opposition	-3560
ER	-3561
for	-3562
hek	-3563
hra	-3564
isl	-3565
urs	-3566
athe	-3567
hips	-3568
▁Mot	-3569
▁lik	-3570
▁non	-3571
▁san	-3572
▁Each	-3573
▁Matt	-3574
▁Nath	-3575
▁pick	-3576
▁Women	-3577
▁votes	-3578
▁Senior	-3579
▁create	-3580
▁fellow	-3581
▁rescue	-3582
▁Business	-3583
▁previous	-3584
▁solution	-3585
to	-3586
ask	-3587
ift	-3588
olk	-3589
▁60	-3590
▁Ge	-3591
▁bi	-3592
miss	-3593
▁exc	-3594
▁rup	-3595
▁tom	-3596
▁orig	-3597
▁slow	-3598
hishek	-3599
reedom	-3600
▁aware	-3601
▁sides	-3602
▁space	-3603
▁shares	-3604
▁source	-3605
▁tables	-3606
▁growing	-3607
▁innings	-3608
▁offered	-3609
▁ordered	-3610
▁remember	-3611
▁ministers	-3612
▁environment	-3613
?"	-3614
iy	-3615
eth	-3616
nown	-3617
▁Mix	-3618
▁Nar	-3619
▁Tri	-3620
▁gre	-3621
ovind	-3622
▁Pict	-3623
▁gain	-3624
▁pred	-3625
▁tast	-3626
▁thus	-3627
▁Avoid	-3628
▁Group	-3629
▁south	-3630
▁trees	-3631
▁Invest	-3632
▁Script	-3633
▁remark	-3634
▁severe	-3635
▁Cricket	-3636
▁Further	-3637
▁allowed	-3638
▁claimed	-3639
▁describ	-3640
▁Abhishek	-3641
▁examples	-3642
▁research	-3643
▁character	-3644
▁decisions	-3645
▁happening	-3646
▁challenges	-3647
▁production	-3648
▁construction	-3649
We	-3650
acy	-3651
lip	-3652
unt	-3653
▁32	-3654
▁HD	-3655
▁Ja	-3656
ades	-3657
ager	-3658
anda	-3659
char	-3660
ests	-3661
rees	-3662
rish	-3663
uter	-3664
▁Goa	-3665
▁Nob	-3666
redit	-3667
▁Kaif	-3668
▁Mark	-3669
▁drug	-3670
▁goes	-3671
▁rape	-3672
▁site	-3673
▁Surat	-3674
▁chair	-3675
▁Dhawan	-3676
▁Instit	-3677
▁ensure	-3678
▁higher	-3679
▁humans	-3680
▁normal	-3681
▁stated	-3682
▁Council	-3683
▁becomes	-3684
▁require	-3685
▁running	-3686
▁walking	-3687
▁specific	-3688
▁thinking	-3689
▁initiated	-3690
5.	-3691
rage	-3692
▁Reg	-3693
▁saw	-3694
▁tal	-3695
alled	-3696
aying	-3697
inder	-3698
▁Does	-3699
▁beat	-3700
▁dece	-3701
▁pack	-3702
ograph	-3703
▁Johar	-3704
▁begun	-3705
▁civil	-3706
▁focus	-3707
▁inaug	-3708
▁virus	-3709
▁either	-3710
▁failed	-3711
▁neighb	-3712
▁Affairs	-3713
▁carried	-3714
▁session	-3715
▁partners	-3716
▁essential	-3717
▁discussion	-3718
▁population	-3719
▁Development	-3720
50	-3721
dra	-3722
fety	-3723
wide	-3724
▁370	-3725
▁Big	-3726
▁Spe	-3727
▁bra	-3728
▁ele	-3729
▁mix	-3730
irmed	-3731
▁Gold	-3732
▁Show	-3733
▁wood	-3734
atform	-3735
▁Check	-3736
▁Oppos	-3737
▁crowd	-3738
▁separ	-3739
▁sheep	-3740
▁wasnt	-3741
▁prayer	-3742
▁central	-3743
▁introdu	-3744
▁mention	-3745
▁challenge	-3746
▁investment	-3747
6.	-3748
AR	-3749
cu	-3750
rif	-3751
ugu	-3752
▁70	-3753
▁Mo	-3754
▁Mu	-3755
arsh	-3756
▁Rem	-3757
▁hyd	-3758
after	-3759
erved	-3760
▁2020	-3761
▁Brit	-3762
▁earn	-3763
▁sink	-3764
▁vent	-3765
▁vote	-3766
▁Elect	-3767
▁House	-3768
▁Sinha	-3769
▁apply	-3770
▁compr	-3771
▁plane	-3772
▁Afghan	-3773
▁Shahid	-3774
▁Telugu	-3775
▁belong	-3776
▁scient	-3777
levision	-3778
▁Another	-3779
▁contain	-3780
▁network	-3781
▁verdict	-3782
▁exercise	-3783
▁employees	-3784
▁righteous	-3785
▁significant	-3786
AP	-3787
ese	-3788
hib	-3789
pen	-3790
▁Cr	-3791
atic	-3792
haps	-3793
icip	-3794
iler	-3795
known	-3796
osing	-3797
usion	-3798
▁Know	-3799
▁Sach	-3800
▁Sidd	-3801
▁baby	-3802
▁born	-3803
▁cars	-3804
▁door	-3805
▁forg	-3806
▁note	-3807
▁rank	-3808
▁rout	-3809
▁save	-3810
▁floor	-3811
▁rates	-3812
itional	-3813
ression	-3814
▁Mamata	-3815
▁access	-3816
▁opened	-3817
▁relief	-3818
▁sought	-3819
▁Friends	-3820
▁quality	-3821
▁someone	-3822
▁talking	-3823
▁Security	-3824
▁religion	-3825
▁direction	-3826
▁conditions	-3827
▁importance	-3828
son	-3829
use	-3830
▁Gu	-3831
ovid	-3832
star	-3833
▁RBI	-3834
▁Rai	-3835
▁aff	-3836
▁fre	-3837
▁lab	-3838
earch	-3839
lease	-3840
ograp	-3841
▁Prot	-3842
▁Serv	-3843
▁Thak	-3844
▁anim	-3845
▁appe	-3846
▁comb	-3847
▁break	-3848
▁holds	-3849
▁worry	-3850
▁advant	-3851
▁Current	-3852
▁Nothing	-3853
▁attacks	-3854
▁corrupt	-3855
▁evening	-3856
▁inquiry	-3857
▁sharing	-3858
▁tablesp	-3859
▁platform	-3860
▁revealed	-3861
▁Education	-3862
▁disciples	-3863
▁ourselves	-3864
▁temperature	-3865
ga	-3866
CCI	-3867
ona	-3868
yal	-3869
▁Ud	-3870
rast	-3871
wali	-3872
▁Aad	-3873
▁Law	-3874
▁Out	-3875
▁har	-3876
▁nab	-3877
acker	-3878
imate	-3879
isher	-3880
▁Life	-3881
▁Road	-3882
▁Time	-3883
▁port	-3884
ctions	-3885
ensive	-3886
urance	-3887
▁banks	-3888
▁democ	-3889
▁grand	-3890
▁model	-3891
▁phase	-3892
▁Indust	-3893
▁budget	-3894
▁determ	-3895
▁formed	-3896
▁policy	-3897
▁recent	-3898
▁status	-3899
▁stress	-3900
▁transf	-3901
▁elected	-3902
▁matches	-3903
▁nations	-3904
▁spotted	-3905
▁storage	-3906
▁manufact	-3907
▁prepared	-3908
▁daughters	-3909
▁languages	-3910
▁organised	-3911
eel	-3912
▁1/	-3913
▁29	-3914
▁3:	-3915
▁sn	-3916
uals	-3917
▁Apr	-3918
▁Arv	-3919
▁cas	-3920
▁mir	-3921
▁sky	-3922
ammed	-3923
cious	-3924
utive	-3925
▁Kolk	-3926
▁Rajk	-3927
▁anti	-3928
▁kept	-3929
estern	-3930
▁Anand	-3931
▁Award	-3932
▁grass	-3933
▁influ	-3934
▁names	-3935
▁pleas	-3936
▁quick	-3937
▁round	-3938
▁caught	-3939
▁denied	-3940
▁except	-3941
▁modern	-3942
▁videos	-3943
▁worlds	-3944
▁Kolkata	-3945
▁Thacker	-3946
▁continu	-3947
▁granted	-3948
▁remained	-3949
▁investigations	-3950
.)	-3951
ze	-3952
ems	-3953
▁31	-3954
▁UK	-3955
alse	-3956
load	-3957
oned	-3958
▁Bec	-3959
ashes	-3960
iting	-3961
oring	-3962
▁Goog	-3963
▁Make	-3964
cepted	-3965
isgarh	-3966
vendra	-3967
▁desire	-3968
▁leaves	-3969
▁nature	-3970
▁offers	-3971
▁driving	-3972
▁weather	-3973
▁carrying	-3974
▁critical	-3975
▁interact	-3976
▁lockdown	-3977
▁meetings	-3978
▁returned	-3979
▁Ministers	-3980
▁customers	-3981
▁Opposition	-3982
▁employment	-3983
RO	-3984
ela	-3985
hag	-3986
ius	-3987
the	-3988
▁1:	-3989
airy	-3990
oons	-3991
oted	-3992
roid	-3993
ults	-3994
▁Jew	-3995
▁Pra	-3996
▁Tem	-3997
▁pie	-3998
▁ten	-3999
achal	-4000
aging	-4001
anath	-4002
iddle	-4003
▁Iran	-4004
▁Kore	-4005
▁Yogi	-4006
▁laws	-4007
▁tend	-4008
▁trou	-4009
ateral	-4010
▁April	-4011
▁gives	-4012
▁joint	-4013
▁prior	-4014
▁Russia	-4015
▁pepper	-4016
▁yellow	-4017
▁Special	-4018
▁worried	-4019
▁accepted	-4020
▁accounts	-4021
▁deployed	-4022
▁Thackeray	-4023
▁incidents	-4024
▁therefore	-4025
4,	-4026
oto	-4027
ancy	-4028
iger	-4029
mosp	-4030
usal	-4031
▁199	-4032
▁Bar	-4033
▁Jer	-4034
▁Jud	-4035
▁fif	-4036
craft	-4037
▁Hist	-4038
▁Kart	-4039
▁Saur	-4040
▁bats	-4041
▁vers	-4042
ilarly	-4043
tained	-4044
▁Super	-4045
▁Trans	-4046
▁calls	-4047
▁fruit	-4048
▁lower	-4049
▁pregn	-4050
▁seems	-4051
▁Janata	-4052
▁aspect	-4053
▁causes	-4054
▁favour	-4055
▁Railway	-4056
▁distrib	-4057
▁perfect	-4058
▁reading	-4059
▁visited	-4060
▁attacked	-4061
▁deceased	-4062
▁measures	-4063
hattisgarh	-4064
▁management	-4065
▁properties	-4066
▁undergoing	-4067
▁authorities	-4068
8.	-4069
ott	-4070
ball	-4071
▁Ash	-4072
▁Cap	-4073
▁Cle	-4074
▁FIR	-4075
▁Net	-4076
▁Off	-4077
▁Set	-4078
▁bar	-4079
▁Fire	-4080
▁Food	-4081
▁argu	-4082
▁holy	-4083
▁jail	-4084
▁text	-4085
▁wors	-4086
icious	-4087
▁Somet	-4088
▁cover	-4089
▁north	-4090
▁teach	-4091
▁vitam	-4092
▁Commit	-4093
▁Google	-4094
▁Petrol	-4095
▁notice	-4096
▁attempt	-4097
▁chopped	-4098
▁freedom	-4099
▁beginning	-4100
▁allegations	-4101
▁announcement	-4102
SS	-4103
vt	-4104
ili	-4105
set	-4106
aken	-4107
aved	-4108
kind	-4109
▁Heb	-4110
▁Jay	-4111
▁Mic	-4112
▁War	-4113
▁dry	-4114
ption	-4115
▁City	-4116
▁Comm	-4117
▁Work	-4118
▁docu	-4119
▁mill	-4120
▁quar	-4121
▁unto	-4122
▁wash	-4123
▁Click	-4124
▁Force	-4125
▁Happy	-4126
▁Peter	-4127
▁paste	-4128
▁proud	-4129
▁river	-4130
itution	-4131
ructure	-4132
▁Arvind	-4133
▁Diwali	-4134
▁double	-4135
▁easily	-4136
▁honour	-4137
▁levels	-4138
▁turned	-4139
▁feature	-4140
▁electric	-4141
▁military	-4142
▁committed	-4143
▁confirmed	-4144
▁operations	-4145
▁throughout	-4146
DP	-4147
Ph	-4148
ys	-4149
ils	-4150
irt	-4151
omb	-4152
pid	-4153
sec	-4154
▁2,	-4155
▁2:	-4156
▁4.	-4157
▁ju	-4158
anth	-4159
oyal	-4160
▁Exp	-4161
▁Lal	-4162
▁Whe	-4163
▁gas	-4164
▁nom	-4165
erman	-4166
icted	-4167
odies	-4168
▁Luck	-4169
▁Open	-4170
▁bapt	-4171
▁goal	-4172
▁guid	-4173
▁built	-4174
▁demon	-4175
▁elder	-4176
▁enter	-4177
▁spent	-4178
▁staff	-4179
▁voice	-4180
▁atmosp	-4181
▁eating	-4182
▁ginger	-4183
▁itself	-4184
▁journey	-4185
▁refused	-4186
▁learning	-4187
▁movement	-4188
▁Adityanath	-4189
▁beneficial	-4190
NG	-4191
▁0	-4192
ban	-4193
ler	-4194
log	-4195
ply	-4196
▁Ir	-4197
▁Up	-4198
ague	-4199
ateg	-4200
ault	-4201
enal	-4202
isis	-4203
rang	-4204
▁Him	-4205
▁Pul	-4206
▁fit	-4207
▁god	-4208
▁nut	-4209
▁Team	-4210
▁army	-4211
▁heat	-4212
ources	-4213
▁Covid	-4214
▁Imran	-4215
▁Lanka	-4216
▁stock	-4217
igation	-4218
▁Econom	-4219
▁choose	-4220
▁events	-4221
▁handed	-4222
▁America	-4223
▁answers	-4224
▁holding	-4225
▁inaugur	-4226
▁mankind	-4227
▁partner	-4228
▁science	-4229
▁detained	-4230
▁multiple	-4231
▁presence	-4232
▁thoughts	-4233
▁effective	-4234
▁preaching	-4235
▁Chhattisgarh	-4236
▁constituency	-4237
▁u	-4238
▁5.	-4239
▁Us	-4240
osal	-4241
pite	-4242
▁Car	-4243
▁Cho	-4244
▁Gir	-4245
▁Rao	-4246
▁cop	-4247
▁cru	-4248
astic	-4249
board	-4250
gency	-4251
inary	-4252
oples	-4253
oured	-4254
▁Pras	-4255
▁Thus	-4256
▁amaz	-4257
▁hear	-4258
▁lose	-4259
▁soft	-4260
▁wise	-4261
person	-4262
▁Gandh	-4263
▁Mahat	-4264
▁Never	-4265
▁dairy	-4266
▁dream	-4267
▁escap	-4268
▁sched	-4269
▁German	-4270
▁Sachin	-4271
▁casual	-4272
▁debate	-4273
▁movies	-4274
▁strate	-4275
▁toward	-4276
▁trains	-4277
▁window	-4278
ilateral	-4279
▁ancient	-4280
▁animals	-4281
▁dismiss	-4282
▁privile	-4283
▁trailer	-4284
▁Although	-4285
▁provides	-4286
▁Institute	-4287
▁dangerous	-4288
▁developed	-4289
▁motorcycle	-4290
▁interesting	-4291
AI	-4292
MC	-4293
oo	-4294
uv	-4295
eer	-4296
hal	-4297
raj	-4298
▁3.	-4299
▁4:	-4300
▁CR	-4301
idge	-4302
▁Meh	-4303
▁Shr	-4304
▁ago	-4305
▁fat	-4306
▁pun	-4307
acity	-4308
akshi	-4309
indra	-4310
▁Ayod	-4311
▁Well	-4312
▁Yoga	-4313
▁plea	-4314
▁wall	-4315
▁Const	-4316
▁Devgn	-4317
▁Satan	-4318
▁extra	-4319
▁false	-4320
▁gathe	-4321
▁girls	-4322
▁greet	-4323
▁knows	-4324
▁Please	-4325
▁advice	-4326
▁damage	-4327
▁histor	-4328
iversary	-4329
▁gathered	-4330
▁Currently	-4331
▁wonderful	-4332
▁additional	-4333
▁background	-4334
▁difference	-4335
▁arrangements	-4336
ES	-4337
wa	-4338
que	-4339
▁7.	-4340
▁IN	-4341
▁ut	-4342
ashi	-4343
ills	-4344
▁Nir	-4345
▁bag	-4346
▁gen	-4347
▁reb	-4348
▁upd	-4349
atiya	-4350
▁Wash	-4351
▁cook	-4352
▁Abrah	-4353
▁Arora	-4354
▁Civil	-4355
▁fresh	-4356
▁limit	-4357
▁plans	-4358
▁satis	-4359
▁signs	-4360
▁terms	-4361
ganwadi	-4362
▁Nobody	-4363
▁Prasad	-4364
▁animal	-4365
▁battle	-4366
▁bright	-4367
▁condem	-4368
▁indeed	-4369
▁nearby	-4370
▁supply	-4371
▁Ayodhya	-4372
▁Jerusal	-4373
▁Mahatma	-4374
▁Moreover	-4375
▁protests	-4376
▁Committee	-4377
▁secretary	-4378
▁conference	-4379
▁Gandhinagar	-4380
▁governments	-4381
▁individuals	-4382
ED	-4383
▁:	-4384
▁80	-4385
▁90	-4386
ayan	-4387
cast	-4388
eful	-4389
road	-4390
▁Ant	-4391
▁Hum	-4392
▁Job	-4393
▁Sum	-4394
▁nor	-4395
mohan	-4396
ports	-4397
▁Five	-4398
▁Mala	-4399
▁Shan	-4400
▁prob	-4401
▁repe	-4402
▁Board	-4403
▁flour	-4404
▁games	-4405
▁touch	-4406
ensions	-4407
▁Andhra	-4408
▁Kovind	-4409
▁border	-4410
▁firing	-4411
▁mental	-4412
▁rights	-4413
▁served	-4414
▁stands	-4415
▁Android	-4416
▁Section	-4417
▁billion	-4418
▁giraffe	-4419
▁student	-4420
▁drinking	-4421
▁independ	-4422
▁majority	-4423
▁Bengaluru	-4424
▁anganwadi	-4425
▁published	-4426
▁atmosphere	-4427
▁Afghanistan	-4428
▁implemented	-4429
FC	-4430
adh	-4431
hok	-4432
ini	-4433
▁33	-4434
iber	-4435
racy	-4436
▁Gur	-4437
▁Has	-4438
▁Inc	-4439
▁Kam	-4440
▁Kul	-4441
▁Was	-4442
▁bal	-4443
▁dro	-4444
ented	-4445
orrow	-4446
▁BCCI	-4447
▁Hard	-4448
▁Sard	-4449
▁acqu	-4450
▁bike	-4451
▁cell	-4452
▁exec	-4453
▁jobs	-4454
▁wish	-4455
▁wont	-4456
▁Modis	-4457
▁alert	-4458
▁broke	-4459
▁categ	-4460
▁crime	-4461
▁frequ	-4462
▁shown	-4463
▁tourn	-4464
▁write	-4465
▁Social	-4466
▁effort	-4467
▁latest	-4468
▁rising	-4469
▁counter	-4470
▁players	-4471
▁constant	-4472
▁extended	-4473
▁Saurashtra	-4474
1,	-4475
rap	-4476
▁Ur	-4477
gred	-4478
ishw	-4479
tery	-4480
▁ICC	-4481
▁Paw	-4482
▁fix	-4483
▁fra	-4484
▁mic	-4485
▁pil	-4486
▁sad	-4487
efore	-4488
light	-4489
rated	-4490
udden	-4491
▁Tend	-4492
▁flow	-4493
▁idea	-4494
▁Assam	-4495
▁Offic	-4496
▁fifth	-4497
▁prote	-4498
▁seeds	-4499
▁sound	-4500
▁crisis	-4501
▁forest	-4502
▁legisl	-4503
▁silver	-4504
▁Control	-4505
▁Foreign	-4506
▁divided	-4507
▁justice	-4508
▁markets	-4509
▁railway	-4510
▁Manmohan	-4511
▁diseases	-4512
▁mentioned	-4513
▁transport	-4514
▁individual	-4515
▁television	-4516
▁anniversary	-4517
▁$	-4518
adn	-4519
lam	-4520
▁5-	-4521
▁8.	-4522
▁ED	-4523
cles	-4524
time	-4525
▁Did	-4526
▁Ive	-4527
▁Nag	-4528
▁fam	-4529
▁pul	-4530
▁thr	-4531
▁yes	-4532
alore	-4533
iable	-4534
ients	-4535
itate	-4536
khand	-4537
oming	-4538
overy	-4539
▁Last	-4540
▁Mand	-4541
▁dark	-4542
▁feet	-4543
▁knew	-4544
▁path	-4545
undred	-4546
▁Sonam	-4547
▁forth	-4548
▁lakhs	-4549
▁plant	-4550
▁rural	-4551
▁longer	-4552
▁option	-4553
▁reduce	-4554
▁riding	-4555
▁Because	-4556
▁correct	-4557
▁footage	-4558
▁passing	-4559
▁starred	-4560
▁opposite	-4561
▁Bharatiya	-4562
▁followers	-4563
▁recommend	-4564
▁sustained	-4565
▁terrorist	-4566
▁examination	-4567
sh	-4568
pay	-4569
uri	-4570
▁Bu	-4571
▁Od	-4572
alam	-4573
anch	-4574
mber	-4575
▁300	-4576
▁Bra	-4577
▁Nep	-4578
▁aim	-4579
▁die	-4580
▁emb	-4581
emale	-4582
estic	-4583
igade	-4584
▁Gree	-4585
▁didn	-4586
▁Psalm	-4587
▁dress	-4588
▁indic	-4589
▁judge	-4590
▁juice	-4591
▁whats	-4592
▁Before	-4593
▁France	-4594
▁Hebrew	-4595
▁Sardar	-4596
▁bodies	-4597
▁degree	-4598
▁disapp	-4599
▁filled	-4600
▁govern	-4601
▁illust	-4602
▁player	-4603
▁tomato	-4604
▁wisdom	-4605
▁average	-4606
▁colours	-4607
▁culture	-4608
▁ongoing	-4609
▁prayers	-4610
▁victims	-4611
▁willing	-4612
ibilities	-4613
▁aircraft	-4614
▁appeared	-4615
▁alongside	-4616
▁presented	-4617
▁residents	-4618
He	-4619
aps	-4620
rel	-4621
quar	-4622
vert	-4623
▁1/2	-4624
▁Far	-4625
▁Isa	-4626
▁Jai	-4627
▁bit	-4628
▁mem	-4629
▁tow	-4630
▁tur	-4631
inate	-4632
inent	-4633
ipper	-4634
verbs	-4635
▁BJPs	-4636
▁Post	-4637
▁Swar	-4638
▁govt	-4639
▁rear	-4640
▁seek	-4641
iction	-4642
▁Kings	-4643
▁birds	-4644
▁stage	-4645
▁types	-4646
▁Temple	-4647
▁asking	-4648
▁expand	-4649
▁Malaika	-4650
▁Matthew	-4651
▁conclud	-4652
▁feeling	-4653
▁learned	-4654
▁setting	-4655
▁Railways	-4656
▁Reliance	-4657
▁approach	-4658
▁contains	-4659
▁negative	-4660
▁Jerusalem	-4661
▁destroyed	-4662
▁leadership	-4663
▁controversy	-4664
7.	-4665
MP	-4666
iet	-4667
nes	-4668
ovt	-4669
pri	-4670
ras	-4671
ris	-4672
ume	-4673
wama	-4674
wise	-4675
▁150	-4676
▁Dal	-4677
▁Hes	-4678
▁Lad	-4679
▁Ser	-4680
▁mut	-4681
▁rob	-4682
India	-4683
gment	-4684
inals	-4685
olute	-4686
▁tool	-4687
▁type	-4688
▁vice	-4689
elfare	-4690
ounter	-4691
▁Ashok	-4692
▁compl	-4693
▁defin	-4694
▁liter	-4695
▁stone	-4696
stances	-4697
▁Repeat	-4698
▁groups	-4699
▁safety	-4700
▁Pulwama	-4701
▁consult	-4702
▁peoples	-4703
▁Proverbs	-4704
▁computer	-4705
▁servants	-4706
▁hospitals	-4707
▁receiving	-4708
▁profession	-4709
▁celebrities	-4710
10	-4711
EO	-4712
fl	-4713
coh	-4714
hem	-4715
uka	-4716
▁La	-4717
▁Sk	-4718
iles	-4719
▁Dem	-4720
▁MPs	-4721
▁Naw	-4722
▁Tal	-4723
▁max	-4724
▁via	-4725
cohol	-4726
ushan	-4727
▁Part	-4728
▁Step	-4729
▁Vide	-4730
▁crim	-4731
▁hurt	-4732
▁pros	-4733
▁quit	-4734
▁send	-4735
▁shop	-4736
▁wins	-4737
ulated	-4738
▁faced	-4739
ampions	-4740
unately	-4741
▁Sushma	-4742
▁Swaraj	-4743
▁Tendul	-4744
▁begins	-4745
▁centre	-4746
▁choice	-4747
▁circum	-4748
▁decide	-4749
▁ingred	-4750
▁moving	-4751
▁sacrif	-4752
▁Abraham	-4753
▁Airport	-4754
▁College	-4755
▁amazing	-4756
▁cabinet	-4757
▁opening	-4758
▁testing	-4759
▁waiting	-4760
formation	-4761
▁approved	-4762
▁potential	-4763
▁tournament	-4764
▁agriculture	-4765
,5	-4766
SE	-4767
ja	-4768
va	-4769
BJP	-4770
ici	-4771
off	-4772
ray	-4773
▁Fl	-4774
▁ir	-4775
▁kg	-4776
aced	-4777
asks	-4778
avis	-4779
riti	-4780
▁Due	-4781
▁Hel	-4782
▁RAM	-4783
▁Sik	-4784
▁log	-4785
reams	-4786
▁CRPF	-4787
▁Fadn	-4788
▁Heat	-4789
▁Jhar	-4790
▁enem	-4791
▁lack	-4792
▁pand	-4793
▁tick	-4794
elines	-4795
eshwar	-4796
rishna	-4797
▁Rajiv	-4798
▁Still	-4799
▁books	-4800
▁costs	-4801
▁exact	-4802
ertific	-4803
▁condol	-4804
▁princi	-4805
▁proved	-4806
▁Medical	-4807
▁emotion	-4808
▁hydrant	-4809
▁journal	-4810
▁managed	-4811
▁mission	-4812
▁studies	-4813
▁treated	-4814
▁wearing	-4815
▁welcome	-4816
▁Citizens	-4817
▁Fadnavis	-4818
▁millions	-4819
▁occurred	-4820
▁Relations	-4821
▁household	-4822
▁regularly	-4823
▁suspended	-4824
▁commission	-4825
▁institutions	-4826
oi	-4827
cal	-4828
ken	-4829
oke	-4830
▁5:	-4831
▁Lt	-4832
▁af	-4833
?"""	-4834
inse	-4835
unch	-4836
ware	-4837
▁202	-4838
▁Jio	-4839
▁Loc	-4840
fully	-4841
▁Govt	-4842
▁Gupt	-4843
▁Nirm	-4844
▁Park	-4845
▁York	-4846
▁coal	-4847
▁cool	-4848
▁diet	-4849
▁Goyal	-4850
▁Total	-4851
▁keeps	-4852
▁paper	-4853
▁rapid	-4854
▁Mukesh	-4855
▁Second	-4856
▁assign	-4857
▁select	-4858
quarters	-4859
▁compass	-4860
▁contact	-4861
▁courage	-4862
▁imposed	-4863
▁promote	-4864
▁stopped	-4865
▁pandemic	-4866
▁resigned	-4867
▁Jharkhand	-4868
▁Similarly	-4869
▁Tendulkar	-4870
▁concerned	-4871
▁increases	-4872
▁sometimes	-4873
▁Technology	-4874
▁contesting	-4875
19	-4876
SP	-4877
pir	-4878
▁Na	-4879
▁SP	-4880
opal	-4881
uits	-4882
▁Mil	-4883
▁Oil	-4884
▁Use	-4885
adium	-4886
idamb	-4887
scond	-4888
tings	-4889
▁Char	-4890
▁Dhar	-4891
▁Fund	-4892
▁Look	-4893
▁dram	-4894
▁roll	-4895
▁Sunil	-4896
▁analy	-4897
▁angry	-4898
▁cloud	-4899
▁grams	-4900
▁squad	-4901
▁views	-4902
▁Indies	-4903
▁Odisha	-4904
▁chilli	-4905
▁gather	-4906
▁middle	-4907
▁placed	-4908
▁strike	-4909
▁unique	-4910
▁British	-4911
▁abscond	-4912
▁cancell	-4913
▁degrees	-4914
▁digital	-4915
▁fulfill	-4916
▁invited	-4917
▁neither	-4918
▁removed	-4919
▁Recently	-4920
▁Research	-4921
▁powerful	-4922
▁proposal	-4923
▁teachers	-4924
▁blessings	-4925
▁connected	-4926
▁dedicated	-4927
▁democracy	-4928
▁encounter	-4929
▁corruption	-4930
▁competition	-4931
▁administration	-4932
3,	-4933
30	-4934
IS	-4935
RC	-4936
nam	-4937
spe	-4938
▁--	-4939
hana	-4940
orge	-4941
rugg	-4942
▁Gal	-4943
▁Get	-4944
▁Ros	-4945
▁arm	-4946
▁suc	-4947
▁wee	-4948
arted	-4949
ially	-4950
istic	-4951
▁Cels	-4952
▁Play	-4953
▁camp	-4954
▁feed	-4955
▁lawy	-4956
▁rock	-4957
▁snow	-4958
▁weak	-4959
▁Creat	-4960
▁Nepal	-4961
▁Produ	-4962
▁Varun	-4963
▁boost	-4964
▁grief	-4965
▁resur	-4966
▁stake	-4967
▁taste	-4968
ultural	-4969
▁brings	-4970
▁integr	-4971
▁onions	-4972
▁prepar	-4973
▁simply	-4974
▁wishes	-4975
▁Chidamb	-4976
▁chaired	-4977
▁effects	-4978
▁produce	-4979
▁succeed	-4980
▁unknown	-4981
▁feelings	-4982
▁property	-4983
▁straight	-4984
▁Bangalore	-4985
▁Financial	-4986
▁Telangana	-4987
▁programmes	-4988
▁protection	-4989
▁appreciated	-4990
ev	-4991
rid	-4992
rial	-4993
uled	-4994
▁Ris	-4995
▁ign	-4996
▁ren	-4997
anced	-4998
ining	-4999
ratic	-5000
venue	-5001
vious	-5002
▁Arab	-5003
▁hang	-5004
▁mach	-5005
▁surf	-5006
ashion	-5007
ishing	-5008
▁Aishw	-5009
▁Korea	-5010
▁Nagar	-5011
▁Samaj	-5012
▁Would	-5013
▁autom	-5014
▁bound	-5015
▁doubt	-5016
▁glass	-5017
▁goals	-5018
▁monit	-5019
▁score	-5020
▁store	-5021
▁twice	-5022
▁weeks	-5023
▁wheat	-5024
▁Advani	-5025
▁almost	-5026
▁annual	-5027
▁breath	-5028
▁device	-5029
▁famous	-5030
▁forget	-5031
▁remove	-5032
▁advised	-5033
▁collect	-5034
▁convers	-5035
▁damaged	-5036
▁massive	-5037
▁methods	-5038
▁prosper	-5039
▁venture	-5040
▁withdra	-5041
▁Devendra	-5042
▁capacity	-5043
▁domestic	-5044
▁internet	-5045
▁selected	-5046
▁infection	-5047
▁reportedly	-5048
▁ingredients	-5049
▁investigated	-5050
In	-5051
JD	-5052
RF	-5053
za	-5054
edi	-5055
ila	-5056
ixt	-5057
mas	-5058
▁6:	-5059
▁GB	-5060
ails	-5061
mbol	-5062
pura	-5063
rary	-5064
uary	-5065
▁Bet	-5066
▁Pay	-5067
▁Rat	-5068
▁Tim	-5069
▁jaw	-5070
inner	-5071
iture	-5072
▁2018	-5073
▁Fort	-5074
▁Sind	-5075
▁trip	-5076
▁unit	-5077
▁vacc	-5078
ighter	-5079
▁Benef	-5080
▁Earth	-5081
▁anger	-5082
▁colle	-5083
▁color	-5084
▁manif	-5085
▁trend	-5086
▁truly	-5087
▁Around	-5088
▁Should	-5089
▁corner	-5090
▁credit	-5091
▁flying	-5092
▁injury	-5093
▁myself	-5094
▁spokes	-5095
▁transl	-5096
▁values	-5097
▁welcom	-5098
▁Celsius	-5099
▁batsman	-5100
▁brigade	-5101
▁counsel	-5102
▁maximum	-5103
▁usually	-5104
▁Consider	-5105
▁absolute	-5106
▁captured	-5107
▁changing	-5108
▁inspired	-5109
▁producer	-5110
▁Aishwarya	-5111
▁Scriptures	-5112
▁assistance	-5113
▁photograph	-5114
▁Chidambaram	-5115
▁understanding	-5116
3.	-5117
gg	-5118
nu	-5119
ta	-5120
asi	-5121
pat	-5122
▁CA	-5123
▁JD	-5124
▁Po	-5125
deep	-5126
gery	-5127
ores	-5128
▁Bas	-5129
▁CEO	-5130
▁THE	-5131
▁Vid	-5132
▁adj	-5133
▁sam	-5134
▁tro	-5135
addha	-5136
iment	-5137
odara	-5138
pping	-5139
verse	-5140
▁Mahe	-5141
▁Mess	-5142
▁Nick	-5143
▁Sith	-5144
▁adop	-5145
▁burn	-5146
▁gift	-5147
unicip	-5148
▁Black	-5149
▁Chair	-5150
▁blast	-5151
▁carry	-5152
▁chick	-5153
▁misha	-5154
▁reply	-5155
▁sweet	-5156
▁Rajkot	-5157
▁excell	-5158
▁flight	-5159
▁scared	-5160
▁sexual	-5161
▁sports	-5162
▁strugg	-5163
▁sudden	-5164
▁vision	-5165
▁wicked	-5166
poration	-5167
▁Muslims	-5168
▁calling	-5169
▁demonst	-5170
▁minimum	-5171
▁serving	-5172
▁American	-5173
▁Symptoms	-5174
▁anointed	-5175
▁appropri	-5176
▁approval	-5177
▁becoming	-5178
▁villages	-5179
▁dismissed	-5180
▁interview	-5181
▁postmortem	-5182
▁travelling	-5183
25	-5184
CO	-5185
App	-5186
een	-5187
law	-5188
rep	-5189
rer	-5190
▁Cy	-5191
▁Ob	-5192
▁ec	-5193
▁et	-5194
dhav	-5195
eras	-5196
lies	-5197
olid	-5198
raid	-5199
urch	-5200
yond	-5201
▁10.	-5202
▁12.	-5203
▁Gen	-5204
▁Jag	-5205
▁Tax	-5206
▁Vik	-5207
arily	-5208
ening	-5209
otees	-5210
oward	-5211
uddin	-5212
▁Bhag	-5213
▁Boss	-5214
▁ball	-5215
▁clot	-5216
▁loan	-5217
▁nice	-5218
▁user	-5219
araman	-5220
▁Moses	-5221
▁Quest	-5222
▁abrog	-5223
▁fully	-5224
▁loans	-5225
▁minor	-5226
▁pages	-5227
▁urged	-5228
ossible	-5229
▁Uddhav	-5230
▁afraid	-5231
▁agreed	-5232
▁beyond	-5233
▁mishap	-5234
▁rupees	-5235
▁spouse	-5236
▁wooden	-5237
▁Actress	-5238
▁Bhushan	-5239
▁Nirmala	-5240
▁complex	-5241
▁deliver	-5242
▁finally	-5243
▁flights	-5244
▁proceed	-5245
▁resurre	-5246
▁winning	-5247
▁Republic	-5248
▁attitude	-5249
▁giraffes	-5250
▁priority	-5251
▁teaching	-5252
▁Sometimes	-5253
▁bilateral	-5254
▁Israelites	-5255
▁Sitharaman	-5256
▁appearance	-5257
▁introduced	-5258
▁principles	-5259
▁partnership	-5260
▁headquarters	-5261
▁particularly	-5262
▁relationships	-5263
IA	-5264
US	-5265
equ	-5266
rem	-5267
▁9.	-5268
▁Aw	-5269
hern	-5270
iced	-5271
iter	-5272
ooth	-5273
opic	-5274
▁Jon	-5275
▁Leg	-5276
▁Ltd	-5277
▁NDA	-5278
▁SBI	-5279
▁Vaj	-5280
▁bul	-5281
▁eye	-5282
▁gun	-5283
▁hat	-5284
▁hor	-5285
▁mid	-5286
▁sun	-5287
▁und	-5288
ammad	-5289
endra	-5290
iling	-5291
quake	-5292
▁Comp	-5293
▁News	-5294
▁Once	-5295
▁Very	-5296
▁pion	-5297
▁reci	-5298
▁soul	-5299
▁webs	-5300
esters	-5301
friend	-5302
istics	-5303
itable	-5304
orable	-5305
▁Along	-5306
▁airpl	-5307
▁dance	-5308
▁disci	-5309
▁ended	-5310
▁prove	-5311
▁songs	-5312
▁Compan	-5313
▁critic	-5314
▁highly	-5315
▁lights	-5316
▁pretty	-5317
▁rather	-5318
▁symbol	-5319
▁widely	-5320
▁college	-5321
▁defence	-5322
▁farming	-5323
▁forever	-5324
▁limited	-5325
▁meaning	-5326
▁parking	-5327
▁section	-5328
▁skipper	-5329
▁whether	-5330
▁declined	-5331
▁instruct	-5332
▁practice	-5333
▁proposed	-5334
▁referred	-5335
▁waterlog	-5336
▁whatever	-5337
▁Elections	-5338
▁addressed	-5339
▁worldwide	-5340
▁compassion	-5341
▁complaints	-5342
▁contribution	-5343
▁circumstances	-5344
▁manufacturing	-5345
.,	-5346
ba	-5347
ti	-5348
zz	-5349
arh	-5350
ext	-5351
uff	-5352
▁Ki	-5353
▁Ty	-5354
apur	-5355
haar	-5356
hore	-5357
like	-5358
rely	-5359
▁Aar	-5360
▁Any	-5361
▁Dil	-5362
▁Mir	-5363
▁Pal	-5364
▁dia	-5365
▁hur	-5366
adhan	-5367
arked	-5368
eline	-5369
enses	-5370
nagar	-5371
payee	-5372
upted	-5373
▁Prab	-5374
▁Were	-5375
▁duty	-5376
▁gear	-5377
▁purs	-5378
▁tips	-5379
oughly	-5380
▁Gupta	-5381
▁Joshi	-5382
▁March	-5383
▁Start	-5384
▁Video	-5385
▁concl	-5386
▁files	-5387
▁meets	-5388
▁purch	-5389
▁regul	-5390
▁stood	-5391
▁Isaiah	-5392
▁Office	-5393
▁Roshan	-5394
▁broken	-5395
▁claims	-5396
▁defeat	-5397
▁elders	-5398
▁female	-5399
▁manner	-5400
▁showed	-5401
▁suffer	-5402
▁talked	-5403
▁taught	-5404
▁territ	-5405
▁tracks	-5406
ployment	-5407
▁patient	-5408
▁prepare	-5409
▁shocked	-5410
▁External	-5411
▁Vadodara	-5412
▁directly	-5413
▁kindness	-5414
▁promises	-5415
▁separate	-5416
▁stations	-5417
▁establish	-5418
▁standards	-5419
▁terrorism	-5420
▁interested	-5421
▁constituencies	-5422
PM	-5423
aji	-5424
▁3,	-5425
▁Ti	-5426
▁vs	-5427
hans	-5428
phas	-5429
reak	-5430
word	-5431
▁AAP	-5432
▁Aut	-5433
▁Div	-5434
▁Mor	-5435
▁Val	-5436
▁flu	-5437
▁num	-5438
▁unf	-5439
▁vig	-5440
agers	-5441
lands	-5442
umber	-5443
▁2017	-5444
▁HDFC	-5445
▁Pune	-5446
▁Rain	-5447
▁Soon	-5448
▁none	-5449
▁shel	-5450
▁size	-5451
▁sort	-5452
iander	-5453
iverse	-5454
rences	-5455
▁Enter	-5456
▁Islam	-5457
▁Pawar	-5458
▁Royal	-5459
▁Sride	-5460
▁block	-5461
▁error	-5462
▁estim	-5463
▁hasnt	-5464
▁hours	-5465
▁loyal	-5466
▁range	-5467
▁shoot	-5468
▁worst	-5469
adually	-5470
ography	-5471
▁Doctor	-5472
▁Income	-5473
▁dreams	-5474
▁fruits	-5475
▁pieces	-5476
▁proced	-5477
▁secret	-5478
▁wicket	-5479
ervation	-5480
▁Chandra	-5481
▁History	-5482
▁Science	-5483
▁attract	-5484
▁awarded	-5485
▁cameras	-5486
▁crucial	-5487
▁depends	-5488
▁dispute	-5489
▁follows	-5490
▁involve	-5491
▁payment	-5492
▁Mahendra	-5493
▁Sonakshi	-5494
▁activity	-5495
▁fighting	-5496
▁resources	-5497
▁responded	-5498
▁witnessed	-5499
▁notification	-5500
▁organization	-5501
%.	-5502
Ch	-5503
It	-5504
rim	-5505
▁75	-5506
▁El	-5507
▁Ha	-5508
What	-5509
inch	-5510
oser	-5511
vant	-5512
▁Key	-5513
▁Mas	-5514
▁Raf	-5515
▁Ter	-5516
▁anx	-5517
▁bed	-5518
▁etc	-5519
▁hom	-5520
▁hop	-5521
ading	-5522
akers	-5523
eless	-5524
ellig	-5525
enger	-5526
havan	-5527
▁Book	-5528
▁Mary	-5529
▁Rana	-5530
▁audi	-5531
▁base	-5532
▁flag	-5533
▁opin	-5534
▁sick	-5535
▁sits	-5536
▁slog	-5537
▁stun	-5538
▁wear	-5539
change	-5540
ixture	-5541
otions	-5542
▁Death	-5543
▁Inter	-5544
▁Nirav	-5545
▁Polit	-5546
▁basic	-5547
▁facts	-5548
▁forms	-5549
▁gradu	-5550
▁items	-5551
▁mouth	-5552
▁noted	-5553
▁scene	-5554
▁style	-5555
▁tough	-5556
emorial	-5557
vention	-5558
▁Aditya	-5559
▁Budget	-5560
▁Romans	-5561
▁acting	-5562
▁easier	-5563
▁extend	-5564
▁honest	-5565
▁nobody	-5566
▁perman	-5567
▁theres	-5568
▁undert	-5569
▁Mission	-5570
▁aspects	-5571
▁couldnt	-5572
▁greater	-5573
▁hundred	-5574
▁perhaps	-5575
▁prophet	-5576
▁quickly	-5577
▁website	-5578
▁younger	-5579
▁believed	-5580
▁facility	-5581
▁featured	-5582
▁recovery	-5583
▁resulted	-5584
▁speaking	-5585
▁strongly	-5586
▁encourage	-5587
▁performed	-5588
▁supported	-5589
▁surprised	-5590
▁appreciate	-5591
▁citizenship	-5592
▁discussions	-5593
▁participate	-5594
▁successfully	-5595
BC	-5596
MS	-5597
OS	-5598
"",	-5599
asw	-5600
maz	-5601
▁48	-5602
▁51	-5603
▁IT	-5604
▁MS	-5605
This	-5606
chol	-5607
dess	-5608
mark	-5609
▁11.	-5610
▁Tan	-5611
▁Tur	-5612
▁ble	-5613
▁fle	-5614
▁jet	-5615
based	-5616
ching	-5617
iabet	-5618
izing	-5619
right	-5620
▁Amaz	-5621
▁Bigg	-5622
▁Dhan	-5623
▁Gaur	-5624
▁Glob	-5625
▁Janh	-5626
▁Sams	-5627
▁Vish	-5628
▁doll	-5629
▁laid	-5630
▁mand	-5631
▁unve	-5632
aitley	-5633
andeep	-5634
▁Drink	-5635
▁James	-5636
▁Nawaz	-5637
▁Power	-5638
▁Train	-5639
▁White	-5640
▁acted	-5641
▁coach	-5642
▁depos	-5643
▁equal	-5644
▁honor	-5645
▁marty	-5646
▁micro	-5647
▁whose	-5648
orthern	-5649
▁Mukher	-5650
▁consec	-5651
▁emphas	-5652
▁explos	-5653
▁nearly	-5654
▁please	-5655
▁statue	-5656
standing	-5657
▁Aadhaar	-5658
▁alcohol	-5659
▁factors	-5660
▁keeping	-5661
▁protein	-5662
▁reflect	-5663
▁Himachal	-5664
▁appealed	-5665
▁cultural	-5666
▁identify	-5667
▁buildings	-5668
▁described	-5669
▁exception	-5670
▁qualities	-5671
▁thousands	-5672
rastructure	-5673
▁generation	-5674
▁parliament	-5675
▁questioned	-5676
▁consecutive	-5677
▁resignation	-5678
arc	-5679
eph	-5680
lit	-5681
nut	-5682
uja	-5683
win	-5684
zil	-5685
▁ye	-5686
CICI	-5687
aper	-5688
apse	-5689
eddy	-5690
htar	-5691
▁Bah	-5692
▁Bat	-5693
▁Bib	-5694
▁Dig	-5695
▁Inf	-5696
▁amb	-5697
▁wat	-5698
elled	-5699
speed	-5700
▁Adam	-5701
▁Gang	-5702
▁Jews	-5703
▁Port	-5704
▁Sain	-5705
▁calm	-5706
▁caut	-5707
▁hits	-5708
▁oath	-5709
▁ties	-5710
▁toll	-5711
▁Amend	-5712
▁Amrit	-5713
▁Chall	-5714
▁ICICI	-5715
▁Trade	-5716
▁crops	-5717
▁flesh	-5718
▁hotel	-5719
▁leads	-5720
▁lived	-5721
▁meant	-5722
▁relax	-5723
▁storm	-5724
▁throw	-5725
▁unity	-5726
imately	-5727
▁Author	-5728
▁Canada	-5729
▁Janhvi	-5730
▁Public	-5731
▁Thakur	-5732
▁agency	-5733
▁deputy	-5734
▁handle	-5735
▁headed	-5736
▁worshi	-5737
▁clothes	-5738
▁finance	-5739
▁mistake	-5740
▁mixture	-5741
▁rescued	-5742
▁variety	-5743
▁defeated	-5744
▁forecast	-5745
▁welcomed	-5746
▁confident	-5747
▁coriander	-5748
▁fulfilled	-5749
▁militants	-5750
▁relatives	-5751
▁residence	-5752
▁associated	-5753
▁appropriate	-5754
▁condolences	-5755
▁experienced	-5756
▁Commissioner	-5757
6,	-5758
bar	-5759
ida	-5760
ima	-5761
oga	-5762
ota	-5763
pro	-5764
uke	-5765
▁6.	-5766
▁64	-5767
▁Ko	-5768
lied	-5769
nded	-5770
rene	-5771
term	-5772
▁Gad	-5773
▁Gul	-5774
▁Kal	-5775
▁Piy	-5776
▁RSS	-5777
▁Sid	-5778
▁piv	-5779
▁row	-5780
lines	-5781
match	-5782
mical	-5783
oking	-5784
ource	-5785
▁Lead	-5786
▁Pass	-5787
▁bond	-5788
▁clar	-5789
▁dial	-5790
▁fish	-5791
▁luck	-5792
▁proc	-5793
▁rice	-5794
▁tele	-5795
ounded	-5796
rolled	-5797
▁Asian	-5798
▁Ayush	-5799
▁Could	-5800
▁Solom	-5801
▁Treat	-5802
▁beach	-5803
▁coast	-5804
▁doesn	-5805
▁funds	-5806
▁homes	-5807
▁marks	-5808
▁notes	-5809
▁occup	-5810
▁panic	-5811
▁pride	-5812
▁tests	-5813
▁Akhtar	-5814
▁Hindus	-5815
▁Jaipur	-5816
▁Piyush	-5817
▁branch	-5818
▁commer	-5819
▁escape	-5820
▁lashed	-5821
▁profit	-5822
▁ruling	-5823
▁useful	-5824
▁wealth	-5825
▁writer	-5826
ishermen	-5827
▁Jaitley	-5828
▁Krishna	-5829
▁Various	-5830
▁accompl	-5831
▁actions	-5832
▁clearly	-5833
▁immense	-5834
▁pivotal	-5835
▁regions	-5836
▁trouble	-5837
▁visible	-5838
▁Benefits	-5839
▁Pictures	-5840
▁Shraddha	-5841
▁creation	-5842
▁criminal	-5843
▁surround	-5844
▁advantage	-5845
▁medicines	-5846
▁submitted	-5847
▁Citizenship	-5848
▁established	-5849
▁respectively	-5850
60	-5851
9,	-5852
eb	-5853
ns	-5854
iar	-5855
inh	-5856
omi	-5857
sha	-5858
uce	-5859
▁Id	-5860
ffee	-5861
iant	-5862
osis	-5863
▁Ang	-5864
▁Gan	-5865
▁Gra	-5866
▁Nat	-5867
▁Put	-5868
▁Rak	-5869
▁cra	-5870
▁egg	-5871
▁lay	-5872
place	-5873
▁Brah	-5874
▁Inte	-5875
▁Jade	-5876
▁Like	-5877
▁Vice	-5878
▁boys	-5879
▁fort	-5880
▁liqu	-5881
▁male	-5882
▁prec	-5883
▁wild	-5884
ructed	-5885
▁Clean	-5886
▁Greek	-5887
▁Malay	-5888
▁Marat	-5889
▁Rishi	-5890
▁clock	-5891
▁fraud	-5892
▁goods	-5893
▁innov	-5894
▁motiv	-5895
▁Brazil	-5896
▁Change	-5897
▁Indeed	-5898
▁Indira	-5899
▁Kartik	-5900
▁Nitish	-5901
▁Pandya	-5902
▁Person	-5903
▁farmer	-5904
▁mainly	-5905
▁medium	-5906
▁survey	-5907
▁youths	-5908
fficient	-5909
▁Brother	-5910
▁Manohar	-5911
▁Parents	-5912
▁chances	-5913
▁helping	-5914
▁highway	-5915
▁mothers	-5916
▁polling	-5917
▁showing	-5918
▁Internet	-5919
▁Vajpayee	-5920
▁WhatsApp	-5921
▁apostles	-5922
▁cautious	-5923
▁heavenly	-5924
▁instance	-5925
▁interrog	-5926
▁judicial	-5927
▁planning	-5928
▁agreement	-5929
▁allegedly	-5930
▁cancelled	-5931
▁celebrate	-5932
▁demanding	-5933
▁documents	-5934
▁immediate	-5935
▁pollution	-5936
▁privilege	-5937
▁addressing	-5938
▁initiative	-5939
▁spokesperson	-5940
8,	-5941
RE	-5942
yl	-5943
alt	-5944
eum	-5945
ole	-5946
pex	-5947
▁Ac	-5948
gypt	-5949
ilpa	-5950
more	-5951
soon	-5952
▁14.	-5953
▁Aug	-5954
▁Oct	-5955
▁Raw	-5956
▁fan	-5957
▁pit	-5958
▁van	-5959
ander	-5960
igarh	-5961
rench	-5962
▁Note	-5963
▁apex	-5964
▁bear	-5965
▁fuel	-5966
▁sets	-5967
▁trig	-5968
anguly	-5969
asting	-5970
ivered	-5971
▁Among	-5972
▁Egypt	-5973
▁Green	-5974
▁River	-5975
▁balls	-5976
▁brown	-5977
▁drive	-5978
▁enhan	-5979
▁imper	-5980
▁worse	-5981
▁Action	-5982
▁Mother	-5983
▁Rather	-5984
▁Shilpa	-5985
▁apolog	-5986
▁belief	-5987
▁depart	-5988
▁memory	-5989
▁potato	-5990
▁priced	-5991
▁Company	-5992
▁Picture	-5993
▁Through	-5994
▁assault	-5995
▁covered	-5996
▁harmony	-5997
▁leaving	-5998
▁reduced	-5999
▁western	-6000
▁baptized	-6001
▁benefici	-6002
▁certific	-6003
▁chairman	-6004
▁collabor	-6005
▁compared	-6006
▁definite	-6007
▁identity	-6008
▁strategy	-6009
▁vacation	-6010
▁Malayalam	-6011
▁authority	-6012
▁expensive	-6013
▁gradually	-6014
▁tradition	-6015
▁impossible	-6016
▁protesters	-6017
▁statements	-6018
▁university	-6019
▁transferred	-6020
▁conversation	-6021
2,	-6022
AS	-6023
HO	-6024
IP	-6025
SC	-6026
ni	-6027
cel	-6028
col	-6029
fer	-6030
ham	-6031
run	-6032
ube	-6033
ula	-6034
▁ps	-6035
adda	-6036
enty	-6037
eral	-6038
icky	-6039
ming	-6040
oral	-6041
uses	-6042
▁15.	-6043
▁198	-6044
▁Bad	-6045
▁Dub	-6046
▁Mel	-6047
▁Rad	-6048
▁Ref	-6049
▁Sil	-6050
▁Ver	-6051
▁opp	-6052
▁rom	-6053
▁rum	-6054
▁tea	-6055
icate	-6056
itage	-6057
▁Ajit	-6058
▁File	-6059
▁Head	-6060
▁July	-6061
▁Mang	-6062
▁bicy	-6063
▁empt	-6064
▁lies	-6065
▁lots	-6066
▁pole	-6067
▁sale	-6068
▁thor	-6069
arnath	-6070
itated	-6071
▁Human	-6072
▁Organ	-6073
▁Price	-6074
▁buses	-6075
▁crash	-6076
▁diagn	-6077
▁equip	-6078
▁grown	-6079
▁metal	-6080
▁raise	-6081
▁Hardik	-6082
▁Jadeja	-6083
▁League	-6084
▁abroad	-6085
▁bridge	-6086
▁cultiv	-6087
▁havent	-6088
▁passes	-6089
▁reform	-6090
▁reward	-6091
▁troops	-6092
enditure	-6093
inations	-6094
▁Express	-6095
▁Sridevi	-6096
▁Whether	-6097
▁ability	-6098
▁arrives	-6099
▁consist	-6100
▁decades	-6101
▁machine	-6102
▁opposed	-6103
▁pattern	-6104
▁pending	-6105
▁rapidly	-6106
▁schemes	-6107
▁existing	-6108
▁judgment	-6109
▁numerous	-6110
▁original	-6111
▁peaceful	-6112
▁untoward	-6113
▁watching	-6114
▁delivered	-6115
▁emotional	-6116
▁policemen	-6117
▁remaining	-6118
▁sacrifice	-6119
▁absolutely	-6120
▁tablespoon	-6121
▁thereafter	-6122
▁threatened	-6123
▁Corporation	-6124
▁instructions	-6125
▁communication	-6126
▁congratulated	-6127
-0	-6128
mp	-6129
amy	-6130
gin	-6131
hab	-6132
kes	-6133
▁7:	-6134
▁BR	-6135
▁Ek	-6136
▁Er	-6137
▁ic	-6138
▁ji	-6139
aces	-6140
aded	-6141
care	-6142
hens	-6143
hpur	-6144
ilty	-6145
live	-6146
▁250	-6147
▁Bob	-6148
▁Lim	-6149
▁Rob	-6150
▁Six	-6151
▁Tom	-6152
▁gri	-6153
▁ste	-6154
antic	-6155
apore	-6156
eness	-6157
▁Answ	-6158
▁Blue	-6159
▁Chat	-6160
▁Spir	-6161
▁auto	-6162
▁east	-6163
▁evil	-6164
▁fair	-6165
▁magn	-6166
▁sell	-6167
▁sins	-6168
ifying	-6169
phones	-6170
▁Allah	-6171
▁Games	-6172
▁Harsh	-6173
▁Nadda	-6174
▁brief	-6175
▁clash	-6176
▁click	-6177
▁magaz	-6178
▁posts	-6179
▁Associ	-6180
▁August	-6181
▁Chandr	-6182
▁Global	-6183
▁Ladakh	-6184
▁Select	-6185
▁Summit	-6186
▁disput	-6187
▁divine	-6188
▁hearts	-6189
▁locals	-6190
▁mutual	-6191
▁picked	-6192
▁signed	-6193
▁wished	-6194
ications	-6195
▁Ganguly	-6196
▁Service	-6197
▁balance	-6198
▁charged	-6199
▁constit	-6200
▁context	-6201
▁crossed	-6202
▁dischar	-6203
▁fashion	-6204
▁greatly	-6205
▁kingdom	-6206
▁missing	-6207
▁organis	-6208
▁resolve	-6209
▁restaur	-6210
▁revenue	-6211
▁internal	-6212
▁manifest	-6213
ricultural	-6214
▁Champions	-6215
▁Christmas	-6216
▁Mukherjee	-6217
▁Samajwadi	-6218
▁accidents	-6219
▁carefully	-6220
▁certainly	-6221
▁comprises	-6222
▁explained	-6223
▁prominent	-6224
▁scheduled	-6225
▁Thereafter	-6226
▁commercial	-6227
▁earthquake	-6228
▁guidelines	-6229
▁personality	-6230
▁tablespoons	-6231
▁traditional	-6232
▁Subsequently	-6233
AD	-6234
co	-6235
cha	-6236
chi	-6237
eor	-6238
ero	-6239
eta	-6240
hot	-6241
hta	-6242
oja	-6243
umi	-6244
unk	-6245
yan	-6246
▁49	-6247
▁AI	-6248
▁HC	-6249
▁NC	-6250
▁Ta	-6251
aksh	-6252
days	-6253
eter	-6254
hail	-6255
tion	-6256
▁11,	-6257
▁13.	-6258
▁197	-6259
▁Bel	-6260
▁Cal	-6261
▁Dec	-6262
▁MoU	-6263
▁Neh	-6264
▁Try	-6265
▁emp	-6266
▁fib	-6267
ailed	-6268
asons	-6269
maker	-6270
ratri	-6271
rison	-6272
spect	-6273
▁Acts	-6274
▁Atal	-6275
▁Bomb	-6276
▁Hall	-6277
▁Kann	-6278
▁List	-6279
▁Talk	-6280
▁Wind	-6281
▁chap	-6282
▁yoga	-6283
▁Khans	-6284
▁Photo	-6285
▁Smith	-6286
▁Stand	-6287
▁Vadra	-6288
▁aband	-6289
▁brain	-6290
▁crude	-6291
▁lemon	-6292
▁older	-6293
▁penal	-6294
▁rooms	-6295
▁solve	-6296
essions	-6297
reprene	-6298
▁French	-6299
▁afford	-6300
▁biopic	-6301
▁digest	-6302
▁lawyer	-6303
▁phones	-6304
▁praise	-6305
▁rememb	-6306
▁warned	-6307
▁Kangana	-6308
▁Lucknow	-6309
▁Results	-6310
▁battery	-6311
▁closely	-6312
▁content	-6313
▁enjoyed	-6314
▁fielded	-6315
▁herself	-6316
▁illness	-6317
▁promise	-6318
▁underst	-6319
▁European	-6320
▁airplane	-6321
▁audience	-6322
▁blessing	-6323
▁category	-6324
▁comments	-6325
▁devotees	-6326
▁greatest	-6327
▁improved	-6328
▁pleasant	-6329
▁pregnant	-6330
▁requires	-6331
▁resolved	-6332
▁spending	-6333
▁stronger	-6334
▁centuries	-6335
▁emergency	-6336
▁practical	-6337
▁Management	-6338
▁collection	-6339
▁convention	-6340
▁foundation	-6341
▁frequently	-6342
▁scientific	-6343
▁challenging	-6344
▁electricity	-6345
▁experiences	-6346
▁independent	-6347
▁spiritually	-6348
▁Constitution	-6349
▁infrastructure	-6350
40	-6351
EN	-6352
zy	-6353
200	-6354
agh	-6355
anj	-6356
enn	-6357
gic	-6358
iya	-6359
oli	-6360
▁SC	-6361
ande	-6362
anti	-6363
ibly	-6364
icts	-6365
ipur	-6366
kari	-6367
kash	-6368
rith	-6369
roff	-6370
walk	-6371
well	-6372
zing	-6373
▁15,	-6374
▁Dif	-6375
▁Gar	-6376
▁Mon	-6377
▁Ret	-6378
▁ast	-6379
▁kid	-6380
▁mig	-6381
▁tor	-6382
anasi	-6383
eting	-6384
force	-6385
harth	-6386
iders	-6387
terol	-6388
▁Back	-6389
▁Budd	-6390
▁Dece	-6391
▁Plan	-6392
▁Poll	-6393
▁Pran	-6394
▁Prov	-6395
▁asks	-6396
▁elim	-6397
▁pair	-6398
▁tall	-6399
▁zeal	-6400
ilding	-6401
▁Apple	-6402
▁Being	-6403
▁Count	-6404
▁Mahes	-6405
▁Money	-6406
▁Patna	-6407
▁Store	-6408
▁alive	-6409
▁empty	-6410
▁entry	-6411
▁holid	-6412
▁ideas	-6413
▁loves	-6414
▁revol	-6415
▁sixth	-6416
iabetes	-6417
▁Amazon	-6418
▁Bibles	-6419
▁Joseph	-6420
▁Khanna	-6421
▁chance	-6422
▁infect	-6423
▁losing	-6424
▁orange	-6425
▁orders	-6426
▁sacred	-6427
▁silent	-6428
▁summer	-6429
▁winter	-6430
unicipal	-6431
velation	-6432
▁Hebrews	-6433
▁Solomon	-6434
▁confirm	-6435
▁dropped	-6436
▁engaged	-6437
▁experts	-6438
▁instead	-6439
▁knowing	-6440
▁sectors	-6441
▁vitamin	-6442
▁warning	-6443
olesterol	-6444
▁Economic	-6445
▁Thousand	-6446
▁Varanasi	-6447
▁agencies	-6448
▁argument	-6449
▁detailed	-6450
▁historic	-6451
▁mountain	-6452
▁observed	-6453
▁relative	-6454
▁survived	-6455
▁visiting	-6456
▁Questions	-6457
▁childhood	-6458
▁influence	-6459
▁absconding	-6460
▁eventually	-6461
▁prosperity	-6462
▁Information	-6463
▁celebrations	-6464
▁preparations	-6465
!"	-6466
Is	-6467
oe	-6468
den	-6469
eve	-6470
hee	-6471
ney	-6472
rad	-6473
▁45	-6474
▁65	-6475
▁9,	-6476
▁Ro	-6477
▁Sl	-6478
▁TR	-6479
▁gm	-6480
ares	-6481
ayed	-6482
cean	-6483
herd	-6484
illa	-6485
ober	-6486
othy	-6487
riya	-6488
ruck	-6489
ster	-6490
▁...	-6491
▁1.5	-6492
▁12:	-6493
▁18.	-6494
▁400	-6495
▁Jac	-6496
▁Jin	-6497
▁Kaj	-6498
▁Sad	-6499
▁Top	-6500
▁Vis	-6501
▁mal	-6502
▁wid	-6503
Phone	-6504
aming	-6505
ength	-6506
hians	-6507
ojana	-6508
owing	-6509
ronic	-6510
usted	-6511
▁Fans	-6512
▁Pres	-6513
▁Stat	-6514
▁Taim	-6515
▁bott	-6516
▁fold	-6517
▁neck	-6518
▁pace	-6519
▁prem	-6520
▁task	-6521
igible	-6522
istans	-6523
rithik	-6524
uction	-6525
▁Again	-6526
▁Gauri	-6527
▁Media	-6528
▁Pooja	-6529
▁Sunny	-6530
▁alloc	-6531
▁ascer	-6532
▁broad	-6533
▁drama	-6534
▁likes	-6535
▁lines	-6536
▁mirac	-6537
▁novel	-6538
▁panel	-6539
▁route	-6540
▁rupee	-6541
ressive	-6542
▁Corint	-6543
▁Shroff	-6544
▁guilty	-6545
▁mirror	-6546
▁overse	-6547
▁singer	-6548
▁stable	-6549
eptember	-6550
ointment	-6551
▁Creator	-6552
▁Despite	-6553
▁Gadkari	-6554
▁Germany	-6555
▁Hrithik	-6556
▁affairs	-6557
▁clashes	-6558
▁climate	-6559
▁couples	-6560
▁emerged	-6561
▁fighter	-6562
▁planned	-6563
▁realize	-6564
▁tension	-6565
▁Ayushman	-6566
▁Chairman	-6567
▁Gujarati	-6568
▁casualty	-6569
▁download	-6570
▁register	-6571
▁sections	-6572
▁standard	-6573
▁vitamins	-6574
▁Amendment	-6575
▁everybody	-6576
▁excellent	-6577
▁interests	-6578
▁satisfact	-6579
▁traveling	-6580
eorological	-6581
▁advantages	-6582
▁challenged	-6583
▁commitment	-6584
▁conscience	-6585
▁contribute	-6586
▁depression	-6587
▁literature	-6588
▁permission	-6589
▁resolution	-6590
▁understood	-6591
▁Corinthians	-6592
▁cholesterol	-6593
▁possibility	-6594
▁subsequently	-6595
15	-6596
AF	-6597
TI	-6598
ox	-6599
▁)	-6600
fit	-6601
ims	-6602
nap	-6603
▁Ba	-6604
▁Ev	-6605
▁JN	-6606
▁Om	-6607
▁Ve	-6608
cend	-6609
fare	-6610
gend	-6611
isma	-6612
lete	-6613
oves	-6614
rers	-6615
tage	-6616
umin	-6617
▁Abd	-6618
▁Jod	-6619
▁Kab	-6620
▁Kis	-6621
▁Mer	-6622
▁Mos	-6623
▁Mur	-6624
▁USA	-6625
▁Vin	-6626
abled	-6627
arpur	-6628
ayaan	-6629
chang	-6630
cknow	-6631
clone	-6632
erted	-6633
icies	-6634
ilipp	-6635
ishra	-6636
obile	-6637
otton	-6638
rophy	-6639
thern	-6640
▁June	-6641
▁coin	-6642
▁cord	-6643
▁dear	-6644
▁scen	-6645
▁soil	-6646
▁uses	-6647
▁weap	-6648
akhand	-6649
ardhan	-6650
orters	-6651
▁Mount	-6652
▁Patil	-6653
▁Reddy	-6654
▁Saudi	-6655
▁Vitam	-6656
▁fixed	-6657
▁medal	-6658
▁mercy	-6659
▁quiet	-6660
▁sport	-6661
▁title	-6662
▁vital	-6663
utation	-6664
▁Import	-6665
▁Mishra	-6666
▁Pandey	-6667
▁Sports	-6668
▁Taimur	-6669
▁button	-6670
▁dinner	-6671
▁floods	-6672
▁forced	-6673
▁fought	-6674
▁mostly	-6675
▁persec	-6676
▁retire	-6677
▁spoken	-6678
▁starts	-6679
▁thanks	-6680
▁Kuldeep	-6681
▁Philipp	-6682
▁Pradhan	-6683
▁appears	-6684
▁causing	-6685
▁enemies	-6686
▁examine	-6687
▁fitness	-6688
▁remarks	-6689
▁servant	-6690
▁slogans	-6691
▁sustain	-6692
▁totally	-6693
▁welfare	-6694
▁Mahindra	-6695
▁Srinagar	-6696
▁location	-6697
▁sidewalk	-6698
▁situated	-6699
▁Thousands	-6700
▁entertain	-6701
▁gathering	-6702
▁integrity	-6703
▁investors	-6704
▁predicted	-6705
▁pregnancy	-6706
▁providing	-6707
▁transform	-6708
▁Industries	-6709
▁approached	-6710
▁constantly	-6711
▁determined	-6712
▁developing	-6713
▁everywhere	-6714
▁friendship	-6715
▁Association	-6716
▁Chandrayaan	-6717
▁Uttarakhand	-6718
▁motorcycles	-6719
▁connectivity	-6720
▁distribution	-6721
▁beneficiaries	-6722
HI	-6723
ME	-6724
TS	-6725
hl	-6726
-20	-6727
asa	-6728
ema	-6729
exp	-6730
heb	-6731
hir	-6732
iff	-6733
key	-6734
osh	-6735
urg	-6736
uti	-6737
▁59	-6738
▁7,	-6739
arnt	-6740
asan	-6741
fast	-6742
hara	-6743
orry	-6744
ront	-6745
wara	-6746
▁13:	-6747
▁Det	-6748
▁Hon	-6749
▁Ira	-6750
▁Min	-6751
▁SMS	-6752
▁agg	-6753
▁bot	-6754
▁kil	-6755
▁lie	-6756
▁ric	-6757
▁tim	-6758
erals	-6759
inton	-6760
merce	-6761
pherd	-6762
riger	-6763
▁Gaut	-6764
▁Luke	-6765
▁Mant	-6766
▁Name	-6767
▁Prin	-6768
▁Prog	-6769
▁Ward	-6770
▁imag	-6771
▁incl	-6772
▁legs	-6773
▁meal	-6774
▁obey	-6775
▁poet	-6776
▁pure	-6777
▁scam	-6778
▁shar	-6779
acters	-6780
equate	-6781
▁Jonas	-6782
▁Major	-6783
▁Mohan	-6784
▁Seven	-6785
▁Woman	-6786
▁apart	-6787
▁deleg	-6788
▁kinds	-6789
▁lands	-6790
▁marry	-6791
▁miles	-6792
▁moves	-6793
▁overs	-6794
▁proof	-6795
▁schol	-6796
▁shape	-6797
▁tells	-6798
▁theft	-6799
▁upset	-6800
▁vigil	-6801
▁waste	-6802
limited	-6803
viation	-6804
▁Commun	-6805
▁Rafale	-6806
▁awards	-6807
▁banned	-6808
▁conven	-6809
▁dollar	-6810
▁extent	-6811
▁learnt	-6812
▁linked	-6813
▁resist	-6814
▁seeing	-6815
▁sensor	-6816
▁ticket	-6817
▁voters	-6818
▁worker	-6819
▁Goddess	-6820
▁Kannada	-6821
▁Project	-6822
▁Reserve	-6823
▁Shankar	-6824
▁compens	-6825
▁entered	-6826
▁exactly	-6827
▁excited	-6828
▁figures	-6829
▁imitate	-6830
▁killing	-6831
▁obvious	-6832
▁opinion	-6833
▁recover	-6834
▁trading	-6835
▁December	-6836
▁Services	-6837
▁answered	-6838
▁exchange	-6839
▁expenses	-6840
▁messages	-6841
▁policies	-6842
▁precious	-6843
▁starring	-6844
▁thankful	-6845
▁transact	-6846
▁Singapore	-6847
▁addresses	-6848
▁condemned	-6849
▁estimated	-6850
▁installed	-6851
▁passenger	-6852
▁procedure	-6853
▁definitely	-6854
▁encouraged	-6855
▁provisions	-6856
▁scientists	-6857
▁surprising	-6858
▁requirements	-6859
▁organisations	-6860
▁parliamentary	-6861
18	-6862
CS	-6863
▁!	-6864
ICS	-6865
Pak	-6866
ais	-6867
eem	-6868
iti	-6869
lig	-6870
▁%1	-6871
▁36	-6872
▁5,	-6873
▁8,	-6874
▁AB	-6875
▁Gh	-6876
▁ID	-6877
ahar	-6878
ania	-6879
aria	-6880
hers	-6881
role	-6882
uine	-6883
utch	-6884
▁194	-6885
▁2.5	-6886
▁Ask	-6887
▁BSP	-6888
▁Baj	-6889
▁Cam	-6890
▁Ins	-6891
▁Jad	-6892
▁cin	-6893
▁der	-6894
▁ult	-6895
▁uns	-6896
adise	-6897
agues	-6898
erior	-6899
ician	-6900
pline	-6901
tower	-6902
uresh	-6903
▁Dani	-6904
▁Lear	-6905
▁Mald	-6906
▁Must	-6907
▁NDRF	-6908
▁Need	-6909
▁Prom	-6910
▁Year	-6911
▁acts	-6912
▁debt	-6913
▁drop	-6914
▁grew	-6915
▁indu	-6916
▁isol	-6917
▁mild	-6918
▁moon	-6919
▁subs	-6920
▁util	-6921
astern	-6922
mended	-6923
porate	-6924
vation	-6925
▁Bhumi	-6926
▁Democ	-6927
▁Dubai	-6928
▁Great	-6929
▁Incre	-6930
▁Irani	-6931
▁Mally	-6932
▁Press	-6933
▁Shiva	-6934
▁Think	-6935
▁Young	-6936
▁favor	-6937
▁fence	-6938
▁fibre	-6939
▁rinse	-6940
▁upper	-6941
▁valid	-6942
▁winds	-6943
▁yield	-6944
uration	-6945
▁Amrita	-6946
▁Choose	-6947
▁Ranjan	-6948
▁Scient	-6949
▁Suresh	-6950
▁Voting	-6951
▁approx	-6952
▁beauty	-6953
▁closer	-6954
▁danger	-6955
▁distur	-6956
▁golden	-6957
▁inspir	-6958
▁intens	-6959
▁length	-6960
▁papers	-6961
▁priest	-6962
▁shower	-6963
▁sovere	-6964
▁strict	-6965
▁tender	-6966
▁tested	-6967
▁Christs	-6968
▁Doctors	-6969
▁January	-6970
▁October	-6971
▁Perhaps	-6972
▁Samsung	-6973
▁Stadium	-6974
▁Tripura	-6975
▁Vitamin	-6976
▁blessed	-6977
▁consequ	-6978
▁delight	-6979
▁measure	-6980
▁quarter	-6981
▁surgery	-6982
▁thanked	-6983
▁voltage	-6984
▁writing	-6985
▁Memorial	-6986
▁anywhere	-6987
▁countrys	-6988
▁emotions	-6989
▁humanity	-6990
▁pleasure	-6991
▁properly	-6992
▁repeated	-6993
▁tomatoes	-6994
▁tributes	-6995
▁unveiled	-6996
▁Pakistans	-6997
▁September	-6998
▁breathing	-6999
▁equipment	-7000
▁improving	-7001
▁provision	-7002
▁Chandigarh	-7003
▁characters	-7004
▁conclusion	-7005
▁conducting	-7006
▁dedication	-7007
▁invitation	-7008
▁nomination	-7009
▁expenditure	-7010
▁initiatives	-7011
▁resurrection	-7012
▁transmission	-7013
▁congregations	-7014
▁Meteorological	-7015
▁implementation	-7016
▁recommendations	-7017
',	-7018
16	-7019
7,	-7020
AG	-7021
CA	-7022
do	-7023
ls	-7024
500	-7025
gon	-7026
hik	-7027
ief	-7028
oda	-7029
▁Gr	-7030
▁Xi	-7031
▁du	-7032
▁ep	-7033
▁il	-7034
empl	-7035
ghal	-7036
ials	-7037
iety	-7038
uhan	-7039
uing	-7040
▁17.	-7041
▁19.	-7042
▁Dad	-7043
▁Dam	-7044
▁Eat	-7045
▁Hot	-7046
▁Kir	-7047
▁Win	-7048
▁cry	-7049
▁fee	-7050
▁fis	-7051
▁gif	-7052
▁mos	-7053
arian	-7054
dered	-7055
gered	-7056
ipped	-7057
ivery	-7058
omach	-7059
ulate	-7060
▁Band	-7061
▁Jack	-7062
▁Madh	-7063
▁Navy	-7064
▁Qual	-7065
▁Self	-7066
▁Star	-7067
▁Stay	-7068
▁Tour	-7069
▁dual	-7070
▁fill	-7071
▁jump	-7072
▁kick	-7073
▁outb	-7074
▁phar	-7075
▁rans	-7076
ancing	-7077
ateful	-7078
estyle	-7079
ibrary	-7080
overty	-7081
roleum	-7082
▁Brahm	-7083
▁Class	-7084
▁Kamal	-7085
▁Local	-7086
▁Music	-7087
▁Padma	-7088
▁arent	-7089
▁chose	-7090
▁decor	-7091
▁faces	-7092
▁habit	-7093
▁illeg	-7094
▁litre	-7095
▁owner	-7096
▁shout	-7097
▁troub	-7098
▁uncle	-7099
ciences	-7100
▁Bihari	-7101
▁Common	-7102
▁Others	-7103
▁Satans	-7104
▁Sharif	-7105
▁System	-7106
▁acknow	-7107
▁advert	-7108
▁altern	-7109
▁buying	-7110
▁distin	-7111
▁enable	-7112
▁exists	-7113
▁images	-7114
▁losses	-7115
▁manage	-7116
▁punish	-7117
▁speaks	-7118
▁titled	-7119
▁trials	-7120
acterial	-7121
undering	-7122
▁Finally	-7123
▁Instead	-7124
▁Karisma	-7125
▁Prakash	-7126
▁Teacher	-7127
▁Timothy	-7128
▁advance	-7129
▁banking	-7130
▁centres	-7131
▁collaps	-7132
▁failure	-7133
▁stories	-7134
▁tourism	-7135
▁tribute	-7136
▁Independ	-7137
▁Mohammed	-7138
▁Navratri	-7139
▁Ravindra	-7140
▁achieved	-7141
▁chemical	-7142
▁chillies	-7143
▁composed	-7144
▁distance	-7145
▁football	-7146
▁honoured	-7147
▁overcome	-7148
▁password	-7149
▁promised	-7150
▁rankings	-7151
▁refriger	-7152
▁studying	-7153
▁suddenly	-7154
▁Transport	-7155
▁attending	-7156
▁coalition	-7157
▁explosion	-7158
▁Watchtower	-7159
▁casualties	-7160
▁expression	-7161
▁personally	-7162
▁protesting	-7163
▁situations	-7164
▁comfortable	-7165
▁waterlogged	-7166
▁continuously	-7167
-3	-7168
Ah	-7169
EC	-7170
EL	-7171
Why	-7172
arr	-7173
had	-7174
hor	-7175
imb	-7176
oma	-7177
oti	-7178
pre	-7179
uls	-7180
xis	-7181
▁41	-7182
▁54	-7183
▁Ep	-7184
ache	-7185
esis	-7186
gent	-7187
itya	-7188
ivek	-7189
life	-7190
odia	-7191
osen	-7192
pass	-7193
poll	-7194
wari	-7195
▁10:	-7196
▁Box	-7197
▁Eve	-7198
▁Jaw	-7199
▁NRC	-7200
▁Old	-7201
▁Sea	-7202
▁Sho	-7203
▁Sir	-7204
▁Sug	-7205
▁bes	-7206
▁lic	-7207
erves	-7208
evers	-7209
ewise	-7210
iency	-7211
ifies	-7212
ulous	-7213
▁Card	-7214
▁Chak	-7215
▁Deol	-7216
▁Exam	-7217
▁Fest	-7218
▁Give	-7219
▁Kaus	-7220
▁Khur	-7221
▁None	-7222
▁Shak	-7223
▁Snap	-7224
▁Whos	-7225
▁beha	-7226
▁boat	-7227
▁code	-7228
▁crop	-7229
▁enth	-7230
▁grat	-7231
▁hero	-7232
▁hike	-7233
▁mort	-7234
▁pink	-7235
▁plot	-7236
▁rend	-7237
▁wore	-7238
onents	-7239
orders	-7240
orious	-7241
rition	-7242
▁Awake	-7243
▁Italy	-7244
▁Laksh	-7245
▁Nehru	-7246
▁Study	-7247
▁Times	-7248
▁Vivek	-7249
▁accur	-7250
▁blame	-7251
▁confl	-7252
▁dates	-7253
▁divor	-7254
▁drawn	-7255
▁drugs	-7256
▁email	-7257
▁foods	-7258
▁glory	-7259
▁guest	-7260
▁knock	-7261
▁lying	-7262
▁masks	-7263
▁opted	-7264
▁saved	-7265
▁scale	-7266
▁stead	-7267
▁steel	-7268
▁trial	-7269
▁turns	-7270
▁weigh	-7271
▁Awards	-7272
▁Bombay	-7273
▁Corona	-7274
▁Forest	-7275
▁Gautam	-7276
▁Jadhav	-7277
▁Mahesh	-7278
▁Mallya	-7279
▁Manish	-7280
▁Ranaut	-7281
▁Yojana	-7282
▁booked	-7283
▁chosen	-7284
▁coffee	-7285
▁convey	-7286
▁convin	-7287
▁cotton	-7288
▁dialog	-7289
▁harass	-7290
▁island	-7291
▁jawans	-7292
▁liquor	-7293
▁poster	-7294
▁prison	-7295
▁satisf	-7296
▁smooth	-7297
▁stayed	-7298
▁tempor	-7299
▁Capital	-7300
▁Marathi	-7301
▁Without	-7302
▁assured	-7303
▁chicken	-7304
▁despite	-7305
▁elderly	-7306
▁genuine	-7307
▁plastic	-7308
▁samples	-7309
▁Protests	-7310
▁attached	-7311
▁eligible	-7312
▁entirely	-7313
▁finished	-7314
▁launches	-7315
▁medicine	-7316
▁patience	-7317
▁replaced	-7318
▁severely	-7319
▁displayed	-7320
▁greetings	-7321
▁listening	-7322
▁permanent	-7323
▁solutions	-7324
▁technical	-7325
▁thoroughly	-7326
▁recommended	-7327
▁agricultural	-7328
▁professional	-7329
▁Investigation	-7330
CR	-7331
OR	-7332
PS	-7333
hs	-7334
You	-7335
hea	-7336
lex	-7337
nty	-7338
ulp	-7339
wat	-7340
▁44	-7341
▁46	-7342
▁AN	-7343
▁II	-7344
▁IR	-7345
▁Ju	-7346
▁NE	-7347
▁id	-7348
▁ok	-7349
,...	-7350
....	-7351
adem	-7352
emon	-7353
hani	-7354
khar	-7355
onic	-7356
rapy	-7357
unal	-7358
whel	-7359
▁11:	-7360
▁144	-7361
▁16.	-7362
▁21.	-7363
▁Att	-7364
▁Cut	-7365
▁Haz	-7366
▁JNU	-7367
▁Lar	-7368
▁Mag	-7369
▁Men	-7370
▁Naz	-7371
▁Pop	-7372
▁Rev	-7373
▁TMC	-7374
aling	-7375
claim	-7376
idden	-7377
night	-7378
owned	-7379
reets	-7380
▁2014	-7381
▁Aary	-7382
▁Baba	-7383
▁Feat	-7384
▁Free	-7385
▁Kher	-7386
▁Miss	-7387
▁Yash	-7388
▁apps	-7389
▁bold	-7390
▁core	-7391
▁desk	-7392
▁dipl	-7393
▁ends	-7394
▁hill	-7395
▁iron	-7396
▁mode	-7397
▁oven	-7398
▁push	-7399
▁shut	-7400
▁swit	-7401
colate	-7402
ington	-7403
▁BRICS	-7404
▁Blood	-7405
▁Devil	-7406
▁Manoj	-7407
▁Mehta	-7408
▁Nanda	-7409
▁Smart	-7410
▁cards	-7411
▁labou	-7412
▁newsp	-7413
▁refer	-7414
▁renew	-7415
▁sworn	-7416
▁tears	-7417
▁toler	-7418
▁urban	-7419
▁voted	-7420
lasting	-7421
rations	-7422
tenance	-7423
theless	-7424
▁Answer	-7425
▁Applic	-7426
▁Candid	-7427
▁Cooper	-7428
▁Daniel	-7429
▁Deepak	-7430
▁Farhan	-7431
▁butter	-7432
▁center	-7433
▁fields	-7434
▁iPhone	-7435
▁invite	-7436
▁script	-7437
▁seemed	-7438
▁sevent	-7439
▁skills	-7440
▁slowly	-7441
▁stocks	-7442
▁submit	-7443
▁summit	-7444
▁taluka	-7445
▁visits	-7446
▁voting	-7447
▁Jodhpur	-7448
▁Nations	-7449
▁Russian	-7450
▁amongst	-7451
▁anybody	-7452
▁batting	-7453
▁greeted	-7454
▁hanging	-7455
▁heavily	-7456
▁install	-7457
▁interse	-7458
▁penalty	-7459
▁pioneer	-7460
▁raising	-7461
▁returns	-7462
▁systems	-7463
▁vaccine	-7464
▁version	-7465
elligence	-7466
uspicious	-7467
▁adorable	-7468
▁delivery	-7469
▁designed	-7470
▁document	-7471
▁enjoying	-7472
▁imprison	-7473
▁mentally	-7474
▁minerals	-7475
▁starting	-7476
▁subjects	-7477
▁surprise	-7478
▁tensions	-7479
▁universe	-7480
▁Authority	-7481
▁admission	-7482
▁arguments	-7483
▁formation	-7484
▁insurance	-7485
▁mountains	-7486
▁operating	-7487
▁requested	-7488
▁searching	-7489
▁selection	-7490
▁villagers	-7491
▁Revelation	-7492
▁healthcare	-7493
▁arrangement	-7494
▁association	-7495
▁expectations	-7496
▁controversial	-7497
AL	-7498
CB	-7499
IL	-7500
ON	-7501
OU	-7502
ju	-7503
xy	-7504
yn	-7505
IMS	-7506
aja	-7507
gen	-7508
iny	-7509
rav	-7510
umn	-7511
▁38	-7512
▁4,	-7513
▁8-	-7514
▁8:	-7515
▁PS	-7516
adio	-7517
bhai	-7518
born	-7519
cium	-7520
edne	-7521
happ	-7522
inar	-7523
izes	-7524
rics	-7525
▁Ach	-7526
▁Est	-7527
▁Gog	-7528
▁Han	-7529
▁Kas	-7530
▁Sav	-7531
▁Som	-7532
▁Tej	-7533
▁Ven	-7534
▁awa	-7535
▁era	-7536
▁lad	-7537
▁nep	-7538
▁sem	-7539
▁tub	-7540
Photo	-7541
aland	-7542
cript	-7543
eries	-7544
lings	-7545
ppers	-7546
usive	-7547
▁Come	-7548
▁Help	-7549
▁Jais	-7550
▁Pric	-7551
▁Ravi	-7552
▁Salt	-7553
▁Tell	-7554
▁Trin	-7555
▁View	-7556
▁Warn	-7557
▁corn	-7558
▁dign	-7559
▁hate	-7560
▁mask	-7561
▁menu	-7562
▁semi	-7563
▁tack	-7564
ikanth	-7565
racted	-7566
▁Birth	-7567
▁Light	-7568
▁Pedne	-7569
▁Small	-7570
▁Tests	-7571
▁Trust	-7572
▁brand	-7573
▁decre	-7574
▁eager	-7575
▁fever	-7576
▁frame	-7577
▁integ	-7578
▁labor	-7579
▁norms	-7580
▁pilgr	-7581
▁sanct	-7582
▁simpl	-7583
▁theme	-7584
▁tight	-7585
▁walls	-7586
▁youre	-7587
inating	-7588
▁Design	-7589
▁Malhot	-7590
▁Number	-7591
▁Review	-7592
▁Sindhu	-7593
▁behalf	-7594
▁blamed	-7595
▁merely	-7596
▁plants	-7597
▁preach	-7598
▁ransom	-7599
▁remand	-7600
▁remind	-7601
▁retali	-7602
▁secure	-7603
▁selfie	-7604
▁update	-7605
▁womens	-7606
▁Jinping	-7607
▁Western	-7608
▁adverse	-7609
▁baptism	-7610
▁beloved	-7611
▁bicycle	-7612
▁bowlers	-7613
▁demands	-7614
▁dispers	-7615
▁harvest	-7616
▁initial	-7617
▁observe	-7618
▁poverty	-7619
▁reduces	-7620
▁shortly	-7621
▁strange	-7622
▁univers	-7623
▁Alliance	-7624
▁Features	-7625
▁Maldives	-7626
▁Mohammad	-7627
▁Pednekar	-7628
▁Training	-7629
▁adequate	-7630
▁deterior	-7631
▁grateful	-7632
▁magazine	-7633
▁mistakes	-7634
▁obtained	-7635
▁operated	-7636
▁outbreak	-7637
▁probably	-7638
▁purposes	-7639
▁railways	-7640
▁reaction	-7641
▁variable	-7642
▁Otherwise	-7643
▁Political	-7644
▁Treatment	-7645
▁favourite	-7646
▁spreading	-7647
▁territory	-7648
▁discharged	-7649
▁physically	-7650
▁restaurant	-7651
▁Environment	-7652
▁celebrating	-7653
▁constructed	-7654
▁inspiration	-7655
▁investments	-7656
▁difficulties	-7657
▁significance	-7658
▁strengthened	-7659
IN	-7660
PG	-7661
erg	-7662
has	-7663
het	-7664
how	-7665
ikh	-7666
jud	-7667
met	-7668
xic	-7669
zer	-7670
▁52	-7671
▁6,	-7672
▁EV	-7673
arts	-7674
elic	-7675
lock	-7676
mier	-7677
rore	-7678
ruit	-7679
urag	-7680
▁10,	-7681
▁Bip	-7682
▁CAA	-7683
▁Dan	-7684
▁IPC	-7685
▁Pur	-7686
▁Sud	-7687
▁aud	-7688
▁bik	-7689
▁isn	-7690
▁ran	-7691
▁swe	-7692
▁unc	-7693
▁web	-7694
amond	-7695
enant	-7696
ender	-7697
ignty	-7698
rific	-7699
▁Auto	-7700
▁Care	-7701
▁Disc	-7702
▁Find	-7703
▁Lakh	-7704
▁Mass	-7705
▁Rani	-7706
▁arms	-7707
▁culp	-7708
▁impl	-7709
▁rein	-7710
▁stir	-7711
▁suit	-7712
▁teen	-7713
▁tons	-7714
earing	-7715
igious	-7716
rupted	-7717
▁Apply	-7718
▁Based	-7719
▁Error	-7720
▁Exper	-7721
▁Kabir	-7722
▁Kajol	-7723
▁Kriti	-7724
▁Metro	-7725
▁Motor	-7726
▁Pauls	-7727
▁Rajin	-7728
▁Shami	-7729
▁abund	-7730
▁cream	-7731
▁laugh	-7732
▁mixed	-7733
▁shops	-7734
▁sixes	-7735
▁slave	-7736
▁solid	-7737
▁stick	-7738
▁tally	-7739
▁theat	-7740
▁wives	-7741
▁10,000	-7742
▁Aaryan	-7743
▁Ganesh	-7744
▁Kanpur	-7745
▁Method	-7746
▁Street	-7747
▁Thakor	-7748
▁Vikram	-7749
▁assets	-7750
▁bagged	-7751
▁beside	-7752
▁crying	-7753
▁demise	-7754
▁figure	-7755
▁gained	-7756
▁manual	-7757
▁nabbed	-7758
▁origin	-7759
▁refuge	-7760
▁regime	-7761
▁remote	-7762
▁rounds	-7763
▁slight	-7764
▁square	-7765
▁todays	-7766
▁transp	-7767
▁Bengali	-7768
▁Genesis	-7769
▁Punjabi	-7770
▁Station	-7771
▁adopted	-7772
▁concept	-7773
▁descend	-7774
▁evident	-7775
▁moments	-7776
▁powered	-7777
▁soldier	-7778
▁streets	-7779
▁studied	-7780
▁surface	-7781
▁trained	-7782
▁winners	-7783
▁Malhotra	-7784
▁Remember	-7785
▁articles	-7786
▁concerns	-7787
▁consists	-7788
▁covering	-7789
▁elements	-7790
▁examined	-7791
▁governor	-7792
▁guidance	-7793
▁involves	-7794
▁prophecy	-7795
▁restrict	-7796
▁reviewed	-7797
▁turmeric	-7798
employment	-7799
▁Arunachal	-7800
▁preparing	-7801
▁principal	-7802
▁principle	-7803
▁unlimited	-7804
▁witnesses	-7805
fortunately	-7806
▁Washington	-7807
▁affordable	-7808
▁auspicious	-7809
▁cricketers	-7810
▁entreprene	-7811
▁industrial	-7812
▁industries	-7813
▁remarkable	-7814
▁supporting	-7815
▁Challengers	-7816
▁Rajinikanth	-7817
▁celebration	-7818
▁consumption	-7819
▁engineering	-7820
▁everlasting	-7821
▁sovereignty	-7822
▁appreciation	-7823
▁intersection	-7824
▁refrigerator	-7825
▁approximately	-7826
▁righteousness	-7827
5,	-7828
ET	-7829
SD	-7830
da	-7831
alu	-7832
any	-7833
ape	-7834
asc	-7835
itt	-7836
mod	-7837
nis	-7838
top	-7839
uki	-7840
ura	-7841
▁42	-7842
▁55	-7843
▁85	-7844
▁CP	-7845
▁Fa	-7846
▁Ib	-7847
▁JP	-7848
▁Ji	-7849
▁ge	-7850
achi	-7851
anes	-7852
anya	-7853
boob	-7854
hari	-7855
icop	-7856
iest	-7857
look	-7858
onom	-7859
rian	-7860
▁14,	-7861
▁195	-7862
▁Alm	-7863
▁Eff	-7864
▁GDP	-7865
▁Ill	-7866
▁Kum	-7867
▁Sen	-7868
▁Vag	-7869
▁Vol	-7870
▁aid	-7871
▁cow	-7872
▁dil	-7873
▁que	-7874
▁rej	-7875
apsee	-7876
erate	-7877
house	-7878
ourav	-7879
ureau	-7880
▁Agar	-7881
▁Conn	-7882
▁Gehl	-7883
▁Holy	-7884
▁Hous	-7885
▁ISRO	-7886
▁Lank	-7887
▁Noah	-7888
▁Phil	-7889
▁Priv	-7890
▁Swit	-7891
▁Text	-7892
▁Trib	-7893
▁Want	-7894
▁desp	-7895
▁dust	-7896
▁evol	-7897
▁flat	-7898
▁meat	-7899
▁pose	-7900
▁rose	-7901
▁sees	-7902
▁sett	-7903
▁stab	-7904
▁valu	-7905
▁wake	-7906
member	-7907
omatic	-7908
ranged	-7909
ultane	-7910
▁Agree	-7911
▁Disha	-7912
▁Found	-7913
▁Gogoi	-7914
▁Grand	-7915
▁Leela	-7916
▁Micha	-7917
▁Sense	-7918
▁honey	-7919
▁overt	-7920
▁patri	-7921
▁quant	-7922
▁raped	-7923
▁ruled	-7924
▁subst	-7925
▁units	-7926
aborate	-7927
holders	-7928
▁Arabia	-7929
▁Histor	-7930
▁Nation	-7931
▁Pranab	-7932
▁Rajesh	-7933
▁Report	-7934
▁Sourav	-7935
▁Tiwari	-7936
▁allows	-7937
▁church	-7938
▁deeply	-7939
▁faster	-7940
▁festiv	-7941
▁instru	-7942
▁laying	-7943
▁motion	-7944
▁necess	-7945
▁parent	-7946
▁plenty	-7947
▁retail	-7948
▁solved	-7949
Pakistan	-7950
atically	-7951
▁Account	-7952
▁Mehboob	-7953
▁Narayan	-7954
▁Sandeep	-7955
▁Speaker	-7956
▁calcium	-7957
▁chapter	-7958
▁concent	-7959
▁eastern	-7960
▁fastest	-7961
▁focused	-7962
▁monsoon	-7963
▁overall	-7964
▁pension	-7965
▁pointed	-7966
▁praised	-7967
▁records	-7968
▁replace	-7969
▁traders	-7970
president	-7971
▁Aviation	-7972
▁Industry	-7973
▁creating	-7974
▁diabetes	-7975
▁disaster	-7976
▁neighbor	-7977
▁offering	-7978
▁overwhel	-7979
▁tourists	-7980
▁youngest	-7981
▁Everybody	-7982
▁imperfect	-7983
▁organized	-7984
▁assignment	-7985
▁Governments	-7986
▁ascertained	-7987
▁possibilities	-7988
37	-7989
70	-7990
DA	-7991
LE	-7992
All	-7993
But	-7994
abu	-7995
iot	-7996
mun	-7997
ses	-7998
sis	-7999
wad	-8000
▁0.	-8001
▁99	-8002
▁wa	-8003
alle	-8004
atio	-8005
hary	-8006
hika	-8007
iram	-8008
itor	-8009
nels	-8010
odes	-8011
oram	-8012
orks	-8013
oval	-8014
ules	-8015
▁Akh	-8016
▁Bre	-8017
▁Eli	-8018
▁Fed	-8019
▁Gro	-8020
▁Ish	-8021
▁Que	-8022
▁RJD	-8023
▁Yuv	-8024
▁hik	-8025
▁iOS	-8026
▁pen	-8027
▁sib	-8028
▁tie	-8029
▁ton	-8030
antly	-8031
arant	-8032
arkar	-8033
asure	-8034
cture	-8035
ertil	-8036
hajan	-8037
nergy	-8038
otten	-8039
pread	-8040
ubhai	-8041
▁Abhi	-8042
▁Airt	-8043
▁Case	-8044
▁Cook	-8045
▁Hong	-8046
▁Isha	-8047
▁Plus	-8048
▁Rest	-8049
▁Rhea	-8050
▁Sche	-8051
▁Vill	-8052
▁Weve	-8053
▁YouT	-8054
▁amid	-8055
▁calc	-8056
▁cure	-8057
▁elev	-8058
▁fool	-8059
▁fram	-8060
▁lake	-8061
▁lets	-8062
▁manh	-8063
▁pays	-8064
▁tank	-8065
▁ward	-8066
alling	-8067
atures	-8068
ending	-8069
havior	-8070
lights	-8071
▁Advis	-8072
▁Bhans	-8073
▁Event	-8074
▁Gopal	-8075
▁Jaish	-8076
▁Kiara	-8077
▁Pannu	-8078
▁Rains	-8079
▁Staff	-8080
▁Tiger	-8081
▁Vicky	-8082
▁bones	-8083
▁camps	-8084
▁cargo	-8085
▁cells	-8086
▁discl	-8087
▁eleph	-8088
▁flock	-8089
▁gorge	-8090
▁kings	-8091
▁piece	-8092
▁psalm	-8093
▁risks	-8094
▁tools	-8095
amental	-8096
eration	-8097
▁Credit	-8098
▁Gehlot	-8099
▁George	-8100
▁Malays	-8101
▁Robert	-8102
▁Suhana	-8103
▁Taluka	-8104
▁assemb	-8105
▁bought	-8106
▁bowler	-8107
▁calend	-8108
▁closed	-8109
▁courts	-8110
▁earned	-8111
▁explan	-8112
▁guests	-8113
▁legend	-8114
▁planet	-8115
▁powers	-8116
▁rivers	-8117
▁strive	-8118
▁viewed	-8119
hibition	-8120
▁Efforts	-8121
▁Johnson	-8122
▁Kaushal	-8123
▁Taapsee	-8124
▁Working	-8125
▁affects	-8126
▁applied	-8127
▁council	-8128
▁culprit	-8129
▁desires	-8130
▁discrim	-8131
▁earthly	-8132
▁manager	-8133
▁offices	-8134
▁outcome	-8135
▁package	-8136
▁seventh	-8137
▁stomach	-8138
▁tremend	-8139
▁windows	-8140
▁Dharmend	-8141
▁Japanese	-8142
▁Settings	-8143
▁approves	-8144
▁martyred	-8145
▁prospect	-8146
▁shouldnt	-8147
▁struggle	-8148
▁stunning	-8149
▁activists	-8150
▁affection	-8151
▁believers	-8152
▁concluded	-8153
▁filmmaker	-8154
▁involving	-8155
▁labourers	-8156
▁practices	-8157
▁reference	-8158
▁returning	-8159
▁teaspoons	-8160
▁triggered	-8161
▁Additional	-8162
▁Candidates	-8163
▁retirement	-8164
▁certificate	-8165
▁encouraging	-8166
▁inaugurated	-8167
▁proceedings	-8168
▁requirement	-8169
▁Nevertheless	-8170
▁consequences	-8171
▁consideration	-8172
35	-8173
IV	-8174
abi	-8175
axy	-8176
box	-8177
cue	-8178
eav	-8179
oes	-8180
zes	-8181
▁34	-8182
▁43	-8183
▁56	-8184
addy	-8185
ales	-8186
aran	-8187
atra	-8188
baaz	-8189
bage	-8190
cers	-8191
door	-8192
itis	-8193
keep	-8194
ocon	-8195
odaf	-8196
olen	-8197
pati	-8198
ulls	-8199
wing	-8200
▁120	-8201
▁125	-8202
▁800	-8203
▁Ann	-8204
▁BSF	-8205
▁Bum	-8206
▁Deb	-8207
▁Ent	-8208
▁Jun	-8209
▁Ked	-8210
▁Kot	-8211
▁Lax	-8212
▁Ren	-8213
▁Saw	-8214
▁Suz	-8215
▁duo	-8216
▁fur	-8217
▁pac	-8218
▁rid	-8219
▁unb	-8220
acing	-8221
elect	-8222
ience	-8223
iques	-8224
lipse	-8225
orthy	-8226
ounds	-8227
rahim	-8228
rates	-8229
uting	-8230
▁2000	-8231
▁2015	-8232
▁Anup	-8233
▁Code	-8234
▁Date	-8235
▁Emer	-8236
▁Khar	-8237
▁Long	-8238
▁Narm	-8239
▁Next	-8240
▁Phar	-8241
▁Phot	-8242
▁Phys	-8243
▁Prof	-8244
▁Puri	-8245
▁Real	-8246
▁Shuk	-8247
▁True	-8248
▁bomb	-8249
▁chat	-8250
▁clin	-8251
▁cups	-8252
▁dirt	-8253
▁dish	-8254
▁keen	-8255
▁pool	-8256
▁rare	-8257
▁sand	-8258
▁ship	-8259
Americ	-8260
acific	-8261
dragon	-8262
ferent	-8263
minist	-8264
remiah	-8265
terday	-8266
uished	-8267
▁Judah	-8268
▁Judge	-8269
▁Match	-8270
▁Peace	-8271
▁Steel	-8272
▁Sugar	-8273
▁Unity	-8274
▁Verma	-8275
▁Vidya	-8276
▁Vodaf	-8277
▁Willi	-8278
▁arise	-8279
▁assum	-8280
▁badly	-8281
▁burnt	-8282
▁catch	-8283
▁dough	-8284
▁escal	-8285
▁falls	-8286
▁newly	-8287
▁skill	-8288
▁slams	-8289
▁smile	-8290
▁solar	-8291
▁tower	-8292
▁veter	-8293
hailand	-8294
itating	-8295
ologies	-8296
ourable	-8297
▁Bhopal	-8298
▁Haasan	-8299
▁Mantri	-8300
▁Policy	-8301
▁Rescue	-8302
▁Samuel	-8303
▁Spirit	-8304
▁Travel	-8305
▁adults	-8306
▁excess	-8307
▁fiscal	-8308
▁nephew	-8309
▁phases	-8310
▁unable	-8311
▁unhapp	-8312
expected	-8313
▁Agarwal	-8314
▁Ibrahim	-8315
▁Limited	-8316
▁Michael	-8317
▁Radhika	-8318
▁Wedding	-8319
▁Welfare	-8320
▁YouTube	-8321
▁besides	-8322
▁caution	-8323
▁channel	-8324
▁decline	-8325
▁element	-8326
▁engines	-8327
▁exchang	-8328
▁flowers	-8329
▁forgive	-8330
▁strikes	-8331
▁temples	-8332
idespread	-8333
itionally	-8334
▁Jeremiah	-8335
▁Maintain	-8336
▁Vodafone	-8337
▁behavior	-8338
▁bringing	-8339
▁calendar	-8340
▁contrast	-8341
▁cordoned	-8342
▁explains	-8343
▁globally	-8344
▁heritage	-8345
▁improves	-8346
▁northern	-8347
▁possibly	-8348
▁reaching	-8349
▁romantic	-8350
▁schedule	-8351
▁shepherd	-8352
▁stranded	-8353
▁supports	-8354
▁weakness	-8355
▁Allahabad	-8356
▁abandoned	-8357
▁conscious	-8358
▁diversity	-8359
▁fishermen	-8360
▁gratitude	-8361
▁locations	-8362
▁processor	-8363
▁promoting	-8364
▁teachings	-8365
▁workplace	-8366
▁Conference	-8367
▁Dharmendra	-8368
▁Snapdragon	-8369
▁completion	-8370
▁continuing	-8371
▁delegation	-8372
▁directions	-8373
▁popularity	-8374
▁previously	-8375
▁remembered	-8376
▁worshipped	-8377
▁competitive	-8378
▁constituted	-8379
▁contributed	-8380
▁distributed	-8381
▁questioning	-8382
▁represented	-8383
▁smartphones	-8384
▁achievements	-8385
▁applications	-8386
▁compensation	-8387
▁constitution	-8388
▁satisfaction	-8389
11	-8390
TE	-8391
ux	-8392
-16	-8393
CTC	-8394
ING	-8395
ava	-8396
edy	-8397
fan	-8398
ige	-8399
lal	-8400
rey	-8401
rie	-8402
una	-8403
▁39	-8404
▁67	-8405
▁CB	-8406
▁CS	-8407
▁Ce	-8408
▁Ed	-8409
▁Oh	-8410
▁SO	-8411
,500	-8412
aste	-8413
gaon	-8414
gedy	-8415
heet	-8416
ifty	-8417
kart	-8418
oget	-8419
oked	-8420
ston	-8421
▁128	-8422
▁16,	-8423
▁23.	-8424
▁Alp	-8425
▁Din	-8426
▁Gor	-8427
▁Kim	-8428
▁Mac	-8429
▁Mat	-8430
▁Miz	-8431
▁jew	-8432
▁pal	-8433
▁tab	-8434
▁ven	-8435
adhya	-8436
apped	-8437
arden	-8438
ework	-8439
ighty	-8440
ilesh	-8441
ocate	-8442
ornia	-8443
orter	-8444
unate	-8445
urved	-8446
▁Conf	-8447
▁Dang	-8448
▁Dise	-8449
▁Fact	-8450
▁Flip	-8451
▁Jaya	-8452
▁ODIs	-8453
▁Oper	-8454
▁Raut	-8455
▁Resp	-8456
▁Sect	-8457
▁Vall	-8458
▁acid	-8459
▁cred	-8460
▁eggs	-8461
▁herd	-8462
▁lapt	-8463
▁race	-8464
▁stro	-8465
▁upto	-8466
▁vast	-8467
arding	-8468
assium	-8469
aswamy	-8470
charge	-8471
ership	-8472
hankar	-8473
iation	-8474
icians	-8475
liness	-8476
▁AIIMS	-8477
▁Azhar	-8478
▁Kutch	-8479
▁Redmi	-8480
▁Right	-8481
▁Sahib	-8482
▁Youre	-8483
▁Youth	-8484
▁armed	-8485
▁bread	-8486
▁doors	-8487
▁effic	-8488
▁incor	-8489
▁ratio	-8490
▁sorry	-8491
▁spect	-8492
▁stove	-8493
▁taxes	-8494
▁union	-8495
hearted	-8496
iveness	-8497
osition	-8498
▁Anurag	-8499
▁Ashwin	-8500
▁Energy	-8501
▁Engine	-8502
▁Having	-8503
▁Maruti	-8504
▁Prices	-8505
▁Sensex	-8506
▁Sharad	-8507
▁Shukla	-8508
▁Smriti	-8509
▁Suzuki	-8510
▁Yuvraj	-8511
▁adjust	-8512
▁assess	-8513
▁beaten	-8514
▁breaks	-8515
▁breast	-8516
▁conver	-8517
▁corona	-8518
▁curren	-8519
▁dating	-8520
▁distan	-8521
▁hosted	-8522
▁rating	-8523
▁remake	-8524
▁stones	-8525
▁struck	-8526
▁subsid	-8527
▁vacant	-8528
▁Address	-8529
▁Details	-8530
▁Indones	-8531
▁Narmada	-8532
▁Officer	-8533
▁Premier	-8534
▁Process	-8535
▁Siddiqu	-8536
▁Support	-8537
▁Vardhan	-8538
▁anxiety	-8539
▁escaped	-8540
▁helicop	-8541
▁priests	-8542
▁putting	-8543
▁reacted	-8544
▁resigns	-8545
▁reveals	-8546
▁selling	-8547
▁smoking	-8548
▁suspect	-8549
▁weapons	-8550
▁whereas	-8551
▁wounded	-8552
abilities	-8553
▁Administ	-8554
▁Festival	-8555
▁Malaysia	-8556
▁Mehbooba	-8557
▁Nagaland	-8558
▁attempts	-8559
▁consumer	-8560
▁disputes	-8561
▁hardship	-8562
▁regional	-8563
▁sentence	-8564
▁siblings	-8565
▁tomorrow	-8566
ifications	-8567
▁Agreement	-8568
▁Hollywood	-8569
▁Technical	-8570
▁abrogated	-8571
▁awareness	-8572
▁collapsed	-8573
▁materials	-8574
▁salvation	-8575
▁suggested	-8576
▁superstar	-8577
▁Australian	-8578
▁Democratic	-8579
▁accidental	-8580
▁attendance	-8581
▁complained	-8582
▁controlled	-8583
▁infections	-8584
▁innovation	-8585
▁laundering	-8586
▁maintained	-8587
▁occupation	-8588
▁punishment	-8589
▁reasonable	-8590
▁Fortunately	-8591
▁departments	-8592
▁differences	-8593
▁maintenance	-8594
▁suggestions	-8595
▁Independence	-8596
▁independence	-8597
▁participants	-8598
▁performances	-8599
▁entertainment	-8600
▁participation	-8601
▁representatives	-8602
DS	-8603
Fi	-8604
If	-8605
My	-8606
UR	-8607
bu	-8608
kg	-8609
ki	-8610
ye	-8611
▁#	-8612
100	-8613
acu	-8614
dev	-8615
etu	-8616
haw	-8617
haz	-8618
hua	-8619
isc	-8620
oom	-8621
rot	-8622
sem	-8623
▁47	-8624
▁PV	-8625
▁mo	-8626
aidu	-8627
aked	-8628
beat	-8629
ctic	-8630
hand	-8631
mium	-8632
okes	-8633
ords	-8634
rell	-8635
ucle	-8636
utan	-8637
▁14:	-8638
▁700	-8639
▁Abb	-8640
▁Boy	-8641
▁Cre	-8642
▁Dar	-8643
▁Ext	-8644
▁Gas	-8645
▁Ham	-8646
▁IAF	-8647
▁Jit	-8648
▁LPG	-8649
▁Lif	-8650
▁Rag	-8651
▁Shw	-8652
▁avo	-8653
▁cli	-8654
▁nar	-8655
▁sli	-8656
▁spr	-8657
▁sty	-8658
auses	-8659
eding	-8660
heast	-8661
india	-8662
otted	-8663
point	-8664
ridor	-8665
ultan	-8666
urned	-8667
using	-8668
▁""""	-8669
▁Bhat	-8670
▁Cath	-8671
▁Dies	-8672
▁Kong	-8673
▁Lake	-8674
▁Land	-8675
▁Mart	-8676
▁Mill	-8677
▁Muft	-8678
▁Peel	-8679
▁Pers	-8680
▁Rash	-8681
▁Rich	-8682
▁Rome	-8683
▁Sund	-8684
▁Sure	-8685
▁Tele	-8686
▁Viol	-8687
▁batt	-8688
▁beds	-8689
▁cake	-8690
▁club	-8691
▁dogs	-8692
▁ease	-8693
▁exit	-8694
▁hung	-8695
▁nine	-8696
▁pron	-8697
▁spin	-8698
▁succ	-8699
▁wasn	-8700
▁west	-8701
▁wine	-8702
advant	-8703
itizen	-8704
rative	-8705
screen	-8706
▁2019:	-8707
▁Babyl	-8708
▁Calif	-8709
▁Dutta	-8710
▁Ephes	-8711
▁Ganga	-8712
▁Heart	-8713
▁Honey	-8714
▁Malik	-8715
▁Naidu	-8716
▁Swach	-8717
▁antib	-8718
▁cumin	-8719
▁enemy	-8720
▁feels	-8721
▁fired	-8722
▁foret	-8723
▁frust	-8724
▁globe	-8725
▁guard	-8726
▁heads	-8727
▁horse	-8728
▁liked	-8729
▁needy	-8730
▁optim	-8731
▁param	-8732
▁poses	-8733
▁postp	-8734
▁sales	-8735
▁sauce	-8736
▁tasks	-8737
▁thick	-8738
▁tired	-8739
edience	-8740
ighters	-8741
ogether	-8742
ovember	-8743
pective	-8744
▁50,000	-8745
▁Airtel	-8746
▁Arbaaz	-8747
▁Bhavan	-8748
▁Excell	-8749
▁Grover	-8750
▁Images	-8751
▁Joshua	-8752
▁Leader	-8753
▁Mobile	-8754
▁Motors	-8755
▁Nagpur	-8756
▁Prepar	-8757
▁Prince	-8758
▁Princi	-8759
▁Proper	-8760
▁Rakesh	-8761
▁Royals	-8762
▁Safety	-8763
▁Scheme	-8764
▁Search	-8765
▁Silver	-8766
▁Things	-8767
▁Though	-8768
▁artist	-8769
▁attrib	-8770
▁baking	-8771
▁behavi	-8772
▁devast	-8773
▁endeav	-8774
▁enthus	-8775
▁freely	-8776
▁injust	-8777
▁lesson	-8778
▁listed	-8779
▁locked	-8780
▁master	-8781
▁mechan	-8782
▁prayed	-8783
▁repair	-8784
▁reveal	-8785
▁server	-8786
▁stages	-8787
▁strang	-8788
▁tennis	-8789
▁walked	-8790
▁Acharya	-8791
▁African	-8792
▁Jayanti	-8793
▁Program	-8794
▁avoided	-8795
▁belongs	-8796
▁circuit	-8797
▁cooking	-8798
▁critics	-8799
▁deliber	-8800
▁divorce	-8801
▁enquiry	-8802
▁kilomet	-8803
▁manhunt	-8804
▁passion	-8805
▁settled	-8806
▁slammed	-8807
▁sparked	-8808
▁species	-8809
▁stadium	-8810
▁tragedy	-8811
▁turning	-8812
▁unhappy	-8813
▁Building	-8814
▁Flipkart	-8815
▁Hinduism	-8816
▁Siddiqui	-8817
▁Teachers	-8818
▁Thailand	-8819
▁advanced	-8820
▁contract	-8821
▁disperse	-8822
▁distress	-8823
▁equipped	-8824
▁familiar	-8825
▁premises	-8826
▁psalmist	-8827
▁reducing	-8828
▁relevant	-8829
▁software	-8830
▁southern	-8831
▁transfer	-8832
identified	-8833
▁actresses	-8834
▁collected	-8835
▁collision	-8836
▁convicted	-8837
▁existence	-8838
▁festivals	-8839
▁framework	-8840
▁generally	-8841
▁mandatory	-8842
▁motivated	-8843
▁objective	-8844
▁recognize	-8845
▁simultane	-8846
▁structure	-8847
▁yesterday	-8848
▁California	-8849
▁Foundation	-8850
▁colleagues	-8851
▁experiment	-8852
▁harassment	-8853
▁protestors	-8854
▁respective	-8855
▁techniques	-8856
▁communities	-8857
▁investigate	-8858
▁involvement	-8859
▁persecution	-8860
▁organisation	-8861
▁publications	-8862
▁registration	-8863
▁Unfortunately	-8864
▁collaboration	-8865
▁strengthening	-8866
24	-8867
68	-8868
Go	-8869
MR	-8870
NB	-8871
dd	-8872
ua	-8873
▁|	-8874
Moh	-8875
bal	-8876
che	-8877
cts	-8878
kha	-8879
odi	-8880
oil	-8881
pet	-8882
roc	-8883
rom	-8884
urd	-8885
vir	-8886
▁2-	-8887
▁Da	-8888
▁Lo	-8889
▁UT	-8890
▁Wi	-8891
▁XI	-8892
▁mm	-8893
ador	-8894
arti	-8895
cket	-8896
erts	-8897
hent	-8898
iban	-8899
lets	-8900
lymp	-8901
otic	-8902
rana	-8903
rors	-8904
uman	-8905
▁18,	-8906
▁Abu	-8907
▁Bul	-8908
▁Cop	-8909
▁Dab	-8910
▁Dri	-8911
▁Gay	-8912
▁NIA	-8913
▁PDP	-8914
▁Ray	-8915
▁Tap	-8916
▁UPA	-8917
▁dim	-8918
▁fab	-8919
▁lev	-8920
▁sav	-8921
▁shr	-8922
▁thy	-8923
China	-8924
aired	-8925
beroi	-8926
esame	-8927
etime	-8928
ockey	-8929
plete	-8930
rance	-8931
rants	-8932
▁Alex	-8933
▁Azad	-8934
▁Bend	-8935
▁Bhai	-8936
▁Cust	-8937
▁Full	-8938
▁Nand	-8939
▁Sang	-8940
▁Type	-8941
▁Vict	-8942
▁bash	-8943
▁mans	-8944
▁phil	-8945
▁pour	-8946
▁publ	-8947
▁ritu	-8948
▁sequ	-8949
▁sung	-8950
▁tent	-8951
▁thou	-8952
▁tied	-8953
akumar	-8954
asters	-8955
father	-8956
iments	-8957
ounced	-8958
ulance	-8959
▁2020.	-8960
▁Balak	-8961
▁Chaud	-8962
▁IRCTC	-8963
▁Joint	-8964
▁Learn	-8965
▁Legal	-8966
▁Lemon	-8967
▁Lucky	-8968
▁Maybe	-8969
▁Olymp	-8970
▁Rawat	-8971
▁Short	-8972
▁Sidhu	-8973
▁Space	-8974
▁Youll	-8975
▁abuse	-8976
▁advis	-8977
▁aspir	-8978
▁brick	-8979
▁douse	-8980
▁exams	-8981
▁gifts	-8982
▁hiked	-8983
▁incom	-8984
▁olive	-8985
▁overn	-8986
▁phosp	-8987
▁posed	-8988
▁ruler	-8989
▁sharp	-8990
▁teeth	-8991
▁tense	-8992
artered	-8993
ception	-8994
idering	-8995
related	-8996
rounder	-8997
▁Bumrah	-8998
▁Bureau	-8999
▁Causes	-9000
▁Ginger	-9001
▁Mandir	-9002
▁Oberoi	-9003
▁Paresh	-9004
▁Region	-9005
▁Warner	-9006
▁Womens	-9007
▁angels	-9008
▁compar	-9009
▁fallen	-9010
▁labour	-9011
▁litres	-9012
▁museum	-9013
▁repeat	-9014
▁tackle	-9015
▁triple	-9016
ashtriya	-9017
ferences	-9018
izations	-9019
radition	-9020
rigation	-9021
ulations	-9022
▁Contact	-9023
▁Mizoram	-9024
▁Similar	-9025
▁eclipse	-9026
▁enhance	-9027
▁feeding	-9028
▁guarant	-9029
▁holiday	-9030
▁illegal	-9031
▁mustard	-9032
▁outrage	-9033
▁predict	-9034
▁probing	-9035
▁procure	-9036
▁realise	-9037
▁shelter	-9038
▁toilets	-9039
▁touched	-9040
▁trapped	-9041
▁violent	-9042
▁Aaradhya	-9043
▁Akhilesh	-9044
▁Brothers	-9045
▁Filmfare	-9046
▁Interest	-9047
▁Jamnagar	-9048
▁conflict	-9049
▁disciple	-9050
▁everyday	-9051
▁expanded	-9052
▁husbands	-9053
▁potatoes	-9054
▁proclaim	-9055
▁punished	-9056
▁sanction	-9057
▁shocking	-9058
▁shortage	-9059
▁Ayushmann	-9060
▁Indonesia	-9061
▁Presently	-9062
▁Siddharth	-9063
▁acknowled	-9064
▁chocolate	-9065
▁convinced	-9066
▁disadvant	-9067
▁elaborate	-9068
▁everyones	-9069
▁generated	-9070
▁lifestyle	-9071
▁overnight	-9072
▁positions	-9073
▁potassium	-9074
▁publisher	-9075
▁reduction	-9076
▁temporary	-9077
▁withdrawn	-9078
▁Eventually	-9079
▁Everything	-9080
▁Jaishankar	-9081
▁abrogation	-9082
▁accomplish	-9083
▁applicable	-9084
▁businesses	-9085
▁categories	-9086
▁countrymen	-9087
▁difficulty	-9088
▁distancing	-9089
▁historical	-9090
▁monitoring	-9091
▁neighbours	-9092
▁performing	-9093
▁supporters	-9094
▁widespread	-9095
▁witnessing	-9096
▁yourselves	-9097
▁appointment	-9098
▁destination	-9099
▁destruction	-9100
▁explanation	-9101
▁expressions	-9102
▁interaction	-9103
▁photographs	-9104
▁sustainable	-9105
▁Additionally	-9106
▁Relationship	-9107
▁imprisonment	-9108
▁transactions	-9109
▁unidentified	-9110
.'	-9111
17	-9112
95	-9113
:-	-9114
CC	-9115
II	-9116
aa	-9117
gi	-9118
400	-9119
iox	-9120
lar	-9121
nda	-9122
osy	-9123
oul	-9124
tra	-9125
ugs	-9126
vis	-9127
zen	-9128
▁'%	-9129
▁69	-9130
▁IM	-9131
▁Jy	-9132
▁MD	-9133
▁OF	-9134
▁ly	-9135
▁pa	-9136
▁ru	-9137
999.	-9138
aman	-9139
anta	-9140
atar	-9141
cked	-9142
cker	-9143
ebru	-9144
ends	-9145
etic	-9146
ford	-9147
hash	-9148
hiya	-9149
noon	-9150
onds	-9151
regn	-9152
sari	-9153
ught	-9154
umps	-9155
wala	-9156
▁108	-9157
▁130	-9158
▁20.	-9159
▁22.	-9160
▁350	-9161
▁Dur	-9162
▁EVM	-9163
▁Hou	-9164
▁IIT	-9165
▁Lat	-9166
▁Low	-9167
▁Maj	-9168
▁Max	-9169
▁Mov	-9170
▁Nad	-9171
▁Non	-9172
▁PMs	-9173
▁Say	-9174
▁Sit	-9175
▁USD	-9176
▁Veh	-9177
▁YOU	-9178
▁gut	-9179
▁hav	-9180
▁hub	-9181
▁jam	-9182
▁lun	-9183
▁tun	-9184
▁umb	-9185
There	-9186
ademy	-9187
essor	-9188
inkle	-9189
level	-9190
liced	-9191
litre	-9192
onent	-9193
produ	-9194
rikar	-9195
uters	-9196
works	-9197
xygen	-9198
▁Chin	-9199
▁Chou	-9200
▁Cost	-9201
▁Ghee	-9202
▁Grow	-9203
▁Lalu	-9204
▁Manj	-9205
▁Prat	-9206
▁Saul	-9207
▁Sikk	-9208
▁Upon	-9209
▁Wild	-9210
▁chop	-9211
▁copy	-9212
▁cute	-9213
▁earm	-9214
▁flee	-9215
▁gods	-9216
▁idol	-9217
▁lady	-9218
▁mood	-9219
▁nerv	-9220
▁onto	-9221
▁ride	-9222
▁robb	-9223
▁virt	-9224
▁wing	-9225
ailing	-9226
ampion	-9227
edient	-9228
erving	-9229
uclear	-9230
▁Banks	-9231
▁Chris	-9232
▁Crime	-9233
▁Doing	-9234
▁Faith	-9235
▁Large	-9236
▁Leave	-9237
▁Mexic	-9238
▁Mirza	-9239
▁Mufti	-9240
▁Nifty	-9241
▁Noida	-9242
▁Onion	-9243
▁Rinse	-9244
▁Steve	-9245
▁Story	-9246
▁Swami	-9247
▁Veter	-9248
▁abdom	-9249
▁bikes	-9250
▁blind	-9251
▁booth	-9252
▁breat	-9253
▁cabin	-9254
▁cured	-9255
▁evacu	-9256
▁guide	-9257
▁ideal	-9258
▁innoc	-9259
▁kills	-9260
▁moral	-9261
▁reign	-9262
▁seeks	-9263
▁shirt	-9264
▁sites	-9265
▁split	-9266
ebruary	-9267
hensive	-9268
ruption	-9269
▁Active	-9270
▁Alpesh	-9271
▁Always	-9272
▁Ananya	-9273
▁Colour	-9274
▁Indore	-9275
▁Jewish	-9276
▁Legisl	-9277
▁Modern	-9278
▁Remove	-9279
▁Shweta	-9280
▁Sultan	-9281
▁Terror	-9282
▁Thanks	-9283
▁Theyre	-9284
▁comedy	-9285
▁commod	-9286
▁crimes	-9287
▁factor	-9288
▁folder	-9289
▁infant	-9290
▁laptop	-9291
▁larger	-9292
▁mature	-9293
▁medals	-9294
▁neglig	-9295
▁negoti	-9296
▁resent	-9297
▁retain	-9298
▁sesame	-9299
▁sinful	-9300
▁stolen	-9301
▁struct	-9302
▁superv	-9303
▁suppos	-9304
▁united	-9305
ammatory	-9306
▁Babylon	-9307
▁Connect	-9308
▁Lakshmi	-9309
▁Manipur	-9310
▁Meeting	-9311
▁Private	-9312
▁Society	-9313
▁Sources	-9314
▁Subhash	-9315
▁Success	-9316
▁Traffic	-9317
▁analyst	-9318
▁anymore	-9319
▁arrival	-9320
▁awaited	-9321
▁bowling	-9322
▁cutting	-9323
▁drawing	-9324
▁erupted	-9325
▁imports	-9326
▁jointly	-9327
▁lessons	-9328
▁microSD	-9329
▁nervous	-9330
▁outdoor	-9331
▁pleased	-9332
▁reaches	-9333
▁relates	-9334
▁routine	-9335
▁seasons	-9336
▁tourist	-9337
▁umbrell	-9338
▁Bhansali	-9339
▁Khurrana	-9340
▁Northern	-9341
▁Parrikar	-9342
▁Personal	-9343
▁armature	-9344
▁calories	-9345
▁channels	-9346
▁colleges	-9347
▁distinct	-9348
▁gorgeous	-9349
▁opposing	-9350
▁ordinary	-9351
▁shopping	-9352
▁supplies	-9353
▁swearing	-9354
▁terminal	-9355
▁Insurance	-9356
▁Kedarnath	-9357
▁Principal	-9358
▁Rashtriya	-9359
▁automatic	-9360
▁behaviour	-9361
▁benefited	-9362
▁consumers	-9363
▁corporate	-9364
▁digestion	-9365
▁directors	-9366
▁disrupted	-9367
▁earmarked	-9368
▁impressed	-9369
▁initially	-9370
▁nominated	-9371
▁occasions	-9372
▁presently	-9373
▁recording	-9374
▁secondary	-9375
▁sentenced	-9376
▁succeeded	-9377
▁girlfriend	-9378
▁inaugurate	-9379
▁recognized	-9380
▁surrounded	-9381
▁tremendous	-9382
▁undertaken	-9383
▁Application	-9384
▁Cooperation	-9385
▁extradition	-9386
▁legislators	-9387
▁outstanding	-9388
▁availability	-9389
▁congratulate	-9390
▁hospitalised	-9391
▁intervention	-9392
▁spirituality	-9393
▁temperatures	-9394
▁Relationships	-9395
CH	-9396
MB	-9397
SA	-9398
St	-9399
VP	-9400
And	-9401
NCR	-9402
aze	-9403
esy	-9404
hiv	-9405
ipe	-9406
lad	-9407
mat	-9408
nag	-9409
nan	-9410
nao	-9411
nic	-9412
ocu	-9413
ola	-9414
org	-9415
uet	-9416
ums	-9417
ups	-9418
zek	-9419
▁AT	-9420
▁Es	-9421
▁MT	-9422
▁Ok	-9423
▁ST	-9424
▁Um	-9425
Cong	-9426
fire	-9427
inda	-9428
inth	-9429
long	-9430
olic	-9431
olit	-9432
omed	-9433
outs	-9434
test	-9435
west	-9436
▁17,	-9437
▁180	-9438
▁19,	-9439
▁24:	-9440
▁Aay	-9441
▁Bho	-9442
▁Dip	-9443
▁Hem	-9444
▁Ide	-9445
▁Jav	-9446
▁Muz	-9447
▁PTI	-9448
▁Saj	-9449
▁ail	-9450
▁eth	-9451
▁fed	-9452
▁hun	-9453
▁pip	-9454
▁rot	-9455
▁rub	-9456
▁twe	-9457
acked	-9458
allel	-9459
askar	-9460
avati	-9461
guard	-9462
isive	-9463
oving	-9464
power	-9465
storm	-9466
▁Agra	-9467
▁Axis	-9468
▁Fate	-9469
▁Fern	-9470
▁Gurd	-9471
▁Guru	-9472
▁Iraq	-9473
▁Mira	-9474
▁Pain	-9475
▁Poon	-9476
▁Trad	-9477
▁Umar	-9478
▁arch	-9479
▁bron	-9480
▁diss	-9481
▁epis	-9482
▁hour	-9483
▁load	-9484
▁lung	-9485
▁mate	-9486
▁mour	-9487
▁reap	-9488
▁rent	-9489
▁tear	-9490
▁tong	-9491
▁unne	-9492
▁upro	-9493
▁vine	-9494
▁wire	-9495
ademic	-9496
ellion	-9497
makers	-9498
oconut	-9499
ourses	-9500
▁Abdul	-9501
▁Ident	-9502
▁Impro	-9503
▁Micro	-9504
▁Paris	-9505
▁Roman	-9506
▁Sanon	-9507
▁Spain	-9508
▁Spend	-9509
▁Truth	-9510
▁bunch	-9511
▁chest	-9512
▁cycle	-9513
▁evalu	-9514
▁fault	-9515
▁fined	-9516
▁input	-9517
▁owned	-9518
▁paddy	-9519
▁pharm	-9520
▁pione	-9521
▁print	-9522
▁remed	-9523
▁secre	-9524
▁swung	-9525
▁towel	-9526
▁wrest	-9527
autions	-9528
▁Cancer	-9529
▁Cheese	-9530
▁Courts	-9531
▁Galaxy	-9532
▁Golden	-9533
▁Mexico	-9534
▁Prabhu	-9535
▁Relief	-9536
▁Secret	-9537
▁Sonali	-9538
▁Trinam	-9539
▁affair	-9540
▁agenda	-9541
▁bullet	-9542
▁burden	-9543
▁childs	-9544
▁cinema	-9545
▁defend	-9546
▁engage	-9547
▁expert	-9548
▁fertil	-9549
▁grassy	-9550
▁height	-9551
▁helmed	-9552
▁hungry	-9553
▁landsl	-9554
▁lovely	-9555
▁marvel	-9556
▁namely	-9557
▁repent	-9558
▁serves	-9559
▁surely	-9560
▁surviv	-9561
▁tribal	-9562
▁weighs	-9563
▁Against	-9564
▁Balakot	-9565
▁Coconut	-9566
▁Command	-9567
▁Eastern	-9568
▁Houston	-9569
▁Islamic	-9570
▁Pacific	-9571
▁Shikhar	-9572
▁Vallabh	-9573
▁authent	-9574
▁cheaper	-9575
▁choices	-9576
▁condemn	-9577
▁conspir	-9578
▁curtain	-9579
▁falling	-9580
▁fathers	-9581
▁flooded	-9582
▁harmful	-9583
▁heavens	-9584
▁holders	-9585
▁intense	-9586
▁interim	-9587
▁persist	-9588
▁replied	-9589
▁rumours	-9590
▁selfies	-9591
▁sending	-9592
▁targets	-9593
▁wrongdo	-9594
▁Commerce	-9595
▁Tensions	-9596
▁Whatever	-9597
▁although	-9598
▁applying	-9599
▁arranged	-9600
▁currency	-9601
▁describe	-9602
▁friendly	-9603
▁goodness	-9604
▁graduate	-9605
▁humility	-9606
▁hundreds	-9607
▁indicate	-9608
▁momentum	-9609
▁paradise	-9610
▁phosphor	-9611
▁purchase	-9612
▁receives	-9613
▁restored	-9614
▁slightly	-9615
▁stressed	-9616
▁targeted	-9617
▁valuable	-9618
▁Different	-9619
▁Emergency	-9620
▁Something	-9621
▁champions	-9622
▁commanded	-9623
▁cooperate	-9624
▁executive	-9625
▁groundnut	-9626
▁indicates	-9627
▁municipal	-9628
▁neighbour	-9629
▁newspaper	-9630
▁platforms	-9631
▁promotion	-9632
▁suspected	-9633
▁Nawazuddin	-9634
▁discovered	-9635
▁meditation	-9636
▁recognised	-9637
▁traditions	-9638
▁Directorate	-9639
▁businessman	-9640
▁considering	-9641
▁ministerial	-9642
▁Preparations	-9643
▁illustration	-9644
▁Parliamentary	-9645
▁discrimination	-9646
14	-9647
27	-9648
29	-9649
65	-9650
80	-9651
As	-9652
IG	-9653
LD	-9654
MA	-9655
No	-9656
OT	-9657
UT	-9658
ky	-9659
ym	-9660
yr	-9661
aga	-9662
agg	-9663
asy	-9664
eev	-9665
gam	-9666
lor	-9667
▁6-	-9668
▁61	-9669
▁73	-9670
▁9:	-9671
▁Ca	-9672
▁ON	-9673
▁SD	-9674
-19.	-9675
agra	-9676
anki	-9677
anut	-9678
asha	-9679
berg	-9680
esha	-9681
ethi	-9682
felt	-9683
hist	-9684
ibal	-9685
igen	-9686
just	-9687
okia	-9688
onda	-9689
oped	-9690
osys	-9691
plex	-9692
quer	-9693
rier	-9694
roat	-9695
udra	-9696
ulam	-9697
▁1-0	-9698
▁22,	-9699
▁25.	-9700
▁Ari	-9701
▁Bid	-9702
▁Das	-9703
▁Dos	-9704
▁Kaz	-9705
▁Mis	-9706
▁Mun	-9707
▁NEW	-9708
▁Nan	-9709
▁Pil	-9710
▁Ric	-9711
▁Ron	-9712
▁Sky	-9713
▁Tre	-9714
▁Vas	-9715
▁Web	-9716
▁alt	-9717
▁ath	-9718
▁cub	-9719
▁dad	-9720
▁dut	-9721
▁gro	-9722
▁guy	-9723
▁hal	-9724
▁hes	-9725
▁mel	-9726
▁nav	-9727
▁pic	-9728
▁sir	-9729
▁vul	-9730
alyan	-9731
chand	-9732
field	-9733
henom	-9734
hered	-9735
oints	-9736
osity	-9737
osure	-9738
state	-9739
stery	-9740
ullah	-9741
water	-9742
▁2013	-9743
▁Bhuv	-9744
▁Cast	-9745
▁Cond	-9746
▁Devi	-9747
▁Hina	-9748
▁Kaur	-9749
▁Koch	-9750
▁Maha	-9751
▁Mult	-9752
▁Naik	-9753
▁Pink	-9754
▁Same	-9755
▁Sign	-9756
▁adds	-9757
▁bask	-9758
▁boil	-9759
▁clip	-9760
▁cope	-9761
▁fake	-9762
▁fray	-9763
▁gang	-9764
▁gate	-9765
▁grey	-9766
▁hall	-9767
▁hell	-9768
▁loud	-9769
▁myth	-9770
▁nurs	-9771
▁pill	-9772
▁sang	-9773
▁seed	-9774
▁summ	-9775
▁wave	-9776
acular	-9777
aditya	-9778
ansion	-9779
arming	-9780
cellor	-9781
encing	-9782
finals	-9783
illing	-9784
lessly	-9785
linder	-9786
minton	-9787
script	-9788
▁1,000	-9789
▁Abbas	-9790
▁Bhand	-9791
▁Films	-9792
▁Javed	-9793
▁Kapur	-9794
▁Kunal	-9795
▁Leone	-9796
▁Medic	-9797
▁Neetu	-9798
▁Ocean	-9799
▁Penal	-9800
▁Place	-9801
▁Pregn	-9802
▁Prior	-9803
▁Rahim	-9804
▁Raman	-9805
▁Ratna	-9806
▁Rawal	-9807
▁Sibal	-9808
▁Third	-9809
▁Unnao	-9810
▁Using	-9811
▁brill	-9812
▁cheap	-9813
▁cough	-9814
▁defic	-9815
▁felic	-9816
▁funny	-9817
▁incon	-9818
▁inher	-9819
▁joins	-9820
▁links	-9821
▁lunch	-9822
▁minds	-9823
▁prest	-9824
▁recon	-9825
▁sight	-9826
▁smoke	-9827
▁stret	-9828
▁swing	-9829
▁tempt	-9830
▁zones	-9831
amation	-9832
fection	-9833
ghalaya	-9834
ucumber	-9835
▁Amethi	-9836
▁Bethel	-9837
▁Bhagat	-9838
▁Chahal	-9839
▁Church	-9840
▁Madras	-9841
▁Making	-9842
▁Museum	-9843
▁Online	-9844
▁Patani	-9845
▁Source	-9846
▁Strict	-9847
▁Turkey	-9848
▁Valley	-9849
▁bottle	-9850
▁bottom	-9851
▁bronze	-9852
▁clouds	-9853
▁cloudy	-9854
▁decade	-9855
▁duties	-9856
▁endure	-9857
▁equity	-9858
▁estate	-9859
▁exempt	-9860
▁filing	-9861
▁formal	-9862
▁heated	-9863
▁insult	-9864
▁jewell	-9865
▁modest	-9866
▁opener	-9867
▁phenom	-9868
▁planes	-9869
▁posing	-9870
▁prompt	-9871
▁recipe	-9872
▁resort	-9873
▁routes	-9874
▁runway	-9875
▁sorrow	-9876
▁stream	-9877
▁truths	-9878
▁womans	-9879
▁Digital	-9880
▁Husband	-9881
▁Infosys	-9882
▁Melania	-9883
▁Messiah	-9884
▁Mustard	-9885
▁Network	-9886
▁Popular	-9887
▁Veteran	-9888
▁Weather	-9889
▁Witness	-9890
▁anxious	-9891
▁auction	-9892
▁beliefs	-9893
▁borders	-9894
▁capable	-9895
▁citizen	-9896
▁coaches	-9897
▁cyclone	-9898
▁declare	-9899
▁delayed	-9900
▁diamond	-9901
▁disting	-9902
▁drivers	-9903
▁empower	-9904
▁equally	-9905
▁gaining	-9906
▁lecture	-9907
▁relaxed	-9908
▁reviews	-9909
▁richest	-9910
▁secular	-9911
▁staying	-9912
▁survive	-9913
▁therapy	-9914
▁updates	-9915
▁variant	-9916
▁winding	-9917
etisation	-9918
▁Almighty	-9919
▁Birthday	-9920
▁February	-9921
▁Increase	-9922
▁allotted	-9923
▁assigned	-9924
▁charging	-9925
▁clothing	-9926
▁combined	-9927
▁comeback	-9928
▁controll	-9929
▁culprits	-9930
▁dealings	-9931
▁designer	-9932
▁discount	-9933
▁disorder	-9934
▁entering	-9935
▁integral	-9936
▁murdered	-9937
▁payments	-9938
▁proteins	-9939
▁province	-9940
▁realized	-9941
▁refugees	-9942
▁retained	-9943
▁scholars	-9944
▁settings	-9945
▁shoulder	-9946
▁sleeping	-9947
▁supposed	-9948
▁Ephesians	-9949
▁Fishermen	-9950
▁Meghalaya	-9951
▁Petroleum	-9952
▁Trinamool	-9953
▁associate	-9954
▁attackers	-9955
▁decorated	-9956
▁injustice	-9957
▁judgement	-9958
▁nutrition	-9959
▁protected	-9960
▁screening	-9961
▁sensitive	-9962
▁separated	-9963
▁telephone	-9964
▁violation	-9965
▁Scientists	-9966
▁concerning	-9967
▁discipline	-9968
▁efficiency	-9969
▁influenced	-9970
▁interacted	-9971
▁journalist	-9972
▁possession	-9973
▁privileges	-9974
▁resentment	-9975
▁sacrifices	-9976
▁Kumaraswamy	-9977
▁circulation	-9978
▁fulfillment	-9979
▁fundamental	-9980
▁precautions	-9981
▁procurement	-9982
▁considerable	-9983
▁interrogation	-9984
▁administrative	-9985
':	-9986
An	-9987
EE	-9988
IF	-9989
OM	-9990
PE	-9991
RD	-9992
uz	-9993
ww	-9994
▁x	-9995
Get	-9996
NCP	-9997
New	-9998
SBI	-9999
acc	-10000
cre	-10001
iaz	-10002
ste	-10003
was	-10004
▁63	-10005
▁72	-10006
▁74	-10007
▁78	-10008
▁BE	-10009
▁Fe	-10010
▁KL	-10011
▁Mi	-10012
▁RE	-10013
▁SA	-10014
▁Va	-10015
Modi	-10016
They	-10017
aint	-10018
amin	-10019
appa	-10020
aput	-10021
ario	-10022
aser	-10023
bing	-10024
burg	-10025
cont	-10026
hell	-10027
jeev	-10028
mail	-10029
ocol	-10030
stan	-10031
uish	-10032
uous	-10033
uram	-10034
want	-10035
with	-10036
▁""%	-10037
▁12,	-10038
▁12-	-10039
▁13,	-10040
▁16-	-10041
▁196	-10042
▁29.	-10043
▁Abh	-10044
▁Bha	-10045
▁Bor	-10046
▁Dra	-10047
▁Ire	-10048
▁Kon	-10049
▁LED	-10050
▁Lik	-10051
▁Log	-10052
▁Lou	-10053
▁Nor	-10054
▁PNB	-10055
▁ice	-10056
▁tag	-10057
Getty	-10058
andal	-10059
asion	-10060
entle	-10061
essed	-10062
gical	-10063
icked	-10064
ierce	-10065
itary	-10066
itled	-10067
organ	-10068
ormal	-10069
oused	-10070
pless	-10071
rible	-10072
ropri	-10073
sters	-10074
urthi	-10075
veill	-10076
▁Bedi	-10077
▁Body	-10078
▁Bran	-10079
▁Dark	-10080
▁Docu	-10081
▁Drug	-10082
▁Foot	-10083
▁Huss	-10084
▁Kund	-10085
▁Line	-10086
▁Math	-10087
▁Mund	-10088
▁Pant	-10089
▁Says	-10090
▁Tips	-10091
▁Vers	-10092
▁Whom	-10093
▁band	-10094
▁cops	-10095
▁curb	-10096
▁glad	-10097
▁grab	-10098
▁hide	-10099
▁labs	-10100
▁pics	-10101
▁plus	-10102
▁sear	-10103
▁shed	-10104
▁vain	-10105
▁vary	-10106
▁vess	-10107
▁visa	-10108
▁wage	-10109
▁wars	-10110
armati	-10111
ibrant	-10112
inance	-10113
lement	-10114
tering	-10115
▁Aaron	-10116
▁Balan	-10117
▁Beaut	-10118
▁Bipin	-10119
▁Bluet	-10120
▁Bobby	-10121
▁Bobde	-10122
▁Close	-10123
▁Enjoy	-10124
▁Forum	-10125
▁Jacob	-10126
▁Jacqu	-10127
▁Model	-10128
▁Muker	-10129
▁Nokia	-10130
▁Obama	-10131
▁Panch	-10132
▁Saint	-10133
▁admit	-10134
▁adult	-10135
▁colon	-10136
▁delay	-10137
▁disob	-10138
▁graph	-10139
▁havoc	-10140
▁index	-10141
▁inund	-10142
▁minus	-10143
▁ocean	-10144
▁rival	-10145
▁showc	-10146
▁tasty	-10147
▁topic	-10148
▁wheel	-10149
ivalent	-10150
oration	-10151
raction	-10152
urities	-10153
zerland	-10154
▁Actors	-10155
▁Asaram	-10156
▁Comput	-10157
▁Create	-10158
▁Diesel	-10159
▁Jackie	-10160
▁Korean	-10161
▁Muzaff	-10162
▁Nature	-10163
▁Rajeev	-10164
▁Season	-10165
▁Sikkim	-10166
▁Swachh	-10167
▁Territ	-10168
▁Trophy	-10169
▁Vishnu	-10170
▁accord	-10171
▁bother	-10172
▁cheese	-10173
▁compre	-10174
▁driven	-10175
▁homage	-10176
▁limits	-10177
▁marked	-10178
▁meters	-10179
▁millet	-10180
▁oldest	-10181
▁partys	-10182
▁poison	-10183
▁satell	-10184
▁sealed	-10185
▁seated	-10186
▁stroke	-10187
▁theyre	-10188
▁trophy	-10189
▁tweets	-10190
▁volume	-10191
▁washed	-10192
▁waters	-10193
▁winner	-10194
employed	-10195
▁Academy	-10196
▁Britain	-10197
▁Chauhan	-10198
▁Clearly	-10199
▁Consult	-10200
▁Hindust	-10201
▁Hussain	-10202
▁Ireland	-10203
▁Manager	-10204
▁Natural	-10205
▁Qualcom	-10206
▁Rashtra	-10207
▁Records	-10208
▁Scindia	-10209
▁Shivraj	-10210
▁Somnath	-10211
▁Taliban	-10212
▁Windows	-10213
▁airline	-10214
▁benches	-10215
▁burning	-10216
▁checked	-10217
▁combine	-10218
▁convict	-10219
▁desired	-10220
▁factory	-10221
▁funding	-10222
▁gearbox	-10223
▁helpful	-10224
▁library	-10225
▁loyalty	-10226
▁nuclear	-10227
▁perched	-10228
▁premium	-10229
▁pulling	-10230
▁quarant	-10231
▁reforms	-10232
▁rejoice	-10233
▁researc	-10234
▁smaller	-10235
▁stunned	-10236
▁succumb	-10237
▁telling	-10238
▁theatre	-10239
▁tickets	-10240
forcement	-10241
veillance	-10242
▁Directed	-10243
▁Kashmiri	-10244
▁Likewise	-10245
▁November	-10246
▁Sciences	-10247
▁Turmeric	-10248
▁Violence	-10249
▁Williams	-10250
▁accurate	-10251
▁airports	-10252
▁analysis	-10253
▁believes	-10254
▁belonged	-10255
▁cheating	-10256
▁contrary	-10257
▁corridor	-10258
▁creative	-10259
▁darkness	-10260
▁external	-10261
▁findings	-10262
▁foretold	-10263
▁frequent	-10264
▁infected	-10265
▁keyboard	-10266
▁networks	-10267
▁obedient	-10268
▁pilgrims	-10269
▁recalled	-10270
▁releases	-10271
▁resource	-10272
▁sessions	-10273
▁swelling	-10274
▁trillion	-10275
▁troubled	-10276
▁vigilant	-10277
▁Bluetooth	-10278
▁Happiness	-10279
▁Kartarpur	-10280
▁Municipal	-10281
▁Represent	-10282
▁Sabarmati	-10283
▁absconded	-10284
▁advertise	-10285
▁afternoon	-10286
▁assistant	-10287
▁brilliant	-10288
▁contested	-10289
▁creatures	-10290
▁determine	-10291
▁heartfelt	-10292
▁inundated	-10293
▁otherwise	-10294
▁producing	-10295
▁purchased	-10296
▁satisfied	-10297
▁somewhere	-10298
▁Investment	-10299
▁Scriptural	-10300
▁Television	-10301
▁allegation	-10302
▁capability	-10303
▁comparison	-10304
▁convenient	-10305
▁democratic	-10306
▁electronic	-10307
▁illustrate	-10308
▁sufficient	-10309
▁Philippines	-10310
▁Switzerland	-10311
▁complicated	-10312
▁functioning	-10313
▁intensified	-10314
▁manufacture	-10315
▁perspective	-10316
▁preparation	-10317
▁recognition	-10318
▁resurrected	-10319
▁territories	-10320
▁transparent	-10321
▁Intelligence	-10322
▁Organisation	-10323
▁competitions	-10324
▁productivity	-10325
▁waterlogging	-10326
▁entrepreneurs	-10327
▁characteristics	-10328
21	-10329
31	-10330
36	-10331
75	-10332
NO	-10333
)."	-10334
800	-10335
See	-10336
aib	-10337
aic	-10338
awa	-10339
bon	-10340
bul	-10341
ino	-10342
olf	-10343
rut	-10344
ugg	-10345
xas	-10346
yas	-10347
ych	-10348
▁53	-10349
▁79	-10350
▁81	-10351
▁95	-10352
▁AM	-10353
▁Iv	-10354
▁TO	-10355
▁Ye	-10356
▁ah	-10357
▁ml	-10358
ELHI	-10359
SEAN	-10360
abri	-10361
adur	-10362
amps	-10363
andi	-10364
anga	-10365
angg	-10366
athi	-10367
athy	-10368
bits	-10369
free	-10370
gree	-10371
held	-10372
ixit	-10373
onia	-10374
orty	-10375
osop	-10376
owed	-10377
puri	-10378
reli	-10379
soft	-10380
umed	-10381
urns	-10382
▁106	-10383
▁14-	-10384
▁15:	-10385
▁16:	-10386
▁17:	-10387
▁24,	-10388
▁24.	-10389
▁Ary	-10390
▁Dry	-10391
▁Hai	-10392
▁Irr	-10393
▁Jas	-10394
▁Joe	-10395
▁Ord	-10396
▁PAN	-10397
▁Pas	-10398
▁Sah	-10399
▁Sai	-10400
▁Viv	-10401
▁Xia	-10402
▁ash	-10403
▁exh	-10404
▁hyp	-10405
▁typ	-10406
▁vom	-10407
alsad	-10408
anmar	-10409
athan	-10410
const	-10411
conut	-10412
eters	-10413
final	-10414
front	-10415
hibit	-10416
inite	-10417
mates	-10418
orses	-10419
quest	-10420
rator	-10421
rooms	-10422
vijay	-10423
▁2016	-10424
▁Anti	-10425
▁Bhup	-10426
▁Cell	-10427
▁Down	-10428
▁Girl	-10429
▁Gosp	-10430
▁Harb	-10431
▁Jyot	-10432
▁Mush	-10433
▁Pack	-10434
▁Rang	-10435
▁Spec	-10436
▁aged	-10437
▁bull	-10438
▁cart	-10439
▁clim	-10440
▁cous	-10441
▁fame	-10442
▁ferv	-10443
▁gall	-10444
▁grim	-10445
▁icon	-10446
▁jack	-10447
▁knee	-10448
▁laud	-10449
▁mail	-10450
▁mine	-10451
▁neut	-10452
▁sake	-10453
▁thee	-10454
ellect	-10455
gments	-10456
idents	-10457
iotics	-10458
preced	-10459
risers	-10460
ronics	-10461
urally	-10462
ushree	-10463
▁ASEAN	-10464
▁Ambed	-10465
▁Anant	-10466
▁Armed	-10467
▁Boney	-10468
▁DELHI	-10469
▁Dixit	-10470
▁Image	-10471
▁Louis	-10472
▁Olive	-10473
▁Putin	-10474
▁Sindh	-10475
▁Sleep	-10476
▁Texas	-10477
▁acres	-10478
▁ambit	-10479
▁angel	-10480
▁conce	-10481
▁coord	-10482
▁dealt	-10483
▁depth	-10484
▁fours	-10485
▁goats	-10486
▁immun	-10487
▁inhab	-10488
▁intim	-10489
▁jawan	-10490
▁liber	-10491
▁merch	-10492
▁moist	-10493
▁pacer	-10494
▁paise	-10495
▁ranks	-10496
▁royal	-10497
▁setup	-10498
▁shell	-10499
▁stuff	-10500
▁surge	-10501
assador	-10502
osystem	-10503
raborty	-10504
▁Access	-10505
▁Branch	-10506
▁Buddha	-10507
▁Butter	-10508
▁Custom	-10509
▁Employ	-10510
▁Govind	-10511
▁Immedi	-10512
▁Integr	-10513
▁Lahore	-10514
▁Lankan	-10515
▁Pandit	-10516
▁Reduce	-10517
▁Sawant	-10518
▁Statue	-10519
▁Transl	-10520
▁Valent	-10521
▁Valsad	-10522
▁Wheres	-10523
▁Within	-10524
▁backed	-10525
▁bigger	-10526
▁boiled	-10527
▁borrow	-10528
▁circle	-10529
▁combat	-10530
▁covers	-10531
▁emerge	-10532
▁finish	-10533
▁format	-10534
▁garden	-10535
▁gutted	-10536
▁hockey	-10537
▁lifted	-10538
▁merger	-10539
▁models	-10540
▁mosque	-10541
▁occurs	-10542
▁outfit	-10543
▁oxygen	-10544
▁pulled	-10545
▁pulses	-10546
▁pursue	-10547
▁raises	-10548
▁regret	-10549
▁reiter	-10550
▁salute	-10551
▁saving	-10552
▁signal	-10553
▁sounds	-10554
▁talent	-10555
▁termed	-10556
▁unfort	-10557
▁ventil	-10558
▁volunt	-10559
Laughter	-10560
iability	-10561
liminary	-10562
ographer	-10563
ruitment	-10564
▁Bhagwat	-10565
▁Captain	-10566
▁Collect	-10567
▁Country	-10568
▁Cyclone	-10569
▁Dabangg	-10570
▁Discuss	-10571
▁Gandhis	-10572
▁Housing	-10573
▁Hundred	-10574
▁Jawahar	-10575
▁Kapoors	-10576
▁Kochhar	-10577
▁Myanmar	-10578
▁Perform	-10579
▁Reasons	-10580
▁Schools	-10581
▁applies	-10582
▁batsmen	-10583
▁centers	-10584
▁coconut	-10585
▁commits	-10586
▁compare	-10587
▁compuls	-10588
▁consume	-10589
▁conting	-10590
▁devices	-10591
▁edition	-10592
▁enabled	-10593
▁exports	-10594
▁gearing	-10595
▁happily	-10596
▁housing	-10597
▁imagine	-10598
▁lawyers	-10599
▁queries	-10600
▁retired	-10601
▁savings	-10602
▁silence	-10603
▁singing	-10604
▁starrer	-10605
▁stepped	-10606
▁wouldnt	-10607
▁Catholic	-10608
▁Certific	-10609
▁Disaster	-10610
▁abundant	-10611
▁balanced	-10612
▁cabinets	-10613
▁champion	-10614
▁choosing	-10615
▁coverage	-10616
▁innocent	-10617
▁intellig	-10618
▁laughing	-10619
▁lifetime	-10620
▁moderate	-10621
▁objected	-10622
▁parallel	-10623
▁produces	-10624
▁programs	-10625
▁reliable	-10626
▁reserved	-10627
▁scenario	-10628
▁treasure	-10629
▁variants	-10630
▁withdraw	-10631
flammatory	-10632
▁Chaturthi	-10633
▁Congratul	-10634
▁Important	-10635
▁Officials	-10636
▁Panchayat	-10637
▁Religious	-10638
▁Sunrisers	-10639
▁Tanushree	-10640
▁allocated	-10641
▁announces	-10642
▁apologise	-10643
▁belonging	-10644
▁conferred	-10645
▁confusion	-10646
▁constable	-10647
▁deposited	-10648
▁describes	-10649
▁diagnosis	-10650
▁disclosed	-10651
▁expresses	-10652
▁forgotten	-10653
▁inflation	-10654
▁reactions	-10655
▁rebellion	-10656
▁religions	-10657
▁sensation	-10658
▁similarly	-10659
▁stability	-10660
▁technique	-10661
▁throwback	-10662
▁undertake	-10663
precedented	-10664
▁Industrial	-10665
▁boundaries	-10666
▁committing	-10667
▁components	-10668
▁conspiracy	-10669
▁exceptions	-10670
▁exhibition	-10671
▁irrigation	-10672
▁relatively	-10673
▁repeatedly	-10674
▁responding	-10675
▁translated	-10676
▁unexpected	-10677
▁Chakraborty	-10678
▁Rashtrapati	-10679
▁cleanliness	-10680
▁combination	-10681
▁descendants	-10682
▁instruction	-10683
▁operational	-10684
▁researchers	-10685
▁reservation	-10686
▁commandments	-10687
▁commissioner	-10688
▁confirmation	-10689
▁developments	-10690
▁disappointed	-10691
▁compassionate	-10692
▁determination	-10693
▁encouragement	-10694
▁organizations	-10695
▁participating	-10696
▁simultaneously	-10697
47	-10698
AV	-10699
IR	-10700
NA	-10701
NL	-10702
Os	-10703
UV	-10704
bi	-10705
ij	-10706
je	-10707
su	-10708
AGE	-10709
She	-10710
Yes	-10711
ags	-10712
eld	-10713
gil	-10714
inc	-10715
ipp	-10716
jah	-10717
ksi	-10718
mal	-10719
oka	-10720
orr	-10721
rup	-10722
shi	-10723
uda	-10724
umm	-10725
uzz	-10726
▁(1	-10727
▁3-	-10728
▁4-	-10729
▁68	-10730
▁71	-10731
▁Aj	-10732
▁Ga	-10733
▁MA	-10734
!"""	-10735
IDAI	-10736
acle	-10737
afar	-10738
alal	-10739
aque	-10740
assy	-10741
atri	-10742
ella	-10743
eria	-10744
gies	-10745
hank	-10746
iben	-10747
icit	-10748
iday	-10749
idhi	-10750
igue	-10751
ilee	-10752
itch	-10753
itra	-10754
lers	-10755
otes	-10756
part	-10757
pers	-10758
rots	-10759
udes	-10760
ujan	-10761
xual	-10762
▁105	-10763
▁13-	-10764
▁20,	-10765
▁21:	-10766
▁Apt	-10767
▁Bay	-10768
▁Bir	-10769
▁Dik	-10770
▁Dom	-10771
▁FDI	-10772
▁Inj	-10773
▁Jet	-10774
▁Mul	-10775
▁Neg	-10776
▁Taj	-10777
▁Tar	-10778
▁Unt	-10779
▁bid	-10780
▁cab	-10781
▁dow	-10782
▁env	-10783
▁fet	-10784
▁fly	-10785
▁gms	-10786
▁map	-10787
adays	-10788
adeep	-10789
ampoo	-10790
anand	-10791
arity	-10792
asted	-10793
bound	-10794
eping	-10795
habil	-10796
icing	-10797
idity	-10798
iform	-10799
ishes	-10800
itect	-10801
itted	-10802
moned	-10803
odium	-10804
ounce	-10805
pathi	-10806
peror	-10807
polls	-10808
rayed	-10809
ricks	-10810
uffle	-10811
ummar	-10812
urred	-10813
▁Amar	-10814
▁Babu	-10815
▁Bhav	-10816
▁Cant	-10817
▁Cash	-10818
▁Cold	-10819
▁Ekta	-10820
▁Gamb	-10821
▁Ghaz	-10822
▁Gram	-10823
▁Jain	-10824
▁Jude	-10825
▁Kids	-10826
▁Mall	-10827
▁Maur	-10828
▁Nita	-10829
▁Pick	-10830
▁Pour	-10831
▁Pray	-10832
▁Sant	-10833
▁Save	-10834
▁Shes	-10835
▁Sons	-10836
▁Tues	-10837
▁Wors	-10838
▁blow	-10839
▁fasc	-10840
▁flux	-10841
▁humb	-10842
▁mere	-10843
▁prol	-10844
▁puts	-10845
▁rall	-10846
cluded	-10847
imming	-10848
inging	-10849
iramal	-10850
istant	-10851
keeper	-10852
napped	-10853
nesium	-10854
nowned	-10855
rapped	-10856
rators	-10857
soever	-10858
umping	-10859
usions	-10860
worthy	-10861
▁2,000	-10862
▁2019.	-10863
▁Bhuvn	-10864
▁Desai	-10865
▁Dilip	-10866
▁Durga	-10867
▁Glass	-10868
▁Indus	-10869
▁Kashi	-10870
▁Kashy	-10871
▁Kiran	-10872
▁Night	-10873
▁Nobel	-10874
▁Pawan	-10875
▁Queen	-10876
▁Roads	-10877
▁Rural	-10878
▁Sagar	-10879
▁Satur	-10880
▁Share	-10881
▁Solar	-10882
▁ammun	-10883
▁aside	-10884
▁borne	-10885
▁caste	-10886
▁crown	-10887
▁embra	-10888
▁facil	-10889
▁fatal	-10890
▁firms	-10891
▁fried	-10892
▁hopes	-10893
▁immig	-10894
▁inner	-10895
▁lunar	-10896
▁meals	-10897
▁misle	-10898
▁pilot	-10899
▁pinch	-10900
▁plate	-10901
▁warns	-10902
Gujarat	-10903
olution	-10904
▁Anupam	-10905
▁Ashish	-10906
▁Bharti	-10907
▁Bhutan	-10908
▁Breast	-10909
▁Celebr	-10910
▁Center	-10911
▁Chavan	-10912
▁Choksi	-10913
▁Diljit	-10914
▁Future	-10915
▁Garlic	-10916
▁Jyotir	-10917
▁Market	-10918
▁Master	-10919
▁Member	-10920
▁Pratap	-10921
▁Screen	-10922
▁Sector	-10923
▁Sheila	-10924
▁Simple	-10925
▁Survey	-10926
▁Trains	-10927
▁arrive	-10928
▁banner	-10929
▁beings	-10930
▁bowled	-10931
▁buried	-10932
▁campus	-10933
▁column	-10934
▁config	-10935
▁fierce	-10936
▁finger	-10937
▁firmly	-10938
▁guided	-10939
▁habits	-10940
▁hatred	-10941
▁hidden	-10942
▁hiding	-10943
▁horses	-10944
▁humble	-10945
▁ignore	-10946
▁infilt	-10947
▁judges	-10948
▁lowest	-10949
▁makers	-10950
▁metres	-10951
▁narrow	-10952
▁openly	-10953
▁paying	-10954
▁pilots	-10955
▁portal	-10956
▁prejud	-10957
▁ration	-10958
▁recall	-10959
▁refers	-10960
▁string	-10961
▁switch	-10962
▁throat	-10963
▁timely	-10964
▁tongue	-10965
▁valued	-10966
Congress	-10967
fighters	-10968
idelines	-10969
▁Advisor	-10970
▁Ayurved	-10971
▁Chouhan	-10972
▁Disease	-10973
▁Explain	-10974
▁Highway	-10975
▁Madhuri	-10976
▁Massive	-10977
▁Polling	-10978
▁Prabhas	-10979
▁Primary	-10980
▁Problem	-10981
▁Randeep	-10982
▁Sanjeev	-10983
▁Storage	-10984
▁Tourism	-10985
▁Tuesday	-10986
▁absence	-10987
▁alerted	-10988
▁amounts	-10989
▁distant	-10990
▁enterpr	-10991
▁forming	-10992
▁ignored	-10993
▁joining	-10994
▁longest	-10995
▁miracle	-10996
▁monitor	-10997
▁painted	-10998
▁parable	-10999
▁profile	-11000
▁profits	-11001
▁qualify	-11002
▁readers	-11003
▁rejects	-11004
▁restric	-11005
▁roughly	-11006
▁scoring	-11007
▁teaches	-11008
▁telecom	-11009
▁tractor	-11010
▁trusted	-11011
▁updated	-11012
▁Amarnath	-11013
▁Digvijay	-11014
▁Gandhiji	-11015
▁Justices	-11016
▁Marriage	-11017
▁Officers	-11018
▁Rajendra	-11019
▁Wildlife	-11020
▁academic	-11021
▁accommod	-11022
▁activist	-11023
▁ailments	-11024
▁aviation	-11025
▁cleaning	-11026
▁contempl	-11027
▁dialogue	-11028
▁disputed	-11029
▁division	-11030
▁elephant	-11031
▁elevated	-11032
▁emerging	-11033
▁emphasis	-11034
▁employee	-11035
▁extraord	-11036
▁inconven	-11037
▁memories	-11038
▁normally	-11039
▁philosop	-11040
▁profound	-11041
▁relation	-11042
▁remanded	-11043
▁rendered	-11044
▁renowned	-11045
▁sacrific	-11046
▁sickness	-11047
▁summoned	-11048
▁umbrella	-11049
▁utilised	-11050
▁versions	-11051
▁violated	-11052
▁visitors	-11053
▁wherever	-11054
▁worsened	-11055
▁Anandiben	-11056
▁Chaudhary	-11057
▁Harbhajan	-11058
▁Hindustan	-11059
▁Microsoft	-11060
▁Rajkummar	-11061
▁Regarding	-11062
▁Secondary	-11063
▁agitation	-11064
▁assembled	-11065
▁assurance	-11066
▁breakfast	-11067
▁concludes	-11068
▁converted	-11069
▁disturbed	-11070
▁ecosystem	-11071
▁efficient	-11072
▁electoral	-11073
▁eliminate	-11074
▁execution	-11075
▁extension	-11076
▁favorable	-11077
▁finalised	-11078
▁highlight	-11079
▁jewellery	-11080
▁magnesium	-11081
▁magnitude	-11082
▁monitored	-11083
▁reflected	-11084
▁strategic	-11085
▁Production	-11086
▁Shivakumar	-11087
▁acceptable	-11088
▁ammunition	-11089
▁celebrates	-11090
▁defamation	-11091
▁diplomatic	-11092
▁emphasized	-11093
▁exercising	-11094
▁fulfilling	-11095
▁medication	-11096
▁nationwide	-11097
▁peacefully	-11098
▁phosphorus	-11099
▁reputation	-11100
▁sanctioned	-11101
inflammatory	-11102
▁Bhuvneshwar	-11103
▁Legislative	-11104
▁Vallabhbhai	-11105
▁achievement	-11106
▁alternative	-11107
▁chargesheet	-11108
▁effectively	-11109
▁forgiveness	-11110
▁forthcoming	-11111
▁generations	-11112
▁institution	-11113
▁intelligent	-11114
▁maintaining	-11115
▁permanently	-11116
▁residential	-11117
▁surrounding	-11118
▁unfortunate	-11119
▁Championship	-11120
▁Jyotiraditya	-11121
▁capabilities	-11122
▁certificates	-11123
▁establishment	-11124
▁unprecedented	-11125
▁classification	-11126
▁specifications	-11127
▁transportation	-11128
):	-11129
22	-11130
74	-11131
GP	-11132
IB	-11133
KR	-11134
MK	-11135
MM	-11136
ND	-11137
PC	-11138
SR	-11139
dy	-11140
▁*	-11141
▁>	-11142
BSP	-11143
NGS	-11144
Ram	-11145
Who	-11146
ahu	-11147
akk	-11148
avi	-11149
cut	-11150
gat	-11151
gde	-11152
iac	-11153
imp	-11154
iri	-11155
lix	-11156
mag	-11157
nds	-11158
olt	-11159
osa	-11160
oya	-11161
vin	-11162
yes	-11163
▁1-	-11164
▁62	-11165
▁66	-11166
▁AC	-11167
▁AP	-11168
▁DO	-11169
▁EM	-11170
▁GS	-11171
▁IF	-11172
▁Ms	-11173
▁OT	-11174
▁Tw	-11175
▁WH	-11176
▁Wr	-11177
▁dw	-11178
""""	-11179
agon	-11180
aira	-11181
anjh	-11182
arer	-11183
chae	-11184
cher	-11185
conf	-11186
duct	-11187
eing	-11188
eler	-11189
eved	-11190
host	-11191
hury	-11192
iasm	-11193
ikar	-11194
ille	-11195
irty	-11196
ocus	-11197
orer	-11198
ouni	-11199
owda	-11200
pert	-11201
rous	-11202
umes	-11203
unej	-11204
ushi	-11205
vals	-11206
wife	-11207
yard	-11208
▁(19	-11209
▁1/4	-11210
▁104	-11211
▁110	-11212
▁28.	-11213
▁30.	-11214
▁600	-11215
▁Ank	-11216
▁Aur	-11217
▁BSE	-11218
▁Bro	-11219
▁CSK	-11220
▁EPF	-11221
▁FIF	-11222
▁Gaj	-11223
▁Gre	-11224
▁Gun	-11225
▁Hab	-11226
▁Jim	-11227
▁Leh	-11228
▁Lie	-11229
▁Mem	-11230
▁Mom	-11231
▁Muh	-11232
▁Nam	-11233
▁Nax	-11234
▁Pot	-11235
▁Rew	-11236
▁Run	-11237
▁Sou	-11238
▁Spr	-11239
▁Tit	-11240
▁Upd	-11241
▁Yuz	-11242
▁aer	-11243
▁cad	-11244
▁cov	-11245
▁pel	-11246
▁sed	-11247
▁tap	-11248
▁voc	-11249
,000.	-11250
Ahmed	-11251
aceut	-11252
achel	-11253
agadh	-11254
andez	-11255
anshi	-11256
aspur	-11257
ausea	-11258
ental	-11259
eties	-11260
fight	-11261
inous	-11262
ioned	-11263
ioxid	-11264
istry	-11265
month	-11266
onomy	-11267
print	-11268
raman	-11269
riers	-11270
umped	-11271
uster	-11272
usual	-11273
▁Apte	-11274
▁Azmi	-11275
▁Bhad	-11276
▁CBSE	-11277
▁Deew	-11278
▁Desh	-11279
▁Ever	-11280
▁Expl	-11281
▁Ezek	-11282
▁Fran	-11283
▁Hand	-11284
▁Hold	-11285
▁Kane	-11286
▁Mans	-11287
▁Meet	-11288
▁Milk	-11289
▁Mond	-11290
▁Move	-11291
▁Nana	-11292
▁Near	-11293
▁Prep	-11294
▁Prop	-11295
▁Puja	-11296
▁Ragh	-11297
▁Ruth	-11298
▁Shat	-11299
▁Shop	-11300
▁Sikh	-11301
▁Stop	-11302
▁THER	-11303
▁Tabu	-11304
▁Thar	-11305
▁Till	-11306
▁Veer	-11307
▁Zoya	-11308
▁aims	-11309
▁appl	-11310
▁arts	-11311
▁brut	-11312
▁cele	-11313
▁crew	-11314
▁curd	-11315
▁fees	-11316
▁garn	-11317
▁hasn	-11318
▁inse	-11319
▁lean	-11320
▁lens	-11321
▁lips	-11322
▁maid	-11323
▁nose	-11324
▁nuts	-11325
▁ours	-11326
▁pond	-11327
▁ramp	-11328
▁rely	-11329
▁rush	-11330
▁scal	-11331
▁span	-11332
▁tort	-11333
▁trem	-11334
▁upgr	-11335
▁urge	-11336
▁zone	-11337
agraph	-11338
anagar	-11339
anches	-11340
ashant	-11341
ashing	-11342
empted	-11343
ensity	-11344
facing	-11345
owered	-11346
rating	-11347
riages	-11348
stream	-11349
unting	-11350
ureshi	-11351
wanath	-11352
▁Aadmi	-11353
▁Color	-11354
▁Crore	-11355
▁Diksh	-11356
▁Early	-11357
▁Exerc	-11358
▁Grant	-11359
▁Harry	-11360
▁Kisan	-11361
▁Laxmi	-11362
▁Lunej	-11363
▁Mouni	-11364
▁Movie	-11365
▁Phone	-11366
▁Pilot	-11367
▁Prith	-11368
▁Radio	-11369
▁SONGS	-11370
▁Serve	-11371
▁Swiss	-11372
▁Teams	-11373
▁Thane	-11374
▁Viral	-11375
▁absor	-11376
▁accum	-11377
▁amend	-11378
▁cease	-11379
▁dilig	-11380
▁drops	-11381
▁dwell	-11382
▁finds	-11383
▁flash	-11384
▁gains	-11385
▁grace	-11386
▁grows	-11387
▁haven	-11388
▁midst	-11389
▁nutri	-11390
▁radio	-11391
▁raids	-11392
▁risen	-11393
▁semif	-11394
▁shift	-11395
▁sword	-11396
▁unbel	-11397
▁warri	-11398
▁yours	-11399
acharya	-11400
cluding	-11401
isition	-11402
issions	-11403
married	-11404
resents	-11405
utenant	-11406
winning	-11407
▁Agency	-11408
▁Baroda	-11409
▁Bendre	-11410
▁Cannot	-11411
▁Deaths	-11412
▁Dinesh	-11413
▁Forces	-11414
▁Martin	-11415
▁Middle	-11416
▁Poonam	-11417
▁Ramesh	-11418
▁Really	-11419
▁Singhs	-11420
▁Streng	-11421
▁Unable	-11422
▁Window	-11423
▁Xiaomi	-11424
▁cancel	-11425
▁cloves	-11426
▁copper	-11427
▁divide	-11428
▁exempl	-11429
▁export	-11430
▁exting	-11431
▁fulfil	-11432
▁gentle	-11433
▁insist	-11434
▁latter	-11435
▁league	-11436
▁lyrics	-11437
▁margin	-11438
▁mighty	-11439
▁mining	-11440
▁motive	-11441
▁observ	-11442
▁outing	-11443
▁paired	-11444
▁peanut	-11445
▁permit	-11446
▁poetry	-11447
▁poured	-11448
▁ranked	-11449
▁render	-11450
▁rulers	-11451
▁sensit	-11452
▁shapes	-11453
▁stores	-11454
▁timing	-11455
▁unbeat	-11456
▁unfold	-11457
▁urgent	-11458
▁vulner	-11459
▁weaken	-11460
▁writes	-11461
cription	-11462
ortheast	-11463
▁Bahadur	-11464
▁Colours	-11465
▁Dosanjh	-11466
▁Karachi	-11467
▁Leaders	-11468
▁Library	-11469
▁Looking	-11470
▁Navsari	-11471
▁Piramal	-11472
▁Pradeep	-11473
▁Qureshi	-11474
▁Session	-11475
▁Vaghani	-11476
▁accuses	-11477
▁acquire	-11478
▁anticip	-11479
▁appeals	-11480
▁arrests	-11481
▁bottles	-11482
▁commend	-11483
▁crushed	-11484
▁dancing	-11485
▁extends	-11486
▁funeral	-11487
▁landing	-11488
▁martyrs	-11489
▁mystery	-11490
▁neutral	-11491
▁offence	-11492
▁periods	-11493
▁possess	-11494
▁praying	-11495
▁raining	-11496
▁rituals	-11497
▁transit	-11498
▁veteran	-11499
▁watches	-11500
▁zealous	-11501
President	-11502
aceutical	-11503
▁Abdullah	-11504
▁Computer	-11505
▁Football	-11506
▁Hundreds	-11507
▁Internal	-11508
▁Prashant	-11509
▁Saturday	-11510
▁Sidharth	-11511
▁Speaking	-11512
▁collapse	-11513
▁commemor	-11514
▁commonly	-11515
▁confront	-11516
▁confused	-11517
▁contempt	-11518
▁convicts	-11519
▁deposits	-11520
▁develops	-11521
▁devotion	-11522
▁duration	-11523
▁educated	-11524
▁employed	-11525
▁ensuring	-11526
▁entitled	-11527
▁fruitage	-11528
▁generate	-11529
▁meantime	-11530
▁militant	-11531
▁mourning	-11532
▁passport	-11533
▁prophets	-11534
▁sciences	-11535
▁stopping	-11536
▁suggests	-11537
▁suitable	-11538
▁supplied	-11539
▁terrible	-11540
▁whenever	-11541
▁Fernandez	-11542
▁Programme	-11543
▁Yuzvendra	-11544
▁ambulance	-11545
▁childrens	-11546
▁contained	-11547
▁criticism	-11548
▁dominated	-11549
▁enjoyable	-11550
▁expansion	-11551
▁expecting	-11552
▁incorrect	-11553
▁inspiring	-11554
▁isolation	-11555
▁marketing	-11556
▁meanwhile	-11557
▁neighbors	-11558
▁obedience	-11559
▁objection	-11560
▁perfectly	-11561
▁policeman	-11562
▁postponed	-11563
▁reception	-11564
▁specified	-11565
▁strangers	-11566
▁succumbed	-11567
▁travelled	-11568
unicipality	-11569
▁Jacqueline	-11570
▁benefitted	-11571
▁comprising	-11572
▁conviction	-11573
▁critically	-11574
▁engagement	-11575
▁enthusiasm	-11576
▁equivalent	-11577
▁functional	-11578
▁helicopter	-11579
▁households	-11580
▁impressive	-11581
▁prevention	-11582
▁publishers	-11583
▁quarantine	-11584
▁represents	-11585
▁revolution	-11586
▁statistics	-11587
▁whatsoever	-11588
▁withdrawal	-11589
▁demonstrate	-11590
▁differently	-11591
▁educational	-11592
▁improvement	-11593
▁legislation	-11594
▁necessarily	-11595
▁observation	-11596
▁regulations	-11597
▁unnecessary	-11598
▁worshippers	-11599
▁Unemployment	-11600
▁accomplished	-11601
▁restrictions	-11602
▁specifically	-11603
▁surveillance	-11604
▁technologies	-11605
▁clarification	-11606
▁personalities	-11607
▁significantly	-11608
▁Administration	-11609
▁transformation	-11610
49	-11611
79	-11612
85	-11613
AB	-11614
Cl	-11615
Do	-11616
GA	-11617
IJ	-11618
OC	-11619
OD	-11620
PA	-11621
Pe	-11622
SG	-11623
Th	-11624
gl	-11625
yo	-11626
How	-11627
ION	-11628
Our	-11629
RBI	-11630
aph	-11631
bek	-11632
bes	-11633
cul	-11634
hie	-11635
ica	-11636
ien	-11637
isk	-11638
ked	-11639
lin	-11640
mAh	-11641
mad	-11642
nal	-11643
nov	-11644
rum	-11645
ubs	-11646
var	-11647
zed	-11648
▁(%	-11649
▁89	-11650
▁98	-11651
▁AR	-11652
▁Dw	-11653
▁FA	-11654
▁MG	-11655
▁Mc	-11656
▁PR	-11657
▁TB	-11658
▁Uk	-11659
abha	-11660
adha	-11661
adia	-11662
afiz	-11663
alaq	-11664
amom	-11665
asim	-11666
atal	-11667
eled	-11668
eles	-11669
eman	-11670
hoot	-11671
idar	-11672
iece	-11673
lier	-11674
list	-11675
maan	-11676
meet	-11677
mukh	-11678
note	-11679
nsic	-11680
phan	-11681
rase	-11682
reek	-11683
resp	-11684
ribe	-11685
rich	-11686
rime	-11687
rukh	-11688
udas	-11689
unte	-11690
wani	-11691
▁18:	-11692
▁191	-11693
▁ANI	-11694
▁Abe	-11695
▁Ast	-11696
▁Bag	-11697
▁Ber	-11698
▁Cad	-11699
▁Hor	-11700
▁IAS	-11701
▁KKR	-11702
▁Kak	-11703
▁Kav	-11704
▁Kos	-11705
▁Lot	-11706
▁Nut	-11707
▁OBC	-11708
▁Ste	-11709
▁TCS	-11710
▁TRS	-11711
▁Ten	-11712
▁Tir	-11713
▁VAT	-11714
▁Wed	-11715
▁aug	-11716
▁bom	-11717
▁dip	-11718
▁fog	-11719
▁nod	-11720
▁odd	-11721
▁une	-11722
▁wai	-11723
▁wre	-11724
adiad	-11725
angel	-11726
anges	-11727
angle	-11728
assed	-11729
astra	-11730
avour	-11731
class	-11732
estly	-11733
hapur	-11734
hemat	-11735
ighth	-11736
image	-11737
ingly	-11738
istol	-11739
ithaa	-11740
ittle	-11741
raint	-11742
uxury	-11743
▁100%	-11744
▁1500	-11745
▁Azam	-11746
▁Bose	-11747
▁Copy	-11748
▁Cumm	-11749
▁Exec	-11750
▁Gita	-11751
▁Hans	-11752
▁Hash	-11753
▁Hell	-11754
▁Hema	-11755
▁Hood	-11756
▁Hose	-11757
▁Idea	-11758
▁Imag	-11759
▁Isnt	-11760
▁Kirt	-11761
▁Mike	-11762
▁Mode	-11763
▁Much	-11764
▁Mumb	-11765
▁Nora	-11766
▁Orig	-11767
▁Pank	-11768
▁Pate	-11769
▁Raje	-11770
▁Rand	-11771
▁Seng	-11772
▁Shab	-11773
▁Sony	-11774
▁Supp	-11775
▁Term	-11776
▁Vlad	-11777
▁Zone	-11778
▁boss	-11779
▁buff	-11780
▁cher	-11781
▁cows	-11782
▁ears	-11783
▁edge	-11784
▁excl	-11785
▁flex	-11786
▁furn	-11787
▁gray	-11788
▁heed	-11789
▁intr	-11790
▁item	-11791
▁mant	-11792
▁mega	-11793
▁merc	-11794
▁obst	-11795
▁peak	-11796
▁plun	-11797
▁pots	-11798
▁prim	-11799
▁rect	-11800
▁root	-11801
▁stup	-11802
▁temp	-11803
▁tire	-11804
Mumbai	-11805
adekar	-11806
anyahu	-11807
apuram	-11808
aputra	-11809
asaheb	-11810
asures	-11811
ayanad	-11812
forced	-11813
itudes	-11814
mother	-11815
nesday	-11816
panish	-11817
urappa	-11818
▁2022.	-11819
▁3,000	-11820
▁Abhin	-11821
▁Ahead	-11822
▁Akbar	-11823
▁Analy	-11824
▁Basic	-11825
▁Biote	-11826
▁Bless	-11827
▁Cases	-11828
▁Chowd	-11829
▁Doval	-11830
▁Ghosh	-11831
▁Hegde	-11832
▁Innov	-11833
▁Madan	-11834
▁Marsh	-11835
▁Mayaw	-11836
▁Mehul	-11837
▁Micah	-11838
▁Misra	-11839
▁Multi	-11840
▁Ratan	-11841
▁Rupee	-11842
▁Saeed	-11843
▁Sania	-11844
▁Speak	-11845
▁THERE	-11846
▁Umesh	-11847
▁Urban	-11848
▁Works	-11849
▁Youve	-11850
▁aimed	-11851
▁await	-11852
▁burst	-11853
▁cameo	-11854
▁cater	-11855
▁chips	-11856
▁chore	-11857
▁climb	-11858
▁craft	-11859
▁cried	-11860
▁crumb	-11861
▁debit	-11862
▁disag	-11863
▁disqu	-11864
▁drunk	-11865
▁enact	-11866
▁explo	-11867
▁fears	-11868
▁greed	-11869
▁hurry	-11870
▁indef	-11871
▁indul	-11872
▁liver	-11873
▁login	-11874
▁lucky	-11875
▁mosqu	-11876
▁quake	-11877
▁reads	-11878
▁repro	-11879
▁sheet	-11880
▁sizes	-11881
▁subur	-11882
▁texts	-11883
▁tooth	-11884
▁trick	-11885
▁uncer	-11886
▁urges	-11887
▁weird	-11888
▁withd	-11889
▁youll	-11890
attered	-11891
chayats	-11892
ffected	-11893
hibited	-11894
itarian	-11895
ocation	-11896
quiring	-11897
viously	-11898
▁20,000	-11899
▁Andrew	-11900
▁Bandra	-11901
▁Better	-11902
▁Bhawan	-11903
▁Border	-11904
▁Charge	-11905
▁Contin	-11906
▁Eating	-11907
▁Elijah	-11908
▁Friday	-11909
▁Ghulam	-11910
▁Gorakh	-11911
▁Kalyan	-11912
▁Kargil	-11913
▁Knight	-11914
▁Locals	-11915
▁Malini	-11916
▁Masood	-11917
▁Nadiad	-11918
▁Nazeer	-11919
▁Peters	-11920
▁Photos	-11921
▁Portug	-11922
▁Ramdev	-11923
▁Rampal	-11924
▁Ranchi	-11925
▁Rashid	-11926
▁Rights	-11927
▁Shakti	-11928
▁Shashi	-11929
▁Sohail	-11930
▁Stress	-11931
▁Winter	-11932
▁assass	-11933
▁basket	-11934
▁bitter	-11935
▁blocks	-11936
▁buyers	-11937
▁chairs	-11938
▁contag	-11939
▁cousin	-11940
▁decker	-11941
▁doubts	-11942
▁embarr	-11943
▁errors	-11944
▁exhort	-11945
▁grants	-11946
▁hailed	-11947
▁helmet	-11948
▁hunger	-11949
▁iconic	-11950
▁immune	-11951
▁incred	-11952
▁loaded	-11953
▁looted	-11954
▁lowers	-11955
▁native	-11956
▁obtain	-11957
▁oppose	-11958
▁output	-11959
▁plaque	-11960
▁preval	-11961
▁prizes	-11962
▁prosec	-11963
▁quoted	-11964
▁refres	-11965
▁refund	-11966
▁refuse	-11967
▁robust	-11968
▁rolled	-11969
▁salary	-11970
▁scenes	-11971
▁scores	-11972
▁settle	-11973
▁sliced	-11974
▁sodium	-11975
▁speedy	-11976
▁spring	-11977
▁staged	-11978
▁theory	-11979
▁torque	-11980
▁trends	-11981
▁unlike	-11982
▁upload	-11983
▁wholes	-11984
American	-11985
ropriate	-11986
▁2019-20	-11987
▁Alcohol	-11988
▁Cummins	-11989
▁Dikshit	-11990
▁Economy	-11991
▁Enterpr	-11992
▁Experts	-11993
▁Ezekiel	-11994
▁Jayalal	-11995
▁Kashyap	-11996
▁Maharaj	-11997
▁Neither	-11998
▁Russell	-11999
▁Solanki	-12000
▁Stopped	-12001
▁Tension	-12002
▁Wayanad	-12003
▁abandon	-12004
▁assures	-12005
▁bearing	-12006
▁chickpe	-12007
▁coastal	-12008
▁colored	-12009
▁comprom	-12010
▁consent	-12011
▁courses	-12012
▁dealing	-12013
▁defined	-12014
▁deserve	-12015
▁diverse	-12016
▁enables	-12017
▁episode	-12018
▁fatigue	-12019
▁forests	-12020
▁founder	-12021
▁furious	-12022
▁garbage	-12023
▁glasses	-12024
▁grazing	-12025
▁heights	-12026
▁instant	-12027
▁mandate	-12028
▁noticed	-12029
▁objects	-12030
▁rallies	-12031
▁reverse	-12032
▁scuffle	-12033
▁shampoo	-12034
▁speaker	-12035
▁stating	-12036
▁suppose	-12037
▁undergo	-12038
▁uniform	-12039
▁washing	-12040
▁workout	-12041
▁Airlines	-12042
▁Ambedkar	-12043
▁Cultural	-12044
▁Heritage	-12045
▁Highways	-12046
▁Paradise	-12047
▁Physical	-12048
▁Property	-12049
▁Qualcomm	-12050
▁Savarkar	-12051
▁annually	-12052
▁antioxid	-12053
▁bothered	-12054
▁branches	-12055
▁clinical	-12056
▁colorful	-12057
▁conveyed	-12058
▁covenant	-12059
▁customer	-12060
▁disposed	-12061
▁donation	-12062
▁enhanced	-12063
▁exciting	-12064
▁feedback	-12065
▁flooding	-12066
▁glorious	-12067
▁handling	-12068
▁inclined	-12069
▁likewise	-12070
▁managing	-12071
▁manifold	-12072
▁mathemat	-12073
▁notified	-12074
▁operates	-12075
▁panicked	-12076
▁pioneers	-12077
▁preached	-12078
▁procured	-12079
▁promoted	-12080
▁respects	-12081
▁substant	-12082
▁superior	-12083
▁surfaced	-12084
▁talented	-12085
▁tolerate	-12086
▁unbeaten	-12087
▁worrying	-12088
ographical	-12089
▁Economics	-12090
▁Employees	-12091
▁Entertain	-12092
▁Governing	-12093
▁Netanyahu	-12094
▁acquitted	-12095
▁ambitious	-12096
▁answering	-12097
▁attracted	-12098
▁boyfriend	-12099
▁celebrity	-12100
▁criminals	-12101
▁cultivate	-12102
▁defeating	-12103
▁evacuated	-12104
▁functions	-12105
▁headlines	-12106
▁inaugural	-12107
▁indicated	-12108
▁petitions	-12109
▁petroleum	-12110
▁preserved	-12111
▁recognise	-12112
▁safeguard	-12113
▁strengths	-12114
▁threatens	-12115
▁uncertain	-12116
▁universal	-12117
▁Jawaharlal	-12118
▁Lieutenant	-12119
▁attractive	-12120
▁circulated	-12121
▁companions	-12122
▁continuous	-12123
▁criticised	-12124
▁discussing	-12125
▁kilometres	-12126
▁processing	-12127
▁regulatory	-12128
▁retaliated	-12129
▁successive	-12130
▁unemployed	-12131
▁youngsters	-12132
▁Brahmaputra	-12133
▁Certificate	-12134
▁Engineering	-12135
▁Furthermore	-12136
▁Immediately	-12137
▁Philippians	-12138
▁advancement	-12139
▁aspirations	-12140
▁campaigning	-12141
▁hospitality	-12142
▁preliminary	-12143
▁transformer	-12144
▁Consequently	-12145
▁Jayalalithaa	-12146
▁acknowledged	-12147
▁overwhelming	-12148
▁presentation	-12149
▁universities	-12150
▁Understanding	-12151
▁automatically	-12152
▁developmental	-12153
▁environmental	-12154
▁disappointment	-12155
▁pharmaceutical	-12156
▁congratulations	-12157
61	-12158
62	-12159
78	-12160
AE	-12161
EA	-12162
Je	-12163
Pl	-12164
RL	-12165
UB	-12166
UE	-12167
di	-12168
zo	-12169
▁@	-12170
-17	-12171
Com	-12172
ads	-12173
ahe	-12174
bre	-12175
ctu	-12176
des	-12177
gra	-12178
hit	-12179
hop	-12180
hyd	-12181
jid	-12182
jot	-12183
lif	-12184
nce	-12185
okh	-12186
ros	-12187
ulf	-12188
yer	-12189
zal	-12190
▁(2	-12191
▁5%	-12192
▁57	-12193
▁58	-12194
▁7-	-12195
▁DC	-12196
▁MN	-12197
▁Ox	-12198
▁PC	-12199
▁Ut	-12200
▁fo	-12201
▁ho	-12202
▁vo	-12203
-19,	-12204
BCCI	-12205
Shiv	-12206
When	-12207
abil	-12208
aisy	-12209
akar	-12210
amod	-12211
aren	-12212
azar	-12213
cycl	-12214
ears	-12215
fere	-12216
imir	-12217
indu	-12218
isms	-12219
krit	-12220
laim	-12221
mate	-12222
mine	-12223
ohil	-12224
omas	-12225
othe	-12226
pada	-12227
rose	-12228
uces	-12229
ulpt	-12230
writ	-12231
▁20:	-12232
▁44.	-12233
▁Abs	-12234
▁Aer	-12235
▁Alt	-12236
▁BMC	-12237
▁CID	-12238
▁Dia	-12239
▁Dim	-12240
▁Fry	-12241
▁Had	-12242
▁Hey	-12243
▁Hir	-12244
▁ICU	-12245
▁IPS	-12246
▁Imp	-12247
▁Inv	-12248
▁Jog	-12249
▁Kad	-12250
▁Ken	-12251
▁Kom	-12252
▁Mid	-12253
▁Mut	-12254
▁Nik	-12255
▁Nis	-12256
▁Osc	-12257
▁Pud	-12258
▁SIT	-12259
▁Sax	-12260
▁Sis	-12261
▁TDP	-12262
▁WHO	-12263
▁bug	-12264
▁civ	-12265
▁ear	-12266
▁fem	-12267
▁fro	-12268
▁kms	-12269
▁meg	-12270
▁mol	-12271
▁rig	-12272
▁tam	-12273
▁wed	-12274
▁wet	-12275
alian	-12276
althi	-12277
antha	-12278
apers	-12279
arest	-12280
atile	-12281
being	-12282
clude	-12283
crore	-12284
ensed	-12285
feren	-12286
hoomi	-12287
ichar	-12288
icity	-12289
icket	-12290
ieves	-12291
ilead	-12292
imony	-12293
inely	-12294
raine	-12295
rekar	-12296
ribes	-12297
space	-12298
viraj	-12299
▁Amid	-12300
▁Anna	-12301
▁Arts	-12302
▁Bagh	-12303
▁Cana	-12304
▁Club	-12305
▁Cool	-12306
▁Corp	-12307
▁Data	-12308
▁Fast	-12309
▁Ghat	-12310
▁Gill	-12311
▁Hope	-12312
▁Indo	-12313
▁Jasp	-12314
▁Jobs	-12315
▁Jord	-12316
▁Kail	-12317
▁Kris	-12318
▁Kush	-12319
▁Lack	-12320
▁Mann	-12321
▁Mitc	-12322
▁Moon	-12323
▁PAGE	-12324
▁Padm	-12325
▁Parv	-12326
▁Path	-12327
▁Pati	-12328
▁Prem	-12329
▁Rish	-12330
▁Rock	-12331
▁Sana	-12332
▁Sham	-12333
▁Soft	-12334
▁Unit	-12335
▁Urdu	-12336
▁Wars	-12337
▁Writ	-12338
▁aven	-12339
▁bags	-12340
▁belt	-12341
▁bite	-12342
▁clos	-12343
▁cuts	-12344
▁exha	-12345
▁fant	-12346
▁fare	-12347
▁flaw	-12348
▁fond	-12349
▁glor	-12350
▁lact	-12351
▁leaf	-12352
▁leak	-12353
▁lord	-12354
▁lust	-12355
▁nurt	-12356
▁owns	-12357
▁pled	-12358
▁pref	-12359
▁raid	-12360
▁sadd	-12361
▁saut	-12362
▁scar	-12363
▁soap	-12364
▁sole	-12365
▁sore	-12366
▁tune	-12367
▁whos	-12368
abling	-12369
action	-12370
ankind	-12371
cribed	-12372
eeling	-12373
ergies	-12374
estone	-12375
garlic	-12376
iances	-12377
intend	-12378
olling	-12379
ptions	-12380
quired	-12381
spring	-12382
umbent	-12383
urches	-12384
urning	-12385
wealth	-12386
▁2016.	-12387
▁2018.	-12388
▁Akash	-12389
▁Allow	-12390
▁Beach	-12391
▁Begin	-12392
▁Bench	-12393
▁Biden	-12394
▁Block	-12395
▁Bring	-12396
▁Broad	-12397
▁Canad	-12398
▁Chick	-12399
▁Crude	-12400
▁Dipak	-12401
▁Focus	-12402
▁Front	-12403
▁Gayle	-12404
▁Gohil	-12405
▁Going	-12406
▁Gowda	-12407
▁Hooda	-12408
▁Jagan	-12409
▁Journ	-12410
▁Khatt	-12411
▁Kirti	-12412
▁Krish	-12413
▁Mater	-12414
▁Misha	-12415
▁Preet	-12416
▁Priya	-12417
▁Rajan	-12418
▁Rules	-12419
▁Saheb	-12420
▁Saini	-12421
▁Sajid	-12422
▁Sarah	-12423
▁Shard	-12424
▁Stock	-12425
▁Thess	-12426
▁Tight	-12427
▁Types	-12428
▁Visit	-12429
▁Wasim	-12430
▁Wuhan	-12431
▁Zafar	-12432
▁arose	-12433
▁casts	-12434
▁couch	-12435
▁crazy	-12436
▁diver	-12437
▁earli	-12438
▁exped	-12439
▁figur	-12440
▁giant	-12441
▁godly	-12442
▁grain	-12443
▁grasp	-12444
▁griev	-12445
▁gross	-12446
▁hails	-12447
▁harsh	-12448
▁hoped	-12449
▁lodge	-12450
▁maybe	-12451
▁memor	-12452
▁pitch	-12453
▁plain	-12454
▁reass	-12455
▁rocks	-12456
▁shatt	-12457
▁shine	-12458
▁ships	-12459
▁spots	-12460
▁stuck	-12461
▁swift	-12462
▁tribe	-12463
▁ultra	-12464
▁unite	-12465
▁utter	-12466
▁waves	-12467
Kashmir	-12468
achment	-12469
aration	-12470
avanshi	-12471
fulness	-12472
ificial	-12473
itaries	-12474
ivities	-12475
logging	-12476
ologist	-12477
ounding	-12478
reshold	-12479
uttered	-12480
▁15,000	-12481
▁Athiya	-12482
▁Chinas	-12483
▁Coloss	-12484
▁Consum	-12485
▁Davids	-12486
▁Device	-12487
▁Forbes	-12488
▁Gilead	-12489
▁Greece	-12490
▁Irrfan	-12491
▁Ivanka	-12492
▁Kundra	-12493
▁Listen	-12494
▁Mangal	-12495
▁Naresh	-12496
▁Nathan	-12497
▁Notice	-12498
▁Object	-12499
▁Oxford	-12500
▁Panday	-12501
▁Pramod	-12502
▁Rahman	-12503
▁Saxena	-12504
▁Series	-12505
▁Shares	-12506
▁Sheikh	-12507
▁Sudden	-12508
▁actual	-12509
▁adding	-12510
▁advent	-12511
▁arises	-12512
▁armies	-12513
▁assail	-12514
▁assume	-12515
▁astron	-12516
▁attain	-12517
▁banana	-12518
▁batter	-12519
▁cattle	-12520
▁celebs	-12521
▁cooked	-12522
▁couldn	-12523
▁define	-12524
▁denies	-12525
▁doused	-12526
▁drinks	-12527
▁fabric	-12528
▁feared	-12529
▁finely	-12530
▁floors	-12531
▁floral	-12532
▁flower	-12533
▁grains	-12534
▁grated	-12535
▁greets	-12536
▁harder	-12537
▁intern	-12538
▁lashes	-12539
▁levied	-12540
▁pharma	-12541
▁phrase	-12542
▁rarely	-12543
▁robbed	-12544
▁shaped	-12545
▁shrine	-12546
▁tariff	-12547
▁throne	-12548
▁tonnes	-12549
▁tragic	-12550
▁tunnel	-12551
▁unrest	-12552
▁utmost	-12553
▁worthy	-12554
Mohammed	-12555
commerce	-12556
ependent	-12557
▁Abhiyan	-12558
▁Bharuch	-12559
▁Charles	-12560
▁Fashion	-12561
▁Fathers	-12562
▁Freedom	-12563
▁Galilee	-12564
▁Imagine	-12565
▁Islands	-12566
▁Married	-12567
▁Monsoon	-12568
▁Mukerji	-12569
▁Patekar	-12570
▁Product	-12571
▁Respect	-12572
▁Revenue	-12573
▁Richter	-12574
▁Sisodia	-12575
▁Spiritu	-12576
▁Village	-12577
▁Worship	-12578
▁apology	-12579
▁artists	-12580
▁breathe	-12581
▁carrots	-12582
▁classes	-12583
▁cleaner	-12584
▁compete	-12585
▁default	-12586
▁designs	-12587
▁doubles	-12588
▁dressed	-12589
▁earning	-12590
▁essence	-12591
▁eternal	-12592
▁fervour	-12593
▁largely	-12594
▁lowered	-12595
▁monthly	-12596
▁mounted	-12597
▁painful	-12598
▁printed	-12599
▁quarrel	-12600
▁recipes	-12601
▁refresh	-12602
▁secured	-12603
▁selfish	-12604
▁shouted	-12605
▁singles	-12606
▁stretch	-12607
▁superst	-12608
▁supreme	-12609
▁thereby	-12610
▁unusual	-12611
▁warming	-12612
Ahmedabad	-12613
ellectual	-12614
ferencing	-12615
▁Actually	-12616
▁Deshmukh	-12617
▁Devotees	-12618
▁Exercise	-12619
▁Junagadh	-12620
▁Mitchell	-12621
▁Partners	-12622
▁Question	-12623
▁Tripathi	-12624
▁Umarpada	-12625
▁Vladimir	-12626
▁advocate	-12627
▁breaking	-12628
▁chickpea	-12629
▁conclude	-12630
▁condoled	-12631
▁counting	-12632
▁crossing	-12633
▁cylinder	-12634
▁discoura	-12635
▁earliest	-12636
▁engineer	-12637
▁entities	-12638
▁fruitful	-12639
▁hydrated	-12640
▁ideology	-12641
▁impacted	-12642
▁inducted	-12643
▁isolated	-12644
▁listened	-12645
▁mankinds	-12646
▁measured	-12647
▁memorial	-12648
▁mildness	-12649
▁opinions	-12650
▁patterns	-12651
▁performs	-12652
▁powdered	-12653
▁printing	-12654
▁protects	-12655
▁quantity	-12656
▁regarded	-12657
▁remedies	-12658
▁segments	-12659
▁sexually	-12660
▁shouting	-12661
▁slowdown	-12662
▁surgical	-12663
▁survivor	-12664
▁switched	-12665
▁tendency	-12666
▁unlikely	-12667
▁uprooted	-12668
▁vaccines	-12669
▁withdrew	-12670
▁Amarinder	-12671
▁Assistant	-12672
▁Chowdhury	-12673
▁Collector	-12674
▁Difficult	-12675
▁Gurdaspur	-12676
▁Knowledge	-12677
▁Manjrekar	-12678
▁Superstar	-12679
▁Wednesday	-12680
▁abilities	-12681
▁architect	-12682
▁chemicals	-12683
▁commented	-12684
▁component	-12685
▁container	-12686
▁delicious	-12687
▁depressed	-12688
▁exemplary	-12689
▁forwarded	-12690
▁harvested	-12691
▁immensely	-12692
▁introduce	-12693
▁nationals	-12694
▁nutrients	-12695
▁overseers	-12696
▁permitted	-12697
▁producers	-12698
▁protested	-12699
▁referring	-12700
▁responses	-12701
▁shattered	-12702
▁testimony	-12703
▁violating	-12704
▁voluntary	-12705
▁Background	-12706
▁Chancellor	-12707
▁Employment	-12708
▁Excellency	-12709
▁Highlights	-12710
▁Passengers	-12711
▁Vishwanath	-12712
▁aggressive	-12713
▁assessment	-12714
▁classified	-12715
▁containing	-12716
▁cultivated	-12717
▁eliminated	-12718
▁expressing	-12719
▁faithfully	-12720
▁favourable	-12721
▁integrated	-12722
▁membership	-12723
▁missionary	-12724
▁negligence	-12725
▁networking	-12726
▁officially	-12727
▁optimistic	-12728
▁philosophy	-12729
▁priorities	-12730
▁procession	-12731
▁pronounced	-12732
▁prosperous	-12733
▁restricted	-12734
▁suggestion	-12735
▁wrongdoing	-12736
▁Productions	-12737
▁approaching	-12738
▁dignitaries	-12739
▁felicitated	-12740
▁financially	-12741
▁fingerprint	-12742
▁grandmother	-12743
▁legislative	-12744
▁overwhelmed	-12745
▁recruitment	-12746
▁restoration	-12747
▁spectacular	-12748
▁Christianity	-12749
▁Construction	-12750
▁accompanying	-12751
▁cancellation	-12752
▁destinations	-12753
▁deteriorated	-12754
▁municipality	-12755
▁presidential	-12756
▁unemployment	-12757
▁Championships	-12758
▁Entertainment	-12759
▁concentration	-12760
▁contributions	-12761
▁extraordinary	-12762
▁demonetisation	-12763
▁Congratulations	-12764
!!	-12765
%%	-12766
''	-12767
--	-12768
32	-12769
39	-12770
42	-12771
72	-12772
AH	-12773
At	-12774
BS	-12775
KE	-12776
OL	-12777
PB	-12778
PP	-12779
Rs	-12780
So	-12781
TC	-12782
TH	-12783
TR	-12784
UN	-12785
Wh	-12786
bh	-12787
km	-12788
py	-12789
rd	-12790
300	-12791
IPL	-12792
abb	-12793
apu	-12794
aro	-12795
ctr	-12796
eft	-12797
ilk	-12798
irc	-12799
isi	-12800
jal	-12801
mba	-12802
orp	-12803
owk	-12804
ppa	-12805
rus	-12806
sey	-12807
tha	-12808
wag	-12809
wla	-12810
yon	-12811
▁EC	-12812
▁GP	-12813
▁Il	-12814
▁LL	-12815
▁Uz	-12816
▁Vo	-12817
▁pm	-12818
ESCO	-12819
East	-12820
IMST	-12821
That	-12822
aben	-12823
acre	-12824
adan	-12825
adow	-12826
aire	-12827
also	-12828
ansh	-12829
araj	-12830
asty	-12831
avat	-12832
bani	-12833
bhar	-12834
burs	-12835
cane	-12836
chud	-12837
file	-12838
hati	-12839
idav	-12840
ifer	-12841
ilal	-12842
indi	-12843
ipat	-12844
izer	-12845
kant	-12846
moil	-12847
mood	-12848
ogue	-12849
ombo	-12850
omic	-12851
ompe	-12852
oria	-12853
oric	-12854
oult	-12855
ovar	-12856
pose	-12857
pour	-12858
pret	-12859
real	-12860
ridi	-12861
rike	-12862
rome	-12863
utor	-12864
vrat	-12865
what	-12866
▁119	-12867
▁190	-12868
▁27.	-12869
▁288	-12870
▁3.5	-12871
▁31.	-12872
▁Aqu	-12873
▁Aud	-12874
▁Bew	-12875
▁Bud	-12876
▁Bur	-12877
▁Cro	-12878
▁Eid	-12879
▁End	-12880
▁Eye	-12881
▁HIV	-12882
▁Haw	-12883
▁Hen	-12884
▁INX	-12885
▁Isn	-12886
▁Jul	-12887
▁Kem	-12888
▁Lun	-12889
▁NAS	-12890
▁NIT	-12891
▁Nay	-12892
▁Pho	-12893
▁Puj	-12894
▁RIL	-12895
▁SCO	-12896
▁Sep	-12897
▁Tag	-12898
▁Tak	-12899
▁Tor	-12900
▁UAE	-12901
▁alm	-12902
▁bif	-12903
▁bin	-12904
▁cel	-12905
▁dur	-12906
▁dyn	-12907
▁fry	-12908
▁gap	-12909
▁gym	-12910
▁pig	-12911
▁pin	-12912
▁rat	-12913
▁raw	-12914
▁sep	-12915
▁sla	-12916
▁sle	-12917
▁tan	-12918
▁www	-12919
Jesus	-12920
abhai	-12921
aheer	-12922
aints	-12923
aksha	-12924
alini	-12925
alnut	-12926
alpur	-12927
andum	-12928
arers	-12929
avari	-12930
awada	-12931
bourn	-12932
eling	-12933
eller	-12934
empor	-12935
ensus	-12936
ewala	-12937
havda	-12938
ianic	-12939
icion	-12940
igate	-12941
igned	-12942
imize	-12943
inery	-12944
itime	-12945
odiac	-12946
oding	-12947
oster	-12948
ppled	-12949
reens	-12950
▁1000	-12951
▁2022	-12952
▁BSNL	-12953
▁Basu	-12954
▁Bhan	-12955
▁Call	-12956
▁Chet	-12957
▁Comb	-12958
▁Dear	-12959
▁Eden	-12960
▁FIFA	-12961
▁Ford	-12962
▁Gall	-12963
▁Guin	-12964
▁Hass	-12965
▁Hill	-12966
▁Iron	-12967
▁Jail	-12968
▁Jong	-12969
▁Kath	-12970
▁Konk	-12971
▁Lamb	-12972
▁Less	-12973
▁Memb	-12974
▁Merk	-12975
▁Raja	-12976
▁Rule	-12977
▁Sanj	-12978
▁Situ	-12979
▁Soha	-12980
▁Soni	-12981
▁Susp	-12982
▁Swed	-12983
▁Thir	-12984
▁Viet	-12985
▁adam	-12986
▁ally	-12987
▁amen	-12988
▁aver	-12989
▁bone	-12990
▁buzz	-12991
▁cert	-12992
▁cycl	-12993
▁drew	-12994
▁entr	-12995
▁epid	-12996
▁font	-12997
▁gamb	-12998
▁ghee	-12999
▁gram	-13000
▁hect	-13001
▁heir	-13002
▁hurd	-13003
▁irre	-13004
▁jets	-13005
▁lift	-13006
▁mile	-13007
▁outs	-13008
▁palm	-13009
▁ring	-13010
▁roof	-13011
▁soci	-13012
▁tiny	-13013
▁wipe	-13014
▁zero	-13015
IMSTEC	-13016
acious	-13017
andran	-13018
athing	-13019
bourne	-13020
culiar	-13021
erness	-13022
hemiah	-13023
heries	-13024
idency	-13025
itants	-13026
office	-13027
onding	-13028
semble	-13029
urship	-13030
usting	-13031
▁2017.	-13032
▁Ahmad	-13033
▁Appro	-13034
▁Birla	-13035
▁Boris	-13036
▁Brown	-13037
▁Chill	-13038
▁Cross	-13039
▁Daisy	-13040
▁Guest	-13041
▁Honda	-13042
▁Jamia	-13043
▁Judea	-13044
▁Lower	-13045
▁Memor	-13046
▁Mohit	-13047
▁Munde	-13048
▁Nadal	-13049
▁Names	-13050
▁Naval	-13051
▁Panel	-13052
▁Point	-13053
▁Pompe	-13054
▁Pract	-13055
▁Prize	-13056
▁Raina	-13057
▁Rayud	-13058
▁Salim	-13059
▁Sharm	-13060
▁Tihar	-13061
▁Tomar	-13062
▁Vinay	-13063
▁Vinod	-13064
▁accus	-13065
▁admon	-13066
▁alike	-13067
▁angle	-13068
▁annum	-13069
▁audio	-13070
▁bliss	-13071
▁broch	-13072
▁buyer	-13073
▁crack	-13074
▁deeds	-13075
▁demol	-13076
▁depri	-13077
▁dirty	-13078
▁doctr	-13079
▁dries	-13080
▁enorm	-13081
▁fewer	-13082
▁flags	-13083
▁flies	-13084
▁fract	-13085
▁guess	-13086
▁hence	-13087
▁hills	-13088
▁hypoc	-13089
▁ignor	-13090
▁immor	-13091
▁mouse	-13092
▁ninth	-13093
▁orbit	-13094
▁ought	-13095
▁poles	-13096
▁prize	-13097
▁rainy	-13098
▁recip	-13099
▁repay	-13100
▁scope	-13101
▁seize	-13102
▁shame	-13103
▁snake	-13104
▁stays	-13105
▁steep	-13106
▁talaq	-13107
▁tiled	-13108
▁troll	-13109
▁uncom	-13110
▁verse	-13111
▁wings	-13112
▁wrath	-13113
acteria	-13114
althier	-13115
anskrit	-13116
entions	-13117
portion	-13118
respect	-13119
starrer	-13120
ulating	-13121
undhara	-13122
▁Afridi	-13123
▁Altern	-13124
▁Argent	-13125
▁Canaan	-13126
▁Chawla	-13127
▁Coffee	-13128
▁Delete	-13129
▁Dharma	-13130
▁Elisha	-13131
▁Fatehi	-13132
▁Hashmi	-13133
▁Ishant	-13134
▁Masjid	-13135
▁Memory	-13136
▁Mosaic	-13137
▁Navjot	-13138
▁Pepper	-13139
▁Rajaka	-13140
▁Riders	-13141
▁Sengar	-13142
▁Server	-13143
▁Shoaib	-13144
▁Sister	-13145
▁Suniel	-13146
▁Taking	-13147
▁Thomas	-13148
▁Threat	-13149
▁UNESCO	-13150
▁Zaheer	-13151
▁advers	-13152
▁carbon	-13153
▁cement	-13154
▁deeper	-13155
▁delete	-13156
▁demons	-13157
▁desper	-13158
▁dishes	-13159
▁disple	-13160
▁domain	-13161
▁eighth	-13162
▁entity	-13163
▁hardly	-13164
▁immort	-13165
▁interf	-13166
▁kindly	-13167
▁landed	-13168
▁lately	-13169
▁mantra	-13170
▁menace	-13171
▁merged	-13172
▁motorb	-13173
▁nutrit	-13174
▁offend	-13175
▁overfl	-13176
▁owners	-13177
▁parade	-13178
▁perpet	-13179
▁prince	-13180
▁probed	-13181
▁queues	-13182
▁reside	-13183
▁riches	-13184
▁scroll	-13185
▁sculpt	-13186
▁slaves	-13187
▁slowed	-13188
▁stored	-13189
▁styles	-13190
▁teaser	-13191
▁thrown	-13192
▁titles	-13193
▁upheld	-13194
▁valley	-13195
▁vessel	-13196
▁voices	-13197
▁waiver	-13198
▁weapon	-13199
affected	-13200
election	-13201
regation	-13202
▁Airways	-13203
▁BIMSTEC	-13204
▁Battery	-13205
▁Centres	-13206
▁Deewela	-13207
▁Devvrat	-13208
▁Getting	-13209
▁Greater	-13210
▁Hearing	-13211
▁Injured	-13212
▁Italian	-13213
▁Kailash	-13214
▁Khattar	-13215
▁Maratha	-13216
▁Members	-13217
▁Narasim	-13218
▁Patnaik	-13219
▁Pension	-13220
▁Protest	-13221
▁Randhir	-13222
▁Spanish	-13223
▁Systems	-13224
▁Tharoor	-13225
▁Unknown	-13226
▁affidav	-13227
▁allergy	-13228
▁augment	-13229
▁beating	-13230
▁clicked	-13231
▁counted	-13232
▁creates	-13233
▁customs	-13234
▁desktop	-13235
▁despair	-13236
▁dignity	-13237
▁disburs	-13238
▁discern	-13239
▁disqual	-13240
▁eagerly	-13241
▁foolish	-13242
▁goddess	-13243
▁heading	-13244
▁honesty	-13245
▁indigen	-13246
▁intimid	-13247
▁islands	-13248
▁loading	-13249
▁migrant	-13250
▁missile	-13251
▁mosquit	-13252
▁muscles	-13253
▁musical	-13254
▁notable	-13255
▁notices	-13256
▁operate	-13257
▁organic	-13258
▁outlook	-13259
▁politic	-13260
▁prophes	-13261
▁refuses	-13262
▁resting	-13263
▁restore	-13264
▁revised	-13265
▁romance	-13266
▁scholar	-13267
▁secrets	-13268
▁segment	-13269
▁setback	-13270
▁showers	-13271
▁sincere	-13272
▁sinners	-13273
▁slavery	-13274
▁smiling	-13275
▁snapped	-13276
▁suffers	-13277
▁threats	-13278
▁turmoil	-13279
▁twitter	-13280
▁vibrant	-13281
▁volunte	-13282
▁watched	-13283
▁weekend	-13284
▁wherein	-13285
▁worldly	-13286
▁worries	-13287
intendent	-13288
▁Chemical	-13289
▁Exchange	-13290
▁Godavari	-13291
▁Guinness	-13292
▁Managing	-13293
▁Mayawati	-13294
▁Medicine	-13295
▁Muhammad	-13296
▁Nehemiah	-13297
▁Password	-13298
▁Planning	-13299
▁Politics	-13300
▁Together	-13301
▁accuracy	-13302
▁acquired	-13303
▁allowing	-13304
▁apparent	-13305
▁arriving	-13306
▁boundary	-13307
▁civilian	-13308
▁consumed	-13309
▁contents	-13310
▁controls	-13311
▁credited	-13312
▁departed	-13313
▁detected	-13314
▁disagree	-13315
▁helpless	-13316
▁immunity	-13317
▁imported	-13318
▁intended	-13319
▁interior	-13320
▁interven	-13321
▁magnific	-13322
▁mistaken	-13323
▁overseas	-13324
▁painting	-13325
▁peculiar	-13326
▁pointing	-13327
▁prestige	-13328
▁protocol	-13329
▁roadshow	-13330
▁strictly	-13331
▁thumping	-13332
▁troubles	-13333
▁wondered	-13334
confidence	-13335
▁Gorakhpur	-13336
▁Javadekar	-13337
▁Melbourne	-13338
▁Messianic	-13339
▁abdominal	-13340
▁accompany	-13341
▁achieving	-13342
▁adversely	-13343
▁airplanes	-13344
▁apartment	-13345
▁assaulted	-13346
▁ceasefire	-13347
▁contempor	-13348
▁deduction	-13349
▁depending	-13350
▁disorders	-13351
▁escalated	-13352
▁evidently	-13353
▁exemption	-13354
▁exercises	-13355
▁graduated	-13356
▁healthier	-13357
▁interfere	-13358
▁marvelous	-13359
▁obviously	-13360
▁offspring	-13361
▁paragraph	-13362
▁partition	-13363
▁practiced	-13364
▁prejudice	-13365
▁pressures	-13366
▁prevented	-13367
▁primarily	-13368
▁qualified	-13369
▁renewable	-13370
▁resulting	-13371
▁shepherds	-13372
▁shoulders	-13373
▁sugarcane	-13374
▁tightened	-13375
▁willingly	-13376
▁Historical	-13377
▁Prevention	-13378
▁Prithviraj	-13379
▁Protection	-13380
▁Strengthen	-13381
▁Vasundhara	-13382
▁accessible	-13383
▁allocation	-13384
▁assailants	-13385
▁complement	-13386
▁completing	-13387
▁compulsory	-13388
▁contagious	-13389
▁contingent	-13390
▁definition	-13391
▁figurative	-13392
▁frustrated	-13393
▁immorality	-13394
▁incomplete	-13395
▁indefinite	-13396
▁inspection	-13397
▁instructed	-13398
▁instrument	-13399
▁landslides	-13400
▁objectives	-13401
▁parameters	-13402
▁percentage	-13403
▁persecuted	-13404
▁politician	-13405
▁prescribed	-13406
▁prevailing	-13407
▁procedures	-13408
▁promotions	-13409
▁protecting	-13410
▁protective	-13411
▁reiterated	-13412
▁resistance	-13413
▁semifinals	-13414
▁solidarity	-13415
▁struggling	-13416
▁ultimately	-13417
▁vulnerable	-13418
habilitation	-13419
▁Chandrachud	-13420
▁Muzaffarpur	-13421
▁Translation	-13422
▁acquisition	-13423
▁antibiotics	-13424
▁commodities	-13425
▁communicate	-13426
▁containment	-13427
▁contestants	-13428
▁controlling	-13429
▁emotionally	-13430
▁fascinating	-13431
▁illustrated	-13432
▁limitations	-13433
▁medications	-13434
▁photography	-13435
▁replacement	-13436
▁strengthens	-13437
▁transaction	-13438
▁understands	-13439
▁Commonwealth	-13440
▁examinations	-13441
▁implementing	-13442
▁inauguration	-13443
▁intelligence	-13444
▁multilateral	-13445
▁preparedness	-13446
▁representing	-13447
▁shareholders	-13448
▁stakeholders	-13449
▁congratulates	-13450
▁disadvantages	-13451
▁inconvenience	-13452
▁Communications	-13453
▁representative	-13454
0,	-13455
02	-13456
12	-13457
38	-13458
87	-13459
94	-13460
CE	-13461
Co	-13462
DG	-13463
Dr	-13464
EF	-13465
Ex	-13466
JI	-13467
On	-13468
SI	-13469
Sa	-13470
TA	-13471
TV	-13472
UL	-13473
Un	-13474
WA	-13475
yc	-13476
▁`	-13477
-15	-13478
600	-13479
999	-13480
ART	-13481
Don	-13482
For	-13483
Man	-13484
Mus	-13485
Pad	-13486
arb	-13487
aza	-13488
cam	-13489
cow	-13490
cry	-13491
dig	-13492
gle	-13493
gov	-13494
hid	-13495
hil	-13496
izz	-13497
jar	-13498
lyn	-13499
nah	-13500
och	-13501
oco	-13502
oub	-13503
qib	-13504
sar	-13505
sun	-13506
uds	-13507
urc	-13508
van	-13509
whe	-13510
▁$1	-13511
▁77	-13512
▁82	-13513
▁96	-13514
▁AF	-13515
▁AL	-13516
▁DK	-13517
▁Jo	-13518
▁Kn	-13519
▁Ku	-13520
▁NG	-13521
▁NP	-13522
▁NR	-13523
▁Os	-13524
▁PO	-13525
▁RA	-13526
▁Ug	-13527
▁Wa	-13528
▁je	-13529
▁ug	-13530
2020	-13531
NOME	-13532
adhy	-13533
aiah	-13534
alli	-13535
anim	-13536
anna	-13537
arls	-13538
arma	-13539
atab	-13540
atis	-13541
avad	-13542
away	-13543
ayam	-13544
cons	-13545
ders	-13546
east	-13547
ects	-13548
ediy	-13549
erer	-13550
flix	-13551
gets	-13552
htub	-13553
iana	-13554
iast	-13555
iman	-13556
inic	-13557
isen	-13558
loka	-13559
made	-13560
nant	-13561
ndom	-13562
ndor	-13563
neum	-13564
oter	-13565
paid	-13566
raan	-13567
rats	-13568
reci	-13569
rows	-13570
sana	-13571
shah	-13572
uels	-13573
urta	-13574
vast	-13575
vedi	-13576
wami	-13577
week	-13578
went	-13579
yang	-13580
yers	-13581
yles	-13582
ynam	-13583
▁(20	-13584
▁1,0	-13585
▁189	-13586
▁20-	-13587
▁21,	-13588
▁23:	-13589
▁240	-13590
▁256	-13591
▁25:	-13592
▁48-	-13593
▁ACB	-13594
▁AND	-13595
▁Arp	-13596
▁Asa	-13597
▁Bis	-13598
▁Bol	-13599
▁DCP	-13600
▁Emb	-13601
▁Emp	-13602
▁Equ	-13603
▁Ess	-13604
▁Fac	-13605
▁Fre	-13606
▁Gop	-13607
▁Hig	-13608
▁INS	-13609
▁Kes	-13610
▁Kha	-13611
▁Lee	-13612
▁Lev	-13613
▁Oft	-13614
▁Owa	-13615
▁PPE	-13616
▁Pir	-13617
▁Pos	-13618
▁Pvt	-13619
▁Rap	-13620
▁SAR	-13621
▁SUV	-13622
▁Sch	-13623
▁Suj	-13624
▁Teh	-13625
▁Yem	-13626
▁ads	-13627
▁eve	-13628
▁hin	-13629
▁jar	-13630
▁jun	-13631
▁kin	-13632
▁kit	-13633
▁nic	-13634
▁ped	-13635
▁pix	-13636
▁shy	-13637
▁tig	-13638
▁ups	-13639
▁vow	-13640
▁wag	-13641
Prime	-13642
achar	-13643
amber	-13644
andon	-13645
arman	-13646
astri	-13647
eared	-13648
ersey	-13649
ffron	-13650
gence	-13651
iabad	-13652
igare	-13653
inath	-13654
isers	-13655
lined	-13656
olina	-13657
onged	-13658
orous	-13659
osals	-13660
oters	-13661
ravid	-13662
rised	-13663
stone	-13664
umper	-13665
undai	-13666
ushes	-13667
▁2011	-13668
▁Bapu	-13669
▁Belg	-13670
▁Bhoj	-13671
▁Brad	-13672
▁CEOs	-13673
▁Chir	-13674
▁Dera	-13675
▁Dial	-13676
▁Draw	-13677
▁EPFO	-13678
▁Flag	-13679
▁Game	-13680
▁Gent	-13681
▁Hair	-13682
▁Half	-13683
▁Hows	-13684
▁IDBI	-13685
▁Init	-13686
▁Khal	-13687
▁Left	-13688
▁Live	-13689
▁Manu	-13690
▁Mast	-13691
▁NASA	-13692
▁Nave	-13693
▁Neha	-13694
▁Neil	-13695
▁Poly	-13696
▁Rath	-13697
▁Rave	-13698
▁Rose	-13699
▁Sadh	-13700
▁Sand	-13701
▁Sher	-13702
▁Shin	-13703
▁Song	-13704
▁Stir	-13705
▁Surj	-13706
▁THAT	-13707
▁Tech	-13708
▁Thor	-13709
▁Turn	-13710
▁Wall	-13711
▁WiFi	-13712
▁Wife	-13713
▁airb	-13714
▁bars	-13715
▁cats	-13716
▁dict	-13717
▁disf	-13718
▁exal	-13719
▁gest	-13720
▁guns	-13721
▁hath	-13722
▁joke	-13723
▁kiss	-13724
▁kmph	-13725
▁lath	-13726
▁lend	-13727
▁mint	-13728
▁murm	-13729
▁neur	-13730
▁nick	-13731
▁node	-13732
▁okay	-13733
▁outf	-13734
▁pity	-13735
▁rebu	-13736
▁repo	-13737
▁sham	-13738
▁stew	-13739
▁taxi	-13740
▁thin	-13741
▁tops	-13742
▁trop	-13743
People	-13744
active	-13745
apping	-13746
bridge	-13747
ganese	-13748
iciary	-13749
idding	-13750
inking	-13751
isible	-13752
onians	-13753
rughan	-13754
▁1,500	-13755
▁2003,	-13756
▁2004,	-13757
▁5,000	-13758
▁AbRam	-13759
▁Avail	-13760
▁Break	-13761
▁Coast	-13762
▁Dance	-13763
▁Demon	-13764
▁Eight	-13765
▁Fight	-13766
▁Files	-13767
▁Final	-13768
▁Foods	-13769
▁GNOME	-13770
▁Gates	-13771
▁Hafiz	-13772
▁Hasan	-13773
▁Index	-13774
▁Jahan	-13775
▁Jason	-13776
▁Karun	-13777
▁Kotak	-13778
▁Loyal	-13779
▁Mudra	-13780
▁Mural	-13781
▁Murli	-13782
▁Neena	-13783
▁Order	-13784
▁Rajap	-13785
▁Rakul	-13786
▁Renew	-13787
▁Sched	-13788
▁Scott	-13789
▁Shang	-13790
▁Slice	-13791
▁Sound	-13792
▁Teach	-13793
▁Thurs	-13794
▁Tower	-13795
▁UIDAI	-13796
▁Users	-13797
▁Uzbek	-13798
▁Virus	-13799
▁Vishw	-13800
▁Yatra	-13801
▁adapt	-13802
▁adopt	-13803
▁annoy	-13804
▁apple	-13805
▁bears	-13806
▁belly	-13807
▁brows	-13808
▁chain	-13809
▁coinc	-13810
▁cruel	-13811
▁crush	-13812
▁digit	-13813
▁draft	-13814
▁drain	-13815
▁encry	-13816
▁fails	-13817
▁flows	-13818
▁grade	-13819
▁hated	-13820
▁hosts	-13821
▁kidna	-13822
▁knees	-13823
▁layer	-13824
▁lifes	-13825
▁lined	-13826
▁loose	-13827
▁lover	-13828
▁lungs	-13829
▁magic	-13830
▁metro	-13831
▁noise	-13832
▁oblig	-13833
▁ornam	-13834
▁peers	-13835
▁ports	-13836
▁repet	-13837
▁rises	-13838
▁roots	-13839
▁safer	-13840
▁saves	-13841
▁scary	-13842
▁scoot	-13843
▁snack	-13844
▁sorts	-13845
▁stiff	-13846
▁taluk	-13847
▁thumb	-13848
▁towns	-13849
▁trace	-13850
▁trash	-13851
▁usual	-13852
berries	-13853
casting	-13854
central	-13855
istical	-13856
largest	-13857
patitis	-13858
reliant	-13859
vereign	-13860
▁25,000	-13861
▁Angela	-13862
▁Ashram	-13863
▁Attack	-13864
▁Battle	-13865
▁Beauty	-13866
▁Bhatia	-13867
▁Chavda	-13868
▁Concer	-13869
▁Dancer	-13870
▁Degree	-13871
▁Delhis	-13872
▁Effect	-13873
▁Excess	-13874
▁Failed	-13875
▁Girish	-13876
▁Gunjan	-13877
▁Houses	-13878
▁Jordan	-13879
▁Kazakh	-13880
▁Kumble	-13881
▁Mayank	-13882
▁Medium	-13883
▁Merkel	-13884
▁Moscow	-13885
▁Mughal	-13886
▁Mutual	-13887
▁Nearly	-13888
▁Nether	-13889
▁Owaisi	-13890
▁Palest	-13891
▁Philip	-13892
▁Pompeo	-13893
▁Regist	-13894
▁Retail	-13895
▁Rising	-13896
▁Ronald	-13897
▁Sakshi	-13898
▁Saleem	-13899
▁Samson	-13900
▁Satish	-13901
▁Shloka	-13902
▁Singer	-13903
▁Spring	-13904
▁Strate	-13905
▁Sushil	-13906
▁Sweden	-13907
▁Tandon	-13908
▁Trumps	-13909
▁Volume	-13910
▁Yellow	-13911
▁apples	-13912
▁asleep	-13913
▁behold	-13914
▁bifurc	-13915
▁blames	-13916
▁burial	-13917
▁bypoll	-13918
▁caring	-13919
▁carrot	-13920
▁colors	-13921
▁crowds	-13922
▁deadly	-13923
▁disast	-13924
▁earths	-13925
▁entail	-13926
▁facult	-13927
▁fights	-13928
▁finest	-13929
▁frying	-13930
▁gender	-13931
▁hectic	-13932
▁heroes	-13933
▁holder	-13934
▁hotels	-13935
▁hugely	-13936
▁humili	-13937
▁impart	-13938
▁incent	-13939
▁incess	-13940
▁intake	-13941
▁kidney	-13942
▁landsc	-13943
▁luxury	-13944
▁maiden	-13945
▁microw	-13946
▁nurses	-13947
▁raping	-13948
▁recons	-13949
▁relate	-13950
▁relent	-13951
▁rested	-13952
▁resume	-13953
▁revers	-13954
▁shells	-13955
▁soared	-13956
▁strain	-13957
▁tabled	-13958
▁thinks	-13959
▁topics	-13960
▁topped	-13961
▁unanim	-13962
▁werent	-13963
▁zodiac	-13964
ammation	-13965
aramaiah	-13966
building	-13967
cycloped	-13968
ountered	-13969
ramanian	-13970
ribution	-13971
▁Aaditya	-13972
▁Biotech	-13973
▁Bipasha	-13974
▁Changes	-13975
▁Chicken	-13976
▁Clinton	-13977
▁Colombo	-13978
▁Gambhir	-13979
▁Gorilla	-13980
▁Granted	-13981
▁Hardeep	-13982
▁Hyundai	-13983
▁Install	-13984
▁Israels	-13985
▁Jasprit	-13986
▁Markets	-13987
▁Mehsana	-13988
▁Mumbais	-13989
▁Netflix	-13990
▁Pharise	-13991
▁Reduces	-13992
▁Rishabh	-13993
▁Sarovar	-13994
▁Setting	-13995
▁Shastri	-13996
▁Shivaji	-13997
▁Shortly	-13998
▁Skipper	-13999
▁Thessal	-14000
▁Traders	-14001
▁Trivedi	-14002
▁Univers	-14003
▁adamant	-14004
▁apprehe	-14005
▁ashamed	-14006
▁bathtub	-14007
▁blocked	-14008
▁booking	-14009
▁briefed	-14010
▁carries	-14011
▁chronic	-14012
▁clarity	-14013
▁cleared	-14014
▁climbed	-14015
▁crashed	-14016
▁crowded	-14017
▁dangers	-14018
▁defense	-14019
▁deities	-14020
▁density	-14021
▁deposit	-14022
▁devoted	-14023
▁execute	-14024
▁exhibit	-14025
▁fearing	-14026
▁federal	-14027
▁festive	-14028
▁fitting	-14029
▁flowing	-14030
▁hosting	-14031
▁insight	-14032
▁lending	-14033
▁letting	-14034
▁marital	-14035
▁masters	-14036
▁mindset	-14037
▁neglect	-14038
▁offline	-14039
▁oranges	-14040
▁posters	-14041
▁posting	-14042
▁reconst	-14043
▁refrain	-14044
▁removal	-14045
▁renamed	-14046
▁renewed	-14047
▁resumed	-14048
▁revival	-14049
▁shooter	-14050
▁smashed	-14051
▁spinach	-14052
▁stabbed	-14053
▁subsidy	-14054
▁textile	-14055
▁thieves	-14056
▁tremors	-14057
▁whoever	-14058
▁wrapped	-14059
including	-14060
scription	-14061
▁Accident	-14062
▁Buddhist	-14063
▁Capitals	-14064
▁Daughter	-14065
▁Diabetes	-14066
▁Historic	-14067
▁Jitendra	-14068
▁Problems	-14069
▁Rainfall	-14070
▁Rajkumar	-14071
▁Register	-14072
▁Software	-14073
▁Southern	-14074
▁Standard	-14075
▁Vehicles	-14076
▁agitated	-14077
▁apprised	-14078
▁baseless	-14079
▁bleeding	-14080
▁brochure	-14081
▁cardamom	-14082
▁churches	-14083
▁circular	-14084
▁commands	-14085
▁condemns	-14086
▁consolid	-14087
▁convince	-14088
▁courtesy	-14089
▁cucumber	-14090
▁discover	-14091
▁discreet	-14092
▁diverted	-14093
▁divisive	-14094
▁downpour	-14095
▁enduring	-14096
▁engaging	-14097
▁entrance	-14098
▁epidemic	-14099
▁excluded	-14100
▁grandson	-14101
▁gunfight	-14102
▁landmark	-14103
▁levelled	-14104
▁locality	-14105
▁maternal	-14106
▁merchant	-14107
▁observes	-14108
▁packages	-14109
▁presents	-14110
▁preserve	-14111
▁publicly	-14112
▁relating	-14113
▁relieved	-14114
▁reminded	-14115
▁rumoured	-14116
▁screened	-14117
▁snowfall	-14118
▁steadily	-14119
▁striking	-14120
▁suburban	-14121
▁swimming	-14122
▁teenager	-14123
▁touching	-14124
▁traveled	-14125
▁vomiting	-14126
▁Chartered	-14127
▁Executive	-14128
▁Ghaziabad	-14129
▁Implement	-14130
▁Narasimha	-14131
▁Sovereign	-14132
▁Surjewala	-14133
▁accepting	-14134
▁affidavit	-14135
▁amounting	-14136
▁attitudes	-14137
▁badminton	-14138
▁believing	-14139
▁benchmark	-14140
▁conductor	-14141
▁confessed	-14142
▁delighted	-14143
▁dependent	-14144
▁detention	-14145
▁diagnosed	-14146
▁directing	-14147
▁disasters	-14148
▁disbursed	-14149
▁dismisses	-14150
▁elephants	-14151
▁engineers	-14152
▁exchanged	-14153
▁exchanges	-14154
▁expanding	-14155
▁institute	-14156
▁intention	-14157
▁investing	-14158
▁invisible	-14159
▁lathichar	-14160
▁launching	-14161
▁legendary	-14162
▁magazines	-14163
▁manganese	-14164
▁manifesto	-14165
▁marriages	-14166
▁mortality	-14167
▁neglected	-14168
▁northeast	-14169
▁operators	-14170
▁ornaments	-14171
▁portrayed	-14172
▁prevalent	-14173
▁proceeded	-14174
▁professor	-14175
▁proposals	-14176
▁rendering	-14177
▁respected	-14178
▁satellite	-14179
▁sidelines	-14180
▁struggled	-14181
▁surviving	-14182
▁sweetness	-14183
▁typically	-14184
▁vegetable	-14185
▁Addressing	-14186
▁Brahmastra	-14187
▁Republican	-14188
▁Reputation	-14189
▁Scientific	-14190
▁Shatrughan	-14191
▁Throughout	-14192
▁Uzbekistan	-14193
▁Williamson	-14194
▁calculated	-14195
▁consistent	-14196
▁devastated	-14197
▁dimensions	-14198
▁downloaded	-14199
▁fellowship	-14200
▁indicators	-14201
▁infectious	-14202
▁misleading	-14203
▁newspapers	-14204
▁nutritious	-14205
▁panchayats	-14206
▁perfection	-14207
▁pilgrimage	-14208
▁preventive	-14209
▁prohibited	-14210
▁prophecies	-14211
▁reflection	-14212
▁sentiments	-14213
▁strategies	-14214
▁suspension	-14215
▁weaknesses	-14216
▁worshipers	-14217
▁Accordingly	-14218
▁Chandrakant	-14219
▁Electronics	-14220
▁Enforcement	-14221
▁Netherlands	-14222
▁accordingly	-14223
▁acknowledge	-14224
▁advertising	-14225
▁conclusions	-14226
▁corporation	-14227
▁declaration	-14228
▁empowerment	-14229
▁encountered	-14230
▁friendships	-14231
▁grandfather	-14232
▁inaugurates	-14233
▁instruments	-14234
▁journalists	-14235
▁restaurants	-14236
▁threatening	-14237
▁transported	-14238
▁tribulation	-14239
▁willingness	-14240
▁Organization	-14241
▁Presidential	-14242
▁Siddaramaiah	-14243
▁anticipatory	-14244
▁championship	-14245
▁confidential	-14246
▁consultation	-14247
▁experiencing	-14248
▁extinguished	-14249
▁faithfulness	-14250
▁firefighters	-14251
▁inflammation	-14252
▁introduction	-14253
▁manufactured	-14254
▁Communication	-14255
▁advertisement	-14256
▁comprehensive	-14257
▁demonstration	-14258
▁interrogating	-14259
▁professionals	-14260
▁Identification	-14261
▁demonstrations	-14262
▁Representatives	-14263
/-	-14264
2-	-14265
3)	-14266
64	-14267
77	-14268
84	-14269
88	-14270
Al	-14271
Bl	-14272
CD	-14273
DE	-14274
DL	-14275
De	-14276
GH	-14277
GS	-14278
HA	-14279
MO	-14280
Mo	-14281
Ms	-14282
Ps	-14283
SL	-14284
To	-14285
UI	-14286
],	-14287
fi	-14288
lu	-14289
mm	-14290
.5%	-14291
ENT	-14292
God	-14293
LTE	-14294
SIT	-14295
aba	-14296
agi	-14297
awn	-14298
bps	-14299
can	-14300
cho	-14301
eti	-14302
far	-14303
few	-14304
gas	-14305
god	-14306
gyz	-14307
isp	-14308
kat	-14309
kin	-14310
map	-14311
ogy	-14312
oos	-14313
thy	-14314
uma	-14315
urb	-14316
vol	-14317
▁76	-14318
▁92	-14319
▁94	-14320
▁EU	-14321
▁MM	-14322
▁Ol	-14323
▁Ri	-14324
▁ki	-14325
▁ma	-14326
▁om	-14327
▁oo	-14328
abai	-14329
abal	-14330
abel	-14331
acco	-14332
aksa	-14333
akti	-14334
alin	-14335
alla	-14336
anas	-14337
arak	-14338
arel	-14339
aven	-14340
ayer	-14341
cest	-14342
dney	-14343
elve	-14344
enon	-14345
ette	-14346
fish	-14347
ghar	-14348
gran	-14349
hapa	-14350
haya	-14351
heri	-14352
hwag	-14353
iala	-14354
iang	-14355
igan	-14356
ilak	-14357
illy	-14358
inde	-14359
inee	-14360
irds	-14361
iser	-14362
itan	-14363
iven	-14364
odus	-14365
ogen	-14366
oler	-14367
oman	-14368
omin	-14369
onel	-14370
opor	-14371
pled	-14372
plus	-14373
rack	-14374
rama	-14375
rane	-14376
rika	-14377
rist	-14378
tees	-14379
that	-14380
tiaz	-14381
uddy	-14382
uese	-14383
umns	-14384
urea	-14385
usty	-14386
veen	-14387
▁(%.	-14388
▁101	-14389
▁112	-14390
▁115	-14391
▁129	-14392
▁21-	-14393
▁22:	-14394
▁23,	-14395
▁34.	-14396
▁36.	-14397
▁41,	-14398
▁750	-14399
▁900	-14400
▁ARE	-14401
▁Bai	-14402
▁Beh	-14403
▁Cas	-14404
▁Cat	-14405
▁Cin	-14406
▁Dog	-14407
▁Fun	-14408
▁Hal	-14409
▁Hit	-14410
▁Hyd	-14411
▁Iss	-14412
▁JJP	-14413
▁Kag	-14414
▁Kok	-14415
▁Kol	-14416
▁Kyr	-14417
▁Lab	-14418
▁Lin	-14419
▁Los	-14420
▁Mao	-14421
▁Obs	-14422
▁Ore	-14423
▁PPF	-14424
▁PRO	-14425
▁PUB	-14426
▁Pen	-14427
▁Rif	-14428
▁Rio	-14429
▁SIM	-14430
▁Sag	-14431
▁Sem	-14432
▁Sex	-14433
▁Sus	-14434
▁Sut	-14435
▁Tea	-14436
▁Tib	-14437
▁Tok	-14438
▁Und	-14439
▁Van	-14440
▁Way	-14441
▁dub	-14442
▁hug	-14443
▁jag	-14444
▁lob	-14445
▁mad	-14446
▁mas	-14447
▁ori	-14448
▁rad	-14449
▁wit	-14450
Amend	-14451
Gener	-14452
about	-14453
adhak	-14454
adiya	-14455
andan	-14456
anpur	-14457
aviya	-14458
ayana	-14459
ceeds	-14460
crete	-14461
cular	-14462
cycle	-14463
eddon	-14464
endom	-14465
ennis	-14466
esome	-14467
etary	-14468
gradu	-14469
harat	-14470
herry	-14471
ifier	-14472
imala	-14473
inked	-14474
izers	-14475
izont	-14476
jamin	-14477
judge	-14478
kaiah	-14479
nered	-14480
ostic	-14481
raged	-14482
scale	-14483
scene	-14484
ubali	-14485
umble	-14486
ungal	-14487
ussle	-14488
years	-14489
▁""",	-14490
▁(200	-14491
▁1-0.	-14492
▁1999	-14493
▁370.	-14494
▁500.	-14495
▁5000	-14496
▁Alok	-14497
▁Amir	-14498
▁Arch	-14499
▁Asad	-14500
▁Asif	-14501
▁Baat	-14502
▁Ball	-14503
▁Bish	-14504
▁Boil	-14505
▁Bond	-14506
▁Chem	-14507
▁Crim	-14508
▁Days	-14509
▁Deve	-14510
▁Easy	-14511
▁Fame	-14512
▁Flor	-14513
▁Harv	-14514
▁ICMR	-14515
▁Indr	-14516
▁Itll	-14517
▁Jaff	-14518
▁Janm	-14519
▁Jenn	-14520
▁MSME	-14521
▁Mach	-14522
▁Mars	-14523
▁NGOs	-14524
▁Nabi	-14525
▁Neel	-14526
▁Nith	-14527
▁Omar	-14528
▁Page	-14529
▁Prad	-14530
▁Rape	-14531
▁Rite	-14532
▁Safe	-14533
▁Shir	-14534
▁Sita	-14535
▁Sore	-14536
▁Sukh	-14537
▁Town	-14538
▁User	-14539
▁Verm	-14540
▁Vire	-14541
▁Vist	-14542
▁Wait	-14543
▁Wake	-14544
▁Walk	-14545
▁Walm	-14546
▁Week	-14547
▁Wing	-14548
▁Yami	-14549
▁Zero	-14550
▁abol	-14551
▁beef	-14552
▁bell	-14553
▁cage	-14554
▁carn	-14555
▁cram	-14556
▁dele	-14557
▁drag	-14558
▁fats	-14559
▁halt	-14560
▁harb	-14561
▁heal	-14562
▁hunt	-14563
▁inev	-14564
▁kits	-14565
▁knot	-14566
▁lime	-14567
▁matt	-14568
▁medi	-14569
▁pull	-14570
▁pump	-14571
▁rift	-14572
▁seas	-14573
▁stag	-14574
▁tomb	-14575
▁unse	-14576
adhyay	-14577
ainted	-14578
aments	-14579
ananda	-14580
ancies	-14581
arcity	-14582
aswati	-14583
elight	-14584
igated	-14585
ignesh	-14586
inates	-14587
inding	-14588
inence	-14589
laimed	-14590
manent	-14591
matics	-14592
rieved	-14593
rified	-14594
sunami	-14595
ulates	-14596
ustain	-14597
vering	-14598
▁9,000	-14599
▁Aayog	-14600
▁Armag	-14601
▁Aryan	-14602
▁Build	-14603
▁Chhat	-14604
▁Choud	-14605
▁Clear	-14606
▁Cyber	-14607
▁Dande	-14608
▁Dream	-14609
▁Extra	-14610
▁Finch	-14611
▁Girls	-14612
▁Guard	-14613
▁Hamid	-14614
▁Himal	-14615
▁Hosea	-14616
▁Hotel	-14617
▁Jimmy	-14618
▁Kalam	-14619
▁Kemmu	-14620
▁Kochi	-14621
▁Looks	-14622
▁Lords	-14623
▁Madhu	-14624
▁Mahal	-14625
▁Manek	-14626
▁Mathe	-14627
▁Often	-14628
▁Paras	-14629
▁Pixel	-14630
▁Plant	-14631
▁Puduc	-14632
▁Quick	-14633
▁Rohan	-14634
▁Sadly	-14635
▁Saina	-14636
▁Sanju	-14637
▁Scale	-14638
▁Siddh	-14639
▁Signs	-14640
▁Sikhs	-14641
▁Skill	-14642
▁Soory	-14643
▁Stone	-14644
▁Sudan	-14645
▁Syria	-14646
▁Table	-14647
▁Tears	-14648
▁Tejas	-14649
▁Usman	-14650
▁Whose	-14651
▁Write	-14652
▁Yemen	-14653
▁agent	-14654
▁alias	-14655
▁apert	-14656
▁blaze	-14657
▁blend	-14658
▁boats	-14659
▁bombs	-14660
▁bonds	-14661
▁brave	-14662
▁bride	-14663
▁cares	-14664
▁chaos	-14665
▁cheer	-14666
▁civic	-14667
▁curve	-14668
▁datab	-14669
▁deals	-14670
▁dense	-14671
▁displ	-14672
▁dowry	-14673
▁draws	-14674
▁dried	-14675
▁encom	-14676
▁feast	-14677
▁fires	-14678
▁flick	-14679
▁freed	-14680
▁guilt	-14681
▁humid	-14682
▁irrit	-14683
▁kurta	-14684
▁lamps	-14685
▁loses	-14686
▁mango	-14687
▁obser	-14688
▁pants	-14689
▁persu	-14690
▁pulls	-14691
▁queue	-14692
▁rides	-14693
▁roped	-14694
▁salad	-14695
▁sinks	-14696
▁spoon	-14697
▁stops	-14698
▁venue	-14699
▁visas	-14700
▁vocal	-14701
▁walks	-14702
agonist	-14703
captain	-14704
century	-14705
eddings	-14706
eshwari	-14707
eworthy	-14708
feeding	-14709
forward	-14710
hetoric	-14711
ocratic	-14712
ointing	-14713
omegran	-14714
regular	-14715
sequent	-14716
steopor	-14717
ugitive	-14718
umbling	-14719
ynching	-14720
▁2017-1	-14721
▁30,000	-14722
▁Aayush	-14723
▁Almost	-14724
▁Arijit	-14725
▁Aurang	-14726
▁Beware	-14727
▁Bullet	-14728
▁Buying	-14729
▁Chahar	-14730
▁Chudas	-14731
▁Compet	-14732
▁Course	-14733
▁Dawood	-14734
▁Depart	-14735
▁Deuter	-14736
▁Dravid	-14737
▁Emraan	-14738
▁Esther	-14739
▁Gospel	-14740
▁Growth	-14741
▁Hassan	-14742
▁Impact	-14743
▁Imtiaz	-14744
▁Inside	-14745
▁Island	-14746
▁Josiah	-14747
▁Kakkar	-14748
▁Kyrgyz	-14749
▁Living	-14750
▁Michel	-14751
▁Monday	-14752
▁Netaji	-14753
▁Orange	-14754
▁Palace	-14755
▁Pharma	-14756
▁Phogat	-14757
▁Pujara	-14758
▁Radhak	-14759
▁Rating	-14760
▁Seeing	-14761
▁Sehwag	-14762
▁Shinde	-14763
▁Shinzo	-14764
▁Shruti	-14765
▁Simmba	-14766
▁Switch	-14767
▁Sydney	-14768
▁Vishal	-14769
▁aerial	-14770
▁agrees	-14771
▁ancest	-14772
▁angles	-14773
▁archae	-14774
▁assure	-14775
▁athlet	-14776
▁attent	-14777
▁blasts	-14778
▁boosts	-14779
▁brands	-14780
▁celery	-14781
▁client	-14782
▁compos	-14783
▁contra	-14784
▁deploy	-14785
▁desert	-14786
▁detect	-14787
▁editor	-14788
▁fairly	-14789
▁fright	-14790
▁gifted	-14791
▁hostel	-14792
▁jacket	-14793
▁judged	-14794
▁jumped	-14795
▁lauded	-14796
▁locust	-14797
▁lovers	-14798
▁metals	-14799
▁mortem	-14800
▁pitted	-14801
▁pixels	-14802
▁postal	-14803
▁prefer	-14804
▁proven	-14805
▁pushed	-14806
▁random	-14807
▁rubber	-14808
▁ruined	-14809
▁shorts	-14810
▁slated	-14811
▁spices	-14812
▁submer	-14813
▁tenure	-14814
▁throng	-14815
▁unders	-14816
▁unless	-14817
▁unlock	-14818
▁uphold	-14819
▁verses	-14820
▁wagons	-14821
▁waived	-14822
▁wasted	-14823
▁wheels	-14824
Mohammad	-14825
chnology	-14826
inarayan	-14827
lessness	-14828
missions	-14829
neumonia	-14830
ographed	-14831
ufacture	-14832
ventions	-14833
▁Akshaye	-14834
▁Angeles	-14835
▁Arabian	-14836
▁Bahujan	-14837
▁Banking	-14838
▁Brigade	-14839
▁Certain	-14840
▁Clashes	-14841
▁Diamond	-14842
▁Display	-14843
▁Feeling	-14844
▁Govinda	-14845
▁Gurmeet	-14846
▁Hanuman	-14847
▁Healthy	-14848
▁Improve	-14849
▁Include	-14850
▁Iranian	-14851
▁Karthik	-14852
▁Keeping	-14853
▁Knowing	-14854
▁Minimum	-14855
▁Package	-14856
▁Peoples	-14857
▁Physics	-14858
▁Players	-14859
▁Quality	-14860
▁Raising	-14861
▁Reports	-14862
▁Riteish	-14863
▁Serious	-14864
▁Shibani	-14865
▁Studies	-14866
▁Subject	-14867
▁Talking	-14868
▁Textile	-14869
▁Vehicle	-14870
▁Version	-14871
▁Victory	-14872
▁Vietnam	-14873
▁Walmart	-14874
▁abdomen	-14875
▁amended	-14876
▁anyones	-14877
▁appoint	-14878
▁athlete	-14879
▁avenues	-14880
▁brewing	-14881
▁casting	-14882
▁ceiling	-14883
▁cleanse	-14884
▁columns	-14885
▁conform	-14886
▁corresp	-14887
▁decides	-14888
▁deficit	-14889
▁denying	-14890
▁discipl	-14891
▁disturb	-14892
▁educate	-14893
▁ensured	-14894
▁expense	-14895
▁explore	-14896
▁exposed	-14897
▁finding	-14898
▁fittest	-14899
▁flavour	-14900
▁formula	-14901
▁handled	-14902
▁honours	-14903
▁inherit	-14904
▁inspire	-14905
▁jumping	-14906
▁leather	-14907
▁letters	-14908
▁licence	-14909
▁lookout	-14910
▁minutes	-14911
▁onboard	-14912
▁outfits	-14913
▁portion	-14914
▁praises	-14915
▁precise	-14916
▁prepaid	-14917
▁ranking	-14918
▁ratings	-14919
▁recalls	-14920
▁regards	-14921
▁rightly	-14922
▁robbers	-14923
▁robbery	-14924
▁scalped	-14925
▁scribes	-14926
▁sensors	-14927
▁separat	-14928
▁serials	-14929
▁slipped	-14930
▁stylish	-14931
▁subsidi	-14932
▁talents	-14933
▁tallest	-14934
▁tariffs	-14935
▁unclean	-14936
▁urgency	-14937
▁urinals	-14938
▁vinegar	-14939
▁violate	-14940
▁warrant	-14941
Amendment	-14942
Americans	-14943
elections	-14944
inistries	-14945
▁Advocate	-14946
▁Ayurveda	-14947
▁Benjamin	-14948
▁Canadian	-14949
▁Carolina	-14950
▁Continue	-14951
▁Creating	-14952
▁Criminal	-14953
▁Dandekar	-14954
[...]
