<pad>	0
<unk>	0
<s>	0
</s>	0
▁ક	-0
▁પ	-1
મા	-2
▁સ	-3
્ય	-4
▁છ	-5
ને	-6
▁આ	-7
▁ત	-8
ાર	-9
્ર	-10
▁છે	-11
ના	-12
▁અ	-13
માં	-14
▁જ	-15
વા	-16
▁હ	-17
ું	-18
▁મ	-19
ની	-20
▁ર	-21
▁વ	-22
▁બ	-23
▁કર	-24
▁તે	-25
▁ન	-26
તા	-27
▁શ	-28
▁એ	-29
ર્	-30
▁દ	-31
▁લ	-32
થી	-33
▁અને	-34
▁મા	-35
▁ગ	-36
સ્	-37
્યા	-38
▁ભ	-39
નો	-40
▁પ્ર	-41
ન્	-42
ક્	-43
▁પર	-44
લા	-45
▁હત	-46
યા	-47
▁થ	-48
વી	-49
▁સા	-50
ટે	-51
▁વિ	-52
▁ખ	-53
રી	-54
▁ફ	-55
રા	-56
▁કે	-57
▁ચ	-58
લી	-59
મે	-60
હે	-61
િક	-62
▁પણ	-63
ંગ	-64
▁કો	-65
ંત	-66
શે	-67
▁સ્	-68
▁આવ	-69
ાય	-70
▁રા	-71
▁ઉ	-72
▁આપ	-73
કો	-74
▁એક	-75
્યો	-76
▁કરી	-77
લ્	-78
ાન	-79
▁માટે	-80
િત	-81
નું	-82
▁જો	-83
વામાં	-84
▁પા	-85
▁જે	-86
હી	-87
▁પો	-88
િયા	-89
▁તેમ	-90
▁ટ	-91
યો	-92
્યું	-93
્રી	-94
▁મો	-95
ણે	-96
▁ઘ	-97
રે	-98
ત્	-99
કા	-100
કે	-101
થે	-102
▁બા	-103
રો	-104
ણી	-105
તી	-106
▁હતી	-107
ારે	-108
▁સાથે	-109
▁લો	-110
ેશ	-111
તિ	-112
ાવ	-113
▁ધ	-114
ક્ષ	-115
▁નથી	-116
▁સં	-117
▁વા	-118
ામ	-119
▁બે	-120
કાર	-121
▁હો	-122
તે	-123
ડી	-124
ધી	-125
▁હતા	-126
▁સુ	-127
દી	-128
▁મુ	-129
િલ્	-130
સે	-131
ાલ	-132
▁સમ	-133
વાર	-134
▁કાર	-135
▁ડ	-136
લે	-137
્રે	-138
ટી	-139
▁ભાર	-140
શ્	-141
ાગ	-142
િય	-143
▁ના	-144
▁મળ	-145
▁વધ	-146
▁રહ	-147
જી	-148
▁ય	-149
▁ઈ	-150
રૂ	-151
ાં	-152
▁હતો	-153
▁લોકો	-154
ષ્	-155
▁જા	-156
ડા	-157
િવ	-158
હો	-159
▁કરવા	-160
કી	-161
તો	-162
▁મે	-163
ાસ	-164
▁શું	-165
▁ઓ	-166
સ્ટ	-167
▁1	-168
ંદ	-169
▁તો	-170
જા	-171
ારી	-172
▁પોલી	-173
ત્ર	-174
લો	-175
સા	-176
દ્	-177
વે	-178
ાજ	-179
▁તમા	-180
▁ઇ	-181
▁આવી	-182
્યારે	-183
▁મહ	-184
ણા	-185
▁રાજ	-186
▁રી	-187
▁સર	-188
ાર્	-189
▁ઉપ	-190
▁ભારત	-191
ંચ	-192
સી	-193
▁નિ	-194
▁ફિલ્	-195
ંધ	-196
વું	-197
▁કરવામાં	-198
્યાં	-199
▁રહે	-200
▁ફિલ્મ	-201
▁જી	-202
સ્ત	-203
▁હતું	-204
િંગ	-205
▁કોઈ	-206
▁તેઓ	-207
▁અન	-208
ન્ડ	-209
▁રીતે	-210
પી	-211
વિ	-212
મી	-213
ટા	-214
ટર	-215
▁(	-216
▁ગુ	-217
▁આવે	-218
▁કરો	-219
િં	-220
▁થઈ	-221
▁પૂ	-222
શન	-223
ધાન	-224
▁રો	-225
ાઈ	-226
ષ્ટ	-227
▁વ્ય	-228
▁2	-229
▁શા	-230
ંતુ	-231
ચ્	-232
ંત્રી	-233
▁સ્થ	-234
▁પોતા	-235
દા	-236
▁બી	-237
માન	-238
▁પરંતુ	-239
વો	-240
ન્દ	-241
પૂ	-242
▁લે	-243
""	-244
▁સે	-245
સ્થ	-246
્યુ	-247
▁રહી	-248
▁રૂ	-249
ધા	-250
ટના	-251
▁ને	-252
ીએ	-253
પ્	-254
નાં	-255
હીં	-256
▁તમે	-257
▁હોય	-258
ારા	-259
▁બો	-260
▁પુ	-261
મ્	-262
▁નો	-263
છી	-264
▁સમય	-265
ારો	-266
▁ની	-267
▁દેશ	-268
▁મોદી	-269
▁લી	-270
વાની	-271
▁વર્	-272
▁બના	-273
ન્ટ	-274
▁પહે	-275
▁દે	-276
ાળ	-277
▁‘	-278
▁કરે	-279
▁શક	-280
▁મુખ	-281
▁વધુ	-282
▁હું	-283
▁અમે	-284
▁કામ	-285
ચે	-286
▁જોઈ	-287
▁પડ	-288
▁ખે	-289
▁લા	-290
પ્ર	-291
▁પોલીસ	-292
િટ	-293
બા	-294
વર	-295
યોગ	-296
▁હા	-297
દેશ	-298
▁છો	-299
િલ	-300
ટો	-301
ર્ણ	-302
▁પરિ	-303
▁તેના	-304
્રેસ	-305
▁યુ	-306
▁સો	-307
ેર	-308
▁રાખ	-309
િસ્	-310
▁શકે	-311
ર્ટ	-312
▁મુખ્ય	-313
▁આગ	-314
દ્ધ	-315
▁દી	-316
▁દ્	-317
માંથી	-318
બી	-319
સો	-320
ન્દ્ર	-321
▁૧	-322
ભા	-323
▁થાય	-324
▁અમ	-325
વન	-326
મંત્રી	-327
▁આપણે	-328
▁સરકાર	-329
▁સામે	-330
ન્સ	-331
▁સૌ	-332
્રા	-333
ાજપ	-334
ીડ	-335
શા	-336
વારા	-337
▁પછી	-338
▁રહ્યા	-339
▁ભાજપ	-340
▁કાર્ય	-341
ુલ	-342
ક્ર	-343
▁ચૂ	-344
▁જવા	-345
ૂબ	-346
▁કર્યો	-347
▁દ્વારા	-348
▁ઘટના	-349
ણો	-350
▁દુ	-351
▁સુધી	-352
00	-353
▁કોંગ	-354
▁કેટ	-355
▁વાત	-356
ેટ	-357
▁તેની	-358
▁જરૂ	-359
▁તેને	-360
પા	-361
િકા	-362
▁બાદ	-363
▁લાગ	-364
▁તેમણે	-365
ંડ	-366
▁“	-367
ક્તિ	-368
▁કા	-369
રમાં	-370
ર્વ	-371
▁ટી	-372
પાસ	-373
તાં	-374
▁પોલીસે	-375
▁સિ	-376
▁ઝ	-377
ળી	-378
▁માં	-379
ંક	-380
ુક	-381
▁સી	-382
▁ખૂબ	-383
▁યહો	-384
▁રાજ્ય	-385
▁દર	-386
▁ટે	-387
▁અભ	-388
રાત	-389
મો	-390
▁દિવ	-391
ેલા	-392
િન	-393
્રો	-394
▁જોઈએ	-395
પો	-396
▁કોંગ્રેસ	-397
ંટ	-398
▁ભાગ	-399
યું	-400
ક્સ	-401
▁રે	-402
જુ	-403
જે	-404
▁-	-405
▁મળી	-406
▁યહોવા	-407
▁કહ	-408
▁લગ	-409
મને	-410
ચાર	-411
▁ફો	-412
▁અધ	-413
▁સમા	-414
▁ઉત્	-415
▁ક્	-416
▁તપાસ	-417
▁જ્યારે	-418
▁બનાવ	-419
લમાં	-420
▁બાળ	-421
ગી	-422
▁આપી	-423
રુ	-424
ઓને	-425
હિત	-426
ંગે	-427
સર	-428
▁કં	-429
▁શરૂ	-430
▁નહીં	-431
▁ખા	-432
તર	-433
ણાવ	-434
▁આવ્યા	-435
▁કર્યું	-436
▁સૌથી	-437
તાન	-438
ર્ચ	-439
▁ભૂ	-440
▁ચાલ	-441
ળા	-442
▁હાલ	-443
▁જોવા	-444
શો	-445
▁થશે	-446
્સ	-447
▁અનુ	-448
▁પ્રધાન	-449
▁તેમના	-450
▁બહ	-451
▁પહો	-452
▁આરો	-453
▁કહ્યું	-454
ર્થ	-455
▁મહિ	-456
▁ભારતી	-457
▁”	-458
ક્ત	-459
ંભ	-460
▁હે	-461
▁થઇ	-462
▁હાથ	-463
ષ્ટ્ર	-464
▁આવ્યો	-465
ત્ય	-466
જૂ	-467
સુ	-468
વાદ	-469
▁ખુ	-470
▁ત્યારે	-471
▁ગુજ	-472
▁વે	-473
▁પહેલા	-474
ષે	-475
▁પહોંચ	-476
▁બં	-477
બર	-478
▁જાણ	-479
કર	-480
▁થયા	-481
▁મૂ	-482
▁પોતાના	-483
જન	-484
▁તેમને	-485
▁3	-486
▁જેમાં	-487
ક્ટ	-488
▁મને	-489
▁કારણે	-490
▁તમારા	-491
સ્પ	-492
▁રહ્યો	-493
ચી	-494
▁ત્ર	-495
▁ભારતીય	-496
▁બેઠ	-497
▁તેમની	-498
▁પાસે	-499
બંધ	-500
▁છીએ	-501
▁છું	-502
▁ઊ	-503
▁પાક	-504
ર્સ	-505
▁ખાન	-506
લું	-507
વાનો	-508
▁અંગે	-509
▁જોકે	-510
ત્વ	-511
▁ગયા	-512
રિયા	-513
▁બંને	-514
થા	-515
▁બન	-516
▁દા	-517
િસ	-518
▁""	-519
નમાં	-520
▁સાર	-521
થમ	-522
▁ગુજરાત	-523
હેર	-524
ંટણી	-525
▁દિલ્	-526
િયો	-527
..	-528
▁કરોડ	-529
દો	-530
▁તર	-531
▁કેવી	-532
▁ગાં	-533
િમ	-534
▁પે	-535
▁જણાવ	-536
શી	-537
▁યા	-538
▁માન	-539
ચ્ચે	-540
▁વિશ્	-541
▁કહે	-542
▁એમ	-543
ખા	-544
▁વચ્ચે	-545
▁5	-546
▁જીવન	-547
▁ચૂંટણી	-548
ક્ષા	-549
િતિ	-550
વાનું	-551
ગર	-552
▁ત્યાં	-553
▁ચો	-554
▁દિલ્હી	-555
▁શો	-556
▁થયો	-557
તું	-558
▁જવાબ	-559
▁પી	-560
બ્	-561
▁રાહ	-562
▁કેટલા	-563
ડે	-564
ાઇ	-565
▁મદ	-566
▁પ્રે	-567
▁ગાંધી	-568
ૃત	-569
ંત્ર	-570
▁વ્યક્તિ	-571
દે	-572
ગા	-573
▁ગો	-574
▁પાર્	-575
ડો	-576
▁તરી	-577
▁શિ	-578
▁ક્ર	-579
▁વર્ષ	-580
▁પસ	-581
▁અન્ય	-582
▁પગ	-583
▁વિશે	-584
િયાન	-585
▁પાણી	-586
જો	-587
▁તરીકે	-588
▁પાકિસ્	-589
ર્ગ	-590
ગ્ર	-591
પુ	-592
▁આવશે	-593
▁તેથી	-594
▁કુ	-595
િંહ	-596
▁રિ	-597
મુ	-598
▁ડે	-599
▁પ્રો	-600
યર	-601
▁મોત	-602
▁ચા	-603
▁મદદ	-604
ર્ડ	-605
▁જુ	-606
▁?	-607
િતા	-608
ુંબ	-609
▁યહોવાહ	-610
▁.	-611
શિય	-612
શ્વર	-613
▁સ્વ	-614
ત્રી	-615
▁૨	-616
▁લઈ	-617
▁સફ	-618
સભા	-619
▁વર	-620
▁જરૂર	-621
▁કર્યા	-622
▁નરે	-623
ચ્છ	-624
▁કેસ	-625
▁દરમ	-626
▁મામ	-627
રેક	-628
બલ	-629
▁પ્રા	-630
▁’	-631
હિ	-632
▁મળશે	-633
પૂર	-634
▁બદ	-635
▁પ્રધાનમંત્રી	-636
▁વધારે	-637
▁તમામ	-638
▁વ્યવ	-639
▁યો	-640
▁મેળ	-641
▁નરેન્દ્ર	-642
▁ઈસુ	-643
▁ડિ	-644
▁નોંધ	-645
▁કરીને	-646
▁તમને	-647
▁દો	-648
▁20	-649
▁વખ	-650
▁સહ	-651
▁વડા	-652
▁વિસ્ત	-653
▁ગામ	-654
▁ઘણા	-655
▁દરેક	-656
▁બધા	-657
▁તૈ	-658
▁નામ	-659
ર્મ	-660
વાસ	-661
યે	-662
ૂર	-663
▁કરતા	-664
ખ્યા	-665
▁અહીં	-666
▁ધર	-667
▁તા	-668
▁ખો	-669
▁મીડ	-670
સ્પિટ	-671
દાર	-672
▁બાબ	-673
કડ	-674
▁ઠ	-675
▁મહિલા	-676
▁રૂપ	-677
▁પ્રથમ	-678
મત	-679
ફો	-680
▁આપવામાં	-681
▁એટ	-682
▁મીડિયા	-683
્યાર	-684
▁દરમિયાન	-685
ક્ષણ	-686
▁નિર્ણ	-687
▁ઉપયોગ	-688
્ન	-689
જબ	-690
▁બની	-691
▁ત્રણ	-692
નિયા	-693
ળે	-694
પણ	-695
▁કરશે	-696
▁તરફ	-697
▁અથ	-698
બો	-699
લિ	-700
▁ટ્રે	-701
▁બાળકો	-702
▁નવી	-703
યુ	-704
▁અલ	-705
▁રહેશે	-706
▁ઓફ	-707
પની	-708
▁હોસ્પિટ	-709
પૂર્ણ	-710
▁બીજા	-711
▁અપ	-712
▁ગયો	-713
▁આવ્યું	-714
▁ટીમ	-715
મિ	-716
▁દિવસ	-717
▁થયું	-718
▁પાકિસ્તાન	-719
ખી	-720
ોમાં	-721
▁આગળ	-722
▁શ્રી	-723
▁નેતા	-724
ુમ	-725
▁લીધ	-726
▁અનેક	-727
▁ચી	-728
્રીય	-729
પ્રધાન	-730
▁હવે	-731
▁4	-732
કરી	-733
▁પાછ	-734
▁લાખ	-735
▁મિ	-736
▁કપૂર	-737
▁કોઇ	-738
▁બિ	-739
▁ત્યાર	-740
▁પરિવાર	-741
▁દિ	-742
▁તૈય	-743
દર્	-744
▁કેટલાક	-745
▁તથા	-746
▁આધ	-747
એસ	-748
▁અંત	-749
▁લોક	-750
▁અભિ	-751
જય	-752
માર	-753
▁બોલ	-754
▁પોતાની	-755
પાલ	-756
લ્ડ	-757
શિયલ	-758
▁મારા	-759
▁માત્ર	-760
▁નિર્ણય	-761
▁ગઈ	-762
▁ફે	-763
▁મારી	-764
તમ	-765
▁કરવાની	-766
▁રહ્યું	-767
▁લોકોને	-768
ઓની	-769
સાય	-770
▁ઉમે	-771
ક્ટર	-772
▁અધિક	-773
▁પસંદ	-774
▁મોટી	-775
સ્થા	-776
▁સંબંધ	-777
▁યોગ	-778
જના	-779
સાદ	-780
દન	-781
શું	-782
ર્મા	-783
હા	-784
▁તેણે	-785
▁:	-786
▁થો	-787
▁તેમાં	-788
▁મળે	-789
▁અમેર	-790
દાન	-791
▁ડો	-792
▁નિય	-793
રણ	-794
મ્પ	-795
▁ફરી	-796
▁પ્રતિ	-797
્યૂ	-798
▁નવા	-799
▁સર્	-800
▁સુર	-801
ૂત	-802
▁સિંહ	-803
▁શે	-804
▁વાયર	-805
▁મોટા	-806
▁ફિલ્મમાં	-807
▁અથવા	-808
વેશ	-809
ાયો	-810
▁પ્રમા	-811
▁વીડ	-812
બાદ	-813
ંકા	-814
▁દર્	-815
▁સોશિયલ	-816
▁ટો	-817
▁વીડિયો	-818
કારી	-819
▁મુખ્યમંત્રી	-820
▁ચર્ચ	-821
દર	-822
લિક	-823
▁પ્રેમ	-824
ામી	-825
▁કેમ	-826
▁બાઇ	-827
▁હતાં	-828
▁દાખ	-829
કમાં	-830
▁મૃત	-831
▁તમારી	-832
▁નહિ	-833
▁રાષ્ટ્ર	-834
▁આરોપી	-835
પર	-836
ીર	-837
તમાં	-838
▁ધ્યા	-839
ધ્ય	-840
્લે	-841
▁ચે	-842
▁શુ	-843
ખો	-844
▁શી	-845
▁સ્પ	-846
▁બહાર	-847
ચા	-848
▁સારવાર	-849
્લા	-850
▁"""	-851
▁પૂર્વ	-852
નની	-853
જૂરી	-854
▁મુંબ	-855
▁વડાપ્રધાન	-856
શ્ચ	-857
ીએમ	-858
▁અલગ	-859
▁આમ	-860
▁પાર્ટી	-861
શુ	-862
▁પ્રકાર	-863
▁હિ	-864
વાના	-865
ક્ષી	-866
▁ટ્ર	-867
ભાવ	-868
વાય	-869
બે	-870
▁સ્ટે	-871
▁સ્થિતિ	-872
▁સૂ	-873
▁પહોંચી	-874
ઓમાં	-875
▁હશે	-876
▁જાહેર	-877
▁વિશ્વ	-878
."	-879
જ્	-880
▁અર	-881
▁ફાય	-882
▁જાય	-883
▁ભાવ	-884
▁નીચે	-885
▁ઉપરા	-886
▁ઘણી	-887
▁શકાય	-888
▁મહત્વ	-889
વાલ	-890
▁જિલ્	-891
▁વરસાદ	-892
▁ટકા	-893
▁ધરી	-894
▁શેર	-895
▁સંખ્યા	-896
ટન	-897
▁માંગ	-898
▁રાહુલ	-899
ક્રમ	-900
▁મંત્રી	-901
▁કારણ	-902
▁જેના	-903
ભાગ	-904
▁વિદ	-905
▁કંપની	-906
▁સ્વા	-907
કલ	-908
▁ધરા	-909
ત્મ	-910
▁શકો	-911
▁હજુ	-912
▁અમા	-913
નાર	-914
રની	-915
▁ભારે	-916
▁હાજ	-917
ણને	-918
િટી	-919
▁ઉપરાંત	-920
ઓએ	-921
▁સ્ટ	-922
પતિ	-923
િત્ર	-924
▁માણ	-925
▁ખાસ	-926
▁વો	-927
ળો	-928
સ્તા	-929
▁દુનિયા	-930
▁ગ્ર	-931
▁શાહ	-932
▁રૂપિયા	-933
▁ખેડ	-934
પોર્ટ	-935
▁જિલ્લા	-936
▁ઝડ	-937
▁એના	-938
▁ઉપર	-939
ળતા	-940
▁મોદીએ	-941
▁આપણા	-942
▁વિચાર	-943
▁વાર	-944
ાર્થી	-945
▁ચર્ચા	-946
▁—	-947
▁ભા	-948
▁લગ્ન	-949
પકડ	-950
રું	-951
▁જરૂરી	-952
વણી	-953
▁ધરપકડ	-954
▁અધ્ય	-955
▁ઈશ્વર	-956
▁કેન્દ્ર	-957
▁ફરિયા	-958
▁મામલે	-959
▁જગ	-960
▁મુલા	-961
શ્મી	-962
▁ઇન્	-963
▁હુમ	-964
▁ક્ષે	-965
▁ધો	-966
▁આવેલા	-967
પ્ત	-968
▁પડી	-969
▁ચાલી	-970
▁અમેરિકા	-971
▁ક્યારે	-972
▁સમગ્ર	-973
▁ભારતમાં	-974
▁જણાવ્યું	-975
રના	-976
▁કુલ	-977
ધન	-978
નિ	-979
▁સારી	-980
ૂટ	-981
▁મુદ્	-982
▁અધ્યક્ષ	-983
▁કંઈ	-984
▁કઈ	-985
▁પત્	-986
▁'	-987
ંધી	-988
▁મેં	-989
▁વિરો	-990
▁મેચ	-991
▁મુલાકા	-992
▁દૂર	-993
▁શકી	-994
▁સ્થાન	-995
નુ	-996
▁કાય	-997
▁કપ	-998
▁6	-999
હાર	-1000
ેશન	-1001
▁બતા	-1002
કાસ	-1003
▁અસર	-1004
▁લાભ	-1005
▁ઇન્ડ	-1006
તુ	-1007
▁વિસ્તાર	-1008
વાહી	-1009
▁કરીએ	-1010
કારે	-1011
સવી	-1012
▁તેમજ	-1013
▁મી	-1014
સ્મા	-1015
▁માહિત	-1016
▁ફરિયાદ	-1017
▁અધિકારી	-1018
▁વ્યવસાય	-1019
ષ્ઠ	-1020
▁એર	-1021
▁ફર	-1022
ણાં	-1023
ણમાં	-1024
▁તૈયાર	-1025
▁10	-1026
▁ભાઈ	-1027
▁તેનો	-1028
વર્	-1029
રોના	-1030
ાગ્ર	-1031
▁પત્ની	-1032
ીત	-1033
▁અત્ય	-1034
▁વિદ્ય	-1035
▁માહિતી	-1036
▁કિ	-1037
▁કરવું	-1038
▁એટલે	-1039
▁અક	-1040
▁આપે	-1041
ત્તા	-1042
▁જેમ	-1043
▁સામ	-1044
▁વધી	-1045
▁૩	-1046
▁–	-1047
વવા	-1048
વિધ	-1049
સ્યા	-1050
▁જીત	-1051
ચ્ચ	-1052
વાન	-1053
જ્ઞ	-1054
▁આપ્યો	-1055
માન્ય	-1056
મેન્ટ	-1057
▁કર્	-1058
▁કાર્યવાહી	-1059
▁બીજી	-1060
▁લોકોનો	-1061
▁ખેતી	-1062
▁પ્રદેશ	-1063
▁તસવી	-1064
▁માર્ગ	-1065
આઈ	-1066
▁એવું	-1067
▁બાઇબલ	-1068
▁વિદ્યાર્થી	-1069
િયન	-1070
▁ચમ	-1071
▁સત	-1072
▁કોર્	-1073
▁વિકાસ	-1074
ષ્ટ્રીય	-1075
▁7	-1076
▁દાખલ	-1077
ૂડ	-1078
▁ટ્	-1079
▁ગંભ	-1080
▁મુંબઈ	-1081
▁ક્ષેત્ર	-1082
▁જૂ	-1083
▁પીએમ	-1084
▁સેવા	-1085
સ્તુ	-1086
▁બહુ	-1087
▁યાદ	-1088
▁સમાવેશ	-1089
▁સંગ	-1090
▁સહિત	-1091
▁ગંભીર	-1092
▁ધ્યાન	-1093
▁હાલમાં	-1094
હન	-1095
વાથી	-1096
નિક	-1097
▁પશુ	-1098
▁અભિને	-1099
▁મહારા	-1100
▁સમસ્યા	-1101
દારી	-1102
ંતર	-1103
શ્કે	-1104
▁નહો	-1105
▁વખત	-1106
▁પડશે	-1107
▁બેન્	-1108
▁પડે	-1109
▁અર્થ	-1110
▁અવ	-1111
નના	-1112
▁સુધ	-1113
ખર	-1114
કીય	-1115
▁જોઇ	-1116
▁બાજુ	-1117
લના	-1118
▁લઇ	-1119
ેદ	-1120
▁ક્યાં	-1121
ગે	-1122
▁8	-1123
ોને	-1124
▁ચાર	-1125
પે	-1126
▁ડી	-1127
નંદ	-1128
▁લખ	-1129
▁વધારો	-1130
▁મહારાષ્ટ્ર	-1131
▁જન	-1132
▁હં	-1133
▁મહે	-1134
▁હોસ્પિટલમાં	-1135
ૂતો	-1136
▁મત	-1137
પાલન	-1138
▁પાંચ	-1139
▁માતા	-1140
▁યોજના	-1141
▁સમયે	-1142
▁દેશના	-1143
▁પ્રશ્	-1144
▁201	-1145
▁પિતા	-1146
▁ક્રિક	-1147
▁વિવિધ	-1148
▁કરવાનો	-1149
▁બસ	-1150
▁રહ્યાં	-1151
લ્લા	-1152
▁ઉત્તર	-1153
▁સામાન્ય	-1154
ાર્થ	-1155
▁વિષે	-1156
▁હાજર	-1157
▁કોરોના	-1158
ઇન	-1159
પુર	-1160
લર	-1161
▁એન	-1162
▁અકસ્મા	-1163
▁સરકારે	-1164
▁રાષ્ટ્રપતિ	-1165
▁જેથી	-1166
▁પાછળ	-1167
▁શર્મા	-1168
▁ભાજપના	-1169
થ્	-1170
કની	-1171
▁બને	-1172
▁સાં	-1173
▁સારા	-1174
▁વિરોધ	-1175
લિયા	-1176
▁મુશ્કે	-1177
▁આત	-1178
▁અનુભ	-1179
▁લક્ષ	-1180
▁ગામના	-1181
િર	-1182
કાશ	-1183
▁સતત	-1184
▁ફોટો	-1185
▁પ્રસ	-1186
▁કેટલી	-1187
શિ	-1188
▁નજી	-1189
▁માણસ	-1190
▁દેવ	-1191
▁આપણને	-1192
▁પશુપાલન	-1193
▁આજે	-1194
▁સુરક્ષા	-1195
ગત	-1196
કર્	-1197
▁ત્યારબાદ	-1198
તન	-1199
મુખ	-1200
▁કિં	-1201
ાવી	-1202
▁ઈન્	-1203
▁સામેલ	-1204
આત	-1205
▁આદ	-1206
▁બહે	-1207
દર્શન	-1208
▁વિચ	-1209
▁મધ્ય	-1210
ષણ	-1211
ઓના	-1212
્રિ	-1213
▁બેઠક	-1214
▁પ્રમાણે	-1215
કસ	-1216
▁લીધી	-1217
▁હંમે	-1218
▁ગે	-1219
▁સાંભ	-1220
ણામ	-1221
્રીમ	-1222
▁આનંદ	-1223
▁કરતાં	-1224
▁મુલાકાત	-1225
▁ઓછ	-1226
▁નં	-1227
▁લઈને	-1228
▁પ્રયા	-1229
કેટ	-1230
▁ઘટા	-1231
▁ચૂક	-1232
▁વાંચ	-1233
ચ્છા	-1234
▁છતાં	-1235
ટક	-1236
ચના	-1237
▁સલા	-1238
▁ભૂમ	-1239
▁કરવો	-1240
તમજૂરી	-1241
ંપ	-1242
▁ભારતના	-1243
▁ખેતમજૂરી	-1244
▁વી	-1245
▁સ્ક	-1246
▁પક્ષ	-1247
▁વિરુ	-1248
▁વિધાન	-1249
ાયે	-1250
▁અંદ	-1251
▁આવું	-1252
લાઈ	-1253
▁પહેલાં	-1254
▁પૈ	-1255
્યાસ	-1256
▁અર્	-1257
▁હેઠ	-1258
વાઈ	-1259
▁જેટ	-1260
▁પૂછ	-1261
▁જાણી	-1262
▁લીધો	-1263
▁પહેલી	-1264
▁ખેડૂતો	-1265
▁ભૂમિકા	-1266
▁"	-1267
સ્ક	-1268
▁ખુબ	-1269
▁ભર	-1270
▁પેટ	-1271
▁હેઠળ	-1272
▁કોર્ટ	-1273
▁જ્યાં	-1274
▁વૃ	-1275
▁એન્	-1276
▁જુઓ	-1277
ક્રિયા	-1278
▁યોગ્ય	-1279
મમાં	-1280
ોની	-1281
▁નજ	-1282
▁બચ	-1283
▁શક્ય	-1284
▁સ્ટો	-1285
▁દિવસે	-1286
▁લાં	-1287
▁પશ્ચ	-1288
▁ઓળ	-1289
▁આઈ	-1290
▁માર	-1291
ુડ	-1292
▁દેખ	-1293
▁રોજ	-1294
▁સમજ	-1295
▁લોકસભા	-1296
નારા	-1297
▁વખતે	-1298
▁વિજય	-1299
▁ઑ	-1300
▁સલ	-1301
▁કોણ	-1302
▁સરળ	-1303
▁અમિત	-1304
ડવામાં	-1305
ગો	-1306
ામાં	-1307
▁મજબ	-1308
▁બનાવી	-1309
▁અત્યાર	-1310
▁દેશમાં	-1311
▁રંગ	-1312
▁શીખ	-1313
▁તેઓને	-1314
▁વિરુદ્ધ	-1315
ણું	-1316
▁કાર્યક્રમ	-1317
ટ્સ	-1318
લ્સ	-1319
શ્ય	-1320
▁વાયરલ	-1321
▁મન	-1322
▁એક્ટ	-1323
▁વિધાનસભા	-1324
મના	-1325
ાવો	-1326
▁આર	-1327
▁એવી	-1328
▁મુજબ	-1329
્રોલ	-1330
▁ખરી	-1331
▁આધાર	-1332
▁ગયું	-1333
આર	-1334
ટ્	-1335
ંતિ	-1336
▁રન	-1337
▁ધાર	-1338
▁લેવા	-1339
▁પ્રક્રિયા	-1340
ફી	-1341
▁તેલ	-1342
▁જગ્યા	-1343
▁ટેસ્ટ	-1344
▁હુમલા	-1345
-1	-1346
▁રણ	-1347
રેખર	-1348
▁દીધ	-1349
▁એસ	-1350
ત્તિ	-1351
▁શુભ	-1352
▁ઉમેદ	-1353
▁તરફથી	-1354
...	-1355
ફે	-1356
તરી	-1357
ક્ષિ	-1358
ટું	-1359
ટેલ	-1360
ાલય	-1361
▁સૈ	-1362
▁કાળ	-1363
▁જીવ	-1364
▁સુપ	-1365
▁આપણી	-1366
▁પોસ્ટ	-1367
▁કૃ	-1368
▁ખરેખર	-1369
▁ખર્ચ	-1370
▁નીતિ	-1371
▁મં	-1372
▁ચાલુ	-1373
▁આગામી	-1374
▁પરિણામ	-1375
▁એવા	-1376
▁લાગે	-1377
▁તેનું	-1378
▁પશ્ચિમ	-1379
▁લોકોના	-1380
▁ગર	-1381
▁અરજી	-1382
▁12	-1383
▁ગા	-1384
▁બજ	-1385
ન્ને	-1386
▁સંભ	-1387
▁વસ્તુ	-1388
▁જાહે	-1389
▁આપ્યું	-1390
કરણ	-1391
▁જઈ	-1392
▁ઘાય	-1393
▁શહેર	-1394
▁સ્થા	-1395
▁સલમાન	-1396
▁ઉમેદવાર	-1397
ઘા	-1398
ડવા	-1399
▁વૈ	-1400
્યાય	-1401
▁શોધ	-1402
▁શકીએ	-1403
▁સંપૂર્ણ	-1404
વતી	-1405
વિડ	-1406
સાર	-1407
▁કલ	-1408
▁એની	-1409
▁થયે	-1410
▁જય	-1411
મારી	-1412
▁કરવી	-1413
▁બેંક	-1414
▁વ્યક્ત	-1415
ર્ક	-1416
▁શ્ર	-1417
પૂર્વ	-1418
ર્થિક	-1419
▁ખાતે	-1420
▁દીધી	-1421
▁પગલા	-1422
તિક	-1423
▁મોટો	-1424
▁રાખી	-1425
▁કોંગ્રેસના	-1426
ભાર	-1427
▁રાજ્યના	-1428
સ્ત્ર	-1429
▁વ્યા	-1430
▁આર્થિક	-1431
▁કાશ્મી	-1432
▁ગુનો	-1433
▁લેવામાં	-1434
ગ્	-1435
શનલ	-1436
▁કાર્	-1437
▁સ્વાસ્થ	-1438
હાસ	-1439
▁તક	-1440
યેલા	-1441
▁મેળવી	-1442
▁થતા	-1443
વાદી	-1444
▁થોડા	-1445
▁ટ્રેન	-1446
▁તમારે	-1447
્વ	-1448
000	-1449
કરા	-1450
▁ગૃ	-1451
▁જન્	-1452
▁જમ્	-1453
▁અમુક	-1454
▁પ્રિય	-1455
▁જોઇએ	-1456
▁શહે	-1457
▁દક્ષિ	-1458
▁નિવ	-1459
▁જેવા	-1460
▁સફળતા	-1461
ન્ન	-1462
▁થી	-1463
▁મર	-1464
▁મંદ	-1465
▁નજીક	-1466
▁વિભાગ	-1467
ાવે	-1468
▁સુપ્રીમ	-1469
બુ	-1470
▁P	-1471
▁સભ	-1472
▁પતિ	-1473
િત્રો	-1474
▁રાજી	-1475
ફ્	-1476
જનો	-1477
લ્પ	-1478
▁ખસે	-1479
▁નુક	-1480
દાવાદ	-1481
▁આંતર	-1482
▁ચમચી	-1483
▁કાઢ	-1484
▁ખરા	-1485
▁જોડા	-1486
▁એવો	-1487
▁લાલ	-1488
▁જેવી	-1489
▁સ્વાસ્થ્ય	-1490
▁ડા	-1491
▁ભો	-1492
સદ	-1493
સાન	-1494
ક્શન	-1495
▁ઈન્ડ	-1496
▁અભ્યાસ	-1497
▁વિશ્વાસ	-1498
▁બંધ	-1499
▁બોલિવ	-1500
▁પરી	-1501
▁હિં	-1502
▁અમદાવાદ	-1503
્લ	-1504
બ્ધ	-1505
મતા	-1506
▁શરૂઆત	-1507
▁મૃત્યુ	-1508
▁કહી	-1509
▁મહત્	-1510
▁પ્રમુખ	-1511
▁ઉદ	-1512
▁મળ્યો	-1513
▁જાહેરાત	-1514
▁ફક્ત	-1515
▁રોકા	-1516
વવામાં	-1517
▁કારણો	-1518
▁વિદેશ	-1519
▁સ્થળે	-1520
▁I	-1521
▁15	-1522
▁નોંધી	-1523
▁દક્ષિણ	-1524
▁શિક્ષણ	-1525
ાયેલા	-1526
▁એમાં	-1527
▁નિર્	-1528
▁કિંમત	-1529
▁સ્ત્રી	-1530
મન	-1531
રિ	-1532
લાડી	-1533
▁ટ્રા	-1534
▁ઘર	-1535
▁આવા	-1536
▁ગીત	-1537
▁તેનાથી	-1538
સેના	-1539
િંતા	-1540
▁જશે	-1541
▁મળ્યા	-1542
▁કરવાનું	-1543
લન	-1544
▁તબ	-1545
ગીરી	-1546
▁ઉપલ	-1547
તિહાસ	-1548
▁શાળા	-1549
▁ચિંતા	-1550
▁ક્રિકેટ	-1551
▁પં	-1552
▁પરથી	-1553
કુ	-1554
ાજે	-1555
ટિંગ	-1556
▁શરી	-1557
▁સંપ	-1558
▁સું	-1559
કારો	-1560
▁શબ્	-1561
▁શિવ	-1562
સ્ટ્રે	-1563
▁ઉત્પા	-1564
ઠી	-1565
▁હત્યા	-1566
▁બદલ	-1567
▁ભાષ	-1568
▁કરતી	-1569
▁બોલી	-1570
▁સમયમાં	-1571
▁આસ	-1572
▁ગૃહ	-1573
▁રજૂ	-1574
▁સાવ	-1575
▁ત્રી	-1576
▁નાગર	-1577
▁લાગી	-1578
▁ભારતની	-1579
▁ઇન્ડિયા	-1580
ઓનો	-1581
ગાઉ	-1582
હલી	-1583
▁કરા	-1584
▁આપવા	-1585
▁૪	-1586
શ્ર	-1587
▁કુમાર	-1588
▁ઉપલબ્ધ	-1589
ઝી	-1590
ફર	-1591
▁એને	-1592
▁પ્રધાનમંત્રીએ	-1593
ચર	-1594
▁9	-1595
ક્કી	-1596
▁અગાઉ	-1597
▁ઈસુએ	-1598
▁શ્રે	-1599
▁સ્વી	-1600
▁કોહલી	-1601
▁પ્રાપ્ત	-1602
એમ	-1603
▁ગઇ	-1604
સ્થિત	-1605
▁મજબૂત	-1606
▁ટ્રમ્પ	-1607
▁નાગરિક	-1608
લની	-1609
તાની	-1610
▁ઓળખ	-1611
તંત્ર	-1612
▁રાજ્યમાં	-1613
▁તેવી	-1614
▁બાળક	-1615
ાવવામાં	-1616
▁લોકોની	-1617
in	-1618
▁પૃ	-1619
ભગ	-1620
▁C	-1621
વિક	-1622
ડિયા	-1623
▁થવા	-1624
▁પુન	-1625
▁ઘાયલ	-1626
▁જમ્મુ	-1627
▁ક્યારેય	-1628
િયર	-1629
▁બાબત	-1630
▁સિવાય	-1631
કરો	-1632
▁જિ	-1633
▁ઝડપ	-1634
▁લોકોએ	-1635
▁હોઈ	-1636
▁કેન્દ	-1637
પરા	-1638
▁આઇ	-1639
દ્ધિ	-1640
ાવવા	-1641
▁હાઈ	-1642
▁કેમે	-1643
▁પગલે	-1644
▁પુત્ર	-1645
▁ભાગમાં	-1646
ગ્ય	-1647
▁જન્મ	-1648
ાર્થના	-1649
▁દર્દી	-1650
▁સત્તા	-1651
ૂલ	-1652
▁N	-1653
ષ્ય	-1654
શિયા	-1655
ાનું	-1656
▁પાર	-1657
▁નાના	-1658
▁અકસ્માત	-1659
આઇ	-1660
નને	-1661
▁ઘરે	-1662
▁રહેલા	-1663
▁તસવીરો	-1664
ંકી	-1665
▁ગણ	-1666
▁રેલ	-1667
▁દેવામાં	-1668
▁S	-1669
યત્	-1670
▁ચિ	-1671
ત્મક	-1672
દ્ધા	-1673
▁અલી	-1674
▁આયો	-1675
▁માગ	-1676
▁સેના	-1677
▁રાજ્યો	-1678
▁પોલીસને	-1679
હર	-1680
▁કેપ્	-1681
સ્થિતિ	-1682
▁બન્ને	-1683
▁શક્તિ	-1684
▁પ્રાર્થના	-1685
િકલ	-1686
▁ડૉ	-1687
ાયું	-1688
▁ચલા	-1689
▁ફેર	-1690
▁વિક	-1691
▁લગભગ	-1692
▁સર્વ	-1693
▁પ્રયત્	-1694
▁પ્રદર્શન	-1695
નર	-1696
પજ	-1697
▁તેઓએ	-1698
▁ભારતે	-1699
▁મંત્ર	-1700
▁વાયરસ	-1701
▁100	-1702
▁ખબર	-1703
▁સારું	-1704
▁સુંદર	-1705
કમ	-1706
મર	-1707
▁ઊભ	-1708
▁યુન	-1709
▁એન્ડ	-1710
▁પ્લે	-1711
▁મુસા	-1712
▁આં	-1713
▁ઓપ	-1714
▁વન	-1715
▁ખરાબ	-1716
▁ચાલો	-1717
▁શાંતિ	-1718
નાથ	-1719
▁પદ	-1720
▁સત્ય	-1721
▁કેટલીક	-1722
▁કામગીરી	-1723
▁કેન્દ્રીય	-1724
ઇલ	-1725
કનો	-1726
િસ્ટ	-1727
▁આના	-1728
▁બંગ	-1729
▁પૂરી	-1730
▁જવાબદારી	-1731
શાળ	-1732
▁રાખો	-1733
▁પૂર્ણ	-1734
▁પ્રયાસ	-1735
સ્ટ્રેલિયા	-1736
20	-1737
કળ	-1738
વાસી	-1739
▁ફાઇ	-1740
▁સ્થાનિક	-1741
▁રાષ્ટ્રીય	-1742
ટેડ	-1743
ન્ચ	-1744
▁પટેલ	-1745
▁સલાહ	-1746
▁દીકરી	-1747
▁પ્રિયંકા	-1748
ઝા	-1749
▁ચુ	-1750
▁હંમેશા	-1751
ઠા	-1752
▁50	-1753
▁ટૂ	-1754
ગ્રી	-1755
▁સંખ્યામાં	-1756
સિંહ	-1757
▁યહોવાહના	-1758
▁હોસ્પિટલ	-1759
રલ	-1760
▁અત	-1761
▁લેખ	-1762
▁સામનો	-1763
▁આરોગ્ય	-1764
▁કોર્ટે	-1765
૦૦	-1766
▁૫	-1767
િયમ	-1768
▁આત્મ	-1769
▁નિષ્	-1770
ઇટ	-1771
ફિક	-1772
જ્ઞાન	-1773
▁મળ્યું	-1774
▁મુશ્કેલી	-1775
▁પસાર	-1776
ારોમાં	-1777
▁રોકાણ	-1778
▁મિત્રો	-1779
▁,	-1780
વ્ય	-1781
▁જોડ	-1782
▁પંચ	-1783
જાગ્ર	-1784
▁થતાં	-1785
▁બાબતો	-1786
▁અનુસાર	-1787
▁હોવાનું	-1788
નામ	-1789
▁11	-1790
▁19	-1791
▁દર્શ	-1792
▁પરમે	-1793
▁ગ્રામ	-1794
▁ધરાવે	-1795
દુ	-1796
▁અં	-1797
બીજા	-1798
લોજી	-1799
▁કલા	-1800
▁હજી	-1801
▁આરોપ	-1802
તાર	-1803
મિક	-1804
ાસભ	-1805
▁પાઠ	-1806
▁ઝડપી	-1807
▁વિરા	-1808
▁કેસમાં	-1809
▁પરિસ્થિતિ	-1810
▁વિસ્તારમાં	-1811
▁ફોન	-1812
▁જીતી	-1813
્લો	-1814
▁વેપ	-1815
▁શેરી	-1816
▁દિવસો	-1817
▁પુસ્ત	-1818
▁ધારાસભ	-1819
▁પાસેથી	-1820
▁જાણકારી	-1821
▁અભિનેત્રી	-1822
▁/	-1823
દરા	-1824
ઉન્ટ	-1825
વિધા	-1826
▁ફેલા	-1827
▁લીધે	-1828
▁બંગાળ	-1829
▁તૈયારી	-1830
હરણ	-1831
▁હજ	-1832
,000	-1833
▁પૂર	-1834
▁પત્ર	-1835
▁વહે	-1836
▁જાણો	-1837
▁ન્યૂ	-1838
▁ફાયર	-1839
▁કોવિડ	-1840
▁કેપ્ટન	-1841
ડીને	-1842
વ્યો	-1843
▁સ્થળ	-1844
પ્રદેશ	-1845
▁નક્કી	-1846
▁વિવાદ	-1847
▁વર્લ્ડ	-1848
▁વ્યવસ્થા	-1849
ત્રો	-1850
▁બ્ર	-1851
▁ગ્રા	-1852
બૂ	-1853
▁અટ	-1854
▁ઉઠ	-1855
▁રમ	-1856
▁બિલ	-1857
▁મૂક	-1858
▁અમને	-1859
▁આદેશ	-1860
▁કરશો	-1861
▁ઘટનાસ્થ	-1862
▁બોલિવૂડ	-1863
એલ	-1864
તાને	-1865
રેશન	-1866
વાળી	-1867
▁ઉદા	-1868
▁બધી	-1869
▁પ્લા	-1870
▁કોર્ટમાં	-1871
ંઘ	-1872
નેટ	-1873
▁આતંક	-1874
▁ન્યાય	-1875
▁કેમેરા	-1876
▁દીપ	-1877
▁મહા	-1878
સ્થાન	-1879
▁જેની	-1880
▁ટ્વિ	-1881
▁પ્રકાશ	-1882
શાન	-1883
▁અસ	-1884
▁બધ	-1885
▁શર	-1886
▁તાલ	-1887
▁કાયદા	-1888
▁પ્રત્ય	-1889
▁મુદ્દે	-1890
▁ઉપસ્થિત	-1891
▁પેટ્રોલ	-1892
▁મહત્ત્વ	-1893
ત્ત	-1894
વતા	-1895
ૃતિ	-1896
કિંગ	-1897
▁અક્ષ	-1898
▁ચોક્	-1899
▁નંબર	-1900
▁સફેદ	-1901
▁એકબીજા	-1902
▁છેલ્લા	-1903
રને	-1904
ટુંબ	-1905
ત્રા	-1906
▁દુઃ	-1907
માર્ટ	-1908
▁નિયમ	-1909
▁વિશેષ	-1910
ar	-1911
થ્વી	-1912
▁ક્ષ	-1913
▁ખુશ	-1914
▁રામ	-1915
▁સિં	-1916
▁આવતા	-1917
▁પૈસા	-1918
▁બેઠકો	-1919
▁સંસ્થા	-1920
એફ	-1921
▁ધી	-1922
▁રસ	-1923
▁મૂળ	-1924
ાવ્યો	-1925
▁પ્રશ્ન	-1926
▁બનાવવા	-1927
at	-1928
ચનો	-1929
િક્સ	-1930
▁તું	-1931
▁રોગ	-1932
▁અમારા	-1933
ભર	-1934
હાન	-1935
▁આફ	-1936
સ્તો	-1937
▁વિષ	-1938
લેન્ડ	-1939
▁રસ્તા	-1940
▁પ્રચાર	-1941
▁સુવિધા	-1942
▁બેઠકમાં	-1943
▁કોલ	-1944
▁નજર	-1945
▁પામ	-1946
▁હવા	-1947
▁પરિવ	-1948
ાગ્રામ	-1949
▁જીવનમાં	-1950
ડું	-1951
▁હાઇ	-1952
▁તારી	-1953
▁નાની	-1954
▁અમારી	-1955
▁રેલવે	-1956
ષિ	-1957
▁પંજા	-1958
▁નિર્મા	-1959
▁સ્પષ્ટ	-1960
ખ્	-1961
ભુ	-1962
▁!	-1963
▁કી	-1964
ક્ષે	-1965
્યોગ	-1966
▁અહે	-1967
▁દિલ	-1968
▁બીજ	-1969
▁કરું	-1970
▁તાજે	-1971
▁બચ્ચ	-1972
▁માર્	-1973
▁સમાચાર	-1974
▁સુધીમાં	-1975
▁ટા	-1976
▁સાચ	-1977
▁સારો	-1978
▁કરવાથી	-1979
▁પરમેશ્વર	-1980
વરણ	-1981
ઓનું	-1982
▁જમી	-1983
▁જોખ	-1984
▁પ્રોજે	-1985
▁સ્ટેશન	-1986
સ્ટાગ્રામ	-1987
કત	-1988
▁કૉ	-1989
નિંગ	-1990
તરમાં	-1991
▁બાકી	-1992
▁વિમાન	-1993
▁નુકસાન	-1994
▁વિચારો	-1995
▁સ્માર્ટ	-1996
▁આભાર	-1997
▁અનુભવ	-1998
▁થયેલા	-1999
▁વિરાટ	-2000
▁પૃથ્વી	-2001
ઉન	-2002
દય	-2003
મેલ	-2004
રાજ	-2005
▁મહાન	-2006
▁આધારે	-2007
▁આપ્યા	-2008
▁સહયોગ	-2009
▁મહત્વપૂર્ણ	-2010
ડર	-2011
▁૬	-2012
રૂપ	-2013
વીર	-2014
▁મંજૂરી	-2015
▁સાક્ષી	-2016
ફા	-2017
▁25	-2018
વીને	-2019
▁200	-2020
▁મંડ	-2021
▁મેડ	-2022
▁હતુ	-2023
▁બનશે	-2024
▁જાણવા	-2025
ચન	-2026
કડા	-2027
ન્ય	-2028
▁દેખા	-2029
▁સમર્થ	-2030
▁ચોક્કસ	-2031
▁ઘટનાસ્થળે	-2032
▁ઓસ્ટ્રેલિયા	-2033
બિ	-2034
▁વળ	-2035
▁ચીન	-2036
▁લીધા	-2037
▁પ્રકારની	-2038
ડુ	-2039
તાઓ	-2040
રાન	-2041
ટમાં	-2042
▁દિશા	-2043
▁ઘટાડો	-2044
▁પગલાં	-2045
તના	-2046
ેદન	-2047
▁ઉજ	-2048
▁જ્	-2049
▁પુર	-2050
▁સફળ	-2051
▁બાદમાં	-2052
▁રિપોર્ટ	-2053
પણે	-2054
સિક	-2055
▁એલ	-2056
▁એનો	-2057
▁કયા	-2058
કામાં	-2059
▁યાદી	-2060
▁પ્રેર	-2061
બિત	-2062
રામ	-2063
લાય	-2064
લીઝ	-2065
ન્સી	-2066
▁કમા	-2067
▁દેશો	-2068
▁મહિના	-2069
▁સાંભળ	-2070
▁ઘટનાની	-2071
સિ	-2072
▁નિક	-2073
▁મોક	-2074
▁ટ્વી	-2075
▁દુર્	-2076
▁લઇને	-2077
▁તેમનું	-2078
▁લક્ષણો	-2079
▁વર્ષની	-2080
▁રાખવામાં	-2081
ધિ	-2082
ગાર	-2083
▁14	-2084
▁ભે	-2085
ંદ્ર	-2086
કોને	-2087
ચારી	-2088
▁આશા	-2089
▁નહી	-2090
▁નોકરી	-2091
▁નિવેદન	-2092
▁સરકારી	-2093
રાષ્ટ્રીય	-2094
▁ગુજરાતમાં	-2095
ાંડ	-2096
▁બુ	-2097
▁ઊંચ	-2098
▁ઘણો	-2099
▁ધર્મ	-2100
▁સવાલ	-2101
▁મુસાફ	-2102
ફોન	-2103
▁નોટ	-2104
ભરમાં	-2105
▁રાજા	-2106
▁તેમનો	-2107
▁લાંબા	-2108
▁સંભાળ	-2109
ંડા	-2110
ંદુ	-2111
તની	-2112
મ્સ	-2113
ાયક	-2114
ડિંગ	-2115
ળમાં	-2116
વાળા	-2117
વ્યા	-2118
▁ડાય	-2119
િવર્સ	-2120
▁પ્રશ	-2121
▁કુટુંબ	-2122
▁ખેલાડી	-2123
▁રાજકીય	-2124
મેન	-2125
▁થવાની	-2126
▁પ્રાથમ	-2127
▁અભિનેતા	-2128
વલ	-2129
▁કૌ	-2130
▁સચ	-2131
▁૧૯	-2132
▁ફ્ર	-2133
▁સંબો	-2134
▁ઝડપથી	-2135
▁ગાંધીએ	-2136
▁ફિલ્મનું	-2137
▁રાજસ્થાન	-2138
ડક	-2139
થો	-2140
ચાલ	-2141
પના	-2142
ત્કા	-2143
▁ભૂલ	-2144
▁મારો	-2145
▁વધાર	-2146
▁બન્યા	-2147
▁પ્રાથમિક	-2148
▁કાં	-2149
▁પોતે	-2150
▁નેશનલ	-2151
▁મળીને	-2152
▁પોતાનો	-2153
▁બનાવવામાં	-2154
સની	-2155
▁તબક્	-2156
▁મોટર	-2157
▁સવાર	-2158
રેક્ટર	-2159
▁આંક	-2160
▁સન્	-2161
▁સાધ	-2162
▁ભાષા	-2163
▁ઘરમાં	-2164
▁આવેલું	-2165
▁ચૂંટણીમાં	-2166
▁વિસ્તારોમાં	-2167
▁ઢ	-2168
▁આશ	-2169
ર્જી	-2170
▁જાન	-2171
▁પાડ	-2172
વ્યું	-2173
▁ફેરફ	-2174
▁વાંચો	-2175
▁સાબિત	-2176
an	-2177
અલ	-2178
મૂ	-2179
િઝ	-2180
વુડ	-2181
▁13	-2182
▁ફી	-2183
ષ્ટિ	-2184
સ્તી	-2185
▁દ્ર	-2186
▁વગર	-2187
▁ભાગી	-2188
▁વર્ત	-2189
▁વાર્	-2190
▁એનાથી	-2191
▁પ્રત્યે	-2192
ગઢ	-2193
મણ	-2194
▁હકી	-2195
▁થયેલ	-2196
▁જવાનો	-2197
▁ફરીથી	-2198
▁પસંદગી	-2199
▁મુદ્દા	-2200
▁શિવસેના	-2201
ડ્	-2202
▁દવા	-2203
▁કિસ્	-2204
▁પ્રગ	-2205
▁મોકલ	-2206
▁પ્રયત્ન	-2207
▁પ્રોજેક્ટ	-2208
લ્લે	-2209
▁આવક	-2210
▁એકા	-2211
▁રહો	-2212
ાવ્યા	-2213
▁યુદ્ધ	-2214
▁અત્યારે	-2215
ંદો	-2216
નગર	-2217
બ્ર	-2218
er	-2219
રીઝ	-2220
▁અંગ	-2221
▁બાથ	-2222
▁ભવિ	-2223
▁સાત	-2224
▁ઘણાં	-2225
▁પ્રવ	-2226
▁આયોજન	-2227
▁ભવિષ્ય	-2228
િપ્	-2229
▁અફ	-2230
▁દૃ	-2231
▁હૈ	-2232
▁ગુમા	-2233
▁છોડી	-2234
▁પંજાબ	-2235
▁પ્રવાસ	-2236
▁પહોંચ્યા	-2237
▁આંતરરાષ્ટ્રીય	-2238
▁B	-2239
▁G	-2240
▁ભજ	-2241
ત્મા	-2242
ષ્યો	-2243
▁ગરમ	-2244
▁શૂટ	-2245
ક્રિય	-2246
્રિસ્	-2247
▁કર્મ	-2248
▁રાહત	-2249
▁સભ્યો	-2250
▁પ્રશ્નો	-2251
રોજ	-2252
▁દૂ	-2253
દર્શ	-2254
▁કોલે	-2255
▁ફાયદો	-2256
▁ઉદાહરણ	-2257
▁ખ્રિસ્	-2258
રાક	-2259
ર્ન	-2260
▁કમ	-2261
▁ઠા	-2262
▁આવો	-2263
▁ઈજા	-2264
▁મનો	-2265
▁દોડી	-2266
▁અક્ષય	-2267
▁મંદિર	-2268
▁મોટું	-2269
ાડ	-2270
પાન	-2271
▁કદા	-2272
▁કોઈપણ	-2273
▁દીપિકા	-2274
▁A	-2275
▁અદ	-2276
▁પવ	-2277
કારક	-2278
▁કેર	-2279
▁સપ્	-2280
▁જમીન	-2281
▁સમાજ	-2282
▁બેન્ક	-2283
▁મામલા	-2284
▁ઉત્પાદન	-2285
▁અધિકારીઓ	-2286
on	-2287
ુદ	-2288
સના	-2289
▁એજ	-2290
ઉન્ડ	-2291
▁અંદર	-2292
▁અભિન	-2293
▁આફ્ર	-2294
▁ટીવી	-2295
▁રોહિત	-2296
▁હુમલો	-2297
ઠું	-2298
િયલ	-2299
વિંદ	-2300
▁નાર	-2301
▁વાદ	-2302
▁સદી	-2303
▁લાગુ	-2304
▁વાતા	-2305
▁ઇન્ટર	-2306
▁નહોતી	-2307
▁નિયમો	-2308
▁બાબતે	-2309
▁બિહાર	-2310
િવર્સિટી	-2311
▁તાજેતરમાં	-2312
ખંડ	-2313
▁જણા	-2314
્રેસે	-2315
▁કિલો	-2316
▁ઘણું	-2317
▁આતંકી	-2318
▁કરનાર	-2319
▁કર્ણા	-2320
▁ખાનગી	-2321
▁લાગણી	-2322
▁જરૂરિયા	-2323
ગુ	-2324
▁ડ્ર	-2325
▁રસો	-2326
▁આવેલ	-2327
▁સ્ટાર	-2328
▁મીડિયામાં	-2329
ઉટ	-2330
જિત	-2331
ાળો	-2332
ૃદય	-2333
સીટી	-2334
▁કદાચ	-2335
▁દીધો	-2336
▁રૂપા	-2337
▁શુભે	-2338
▁વાતચી	-2339
▁કાશ્મીર	-2340
▁પ્રસંગે	-2341
ાયત	-2342
▁18	-2343
▁છા	-2344
▁નહ	-2345
ાર્જ	-2346
▁પાઊ	-2347
▁સીટ	-2348
▁ઉચ્ચ	-2349
▁નેતાઓ	-2350
▁રહેવા	-2351
▁પુત્રી	-2352
▁કર્મચારી	-2353
ંતો	-2354
ધાર	-2355
▁છુ	-2356
ન્ટર	-2357
ંત્રણ	-2358
▁એક્સ	-2359
▁દીધા	-2360
▁બચાવ	-2361
પૂર્વક	-2362
▁બહેનો	-2363
▁મતદાન	-2364
▁જિલ્લામાં	-2365
▁૭	-2366
▁૮	-2367
▁આખ	-2368
▁એપ	-2369
▁ઓછી	-2370
▁ગુણ	-2371
▁પાસ	-2372
▁વાહ	-2373
યુક્ત	-2374
▁રાખે	-2375
▁લીલા	-2376
▁વાતો	-2377
▁સામા	-2378
▁હાર્	-2379
▁દેશની	-2380
▁શુભેચ્છા	-2381
જરી	-2382
હું	-2383
▁ગરી	-2384
▁વજન	-2385
▁દુઃખ	-2386
▁સોના	-2387
્લેન્ડ	-2388
▁ઉમેરો	-2389
▁આધારિત	-2390
▁આફ્રિકા	-2391
▁એરપોર્ટ	-2392
▁દિલ્હીમાં	-2393
▁યુનિવર્સિટી	-2394
▁ગૌ	-2395
ન્ના	-2396
િત્ય	-2397
▁મારે	-2398
▁વિષય	-2399
▁સાથી	-2400
▁શબ્દો	-2401
▁સાંસદ	-2402
કનોલોજી	-2403
▁લખ્યું	-2404
▁ઈન્ડિયા	-2405
કેલ	-2406
ટકો	-2407
તને	-2408
▁ઉં	-2409
▁જાળ	-2410
▁બ્લ	-2411
▁હાર	-2412
▁સંજય	-2413
▁સંશો	-2414
▁સમુદ	-2415
▁સુપર	-2416
▁હૃદય	-2417
▁બાથરૂ	-2418
▁સન્માન	-2419
▁શ્રેષ્ઠ	-2420
▁મંત્રાલય	-2421
▁અમેરિકાના	-2422
ઝો	-2423
ટલ	-2424
▁ઇન	-2425
▁ખુશી	-2426
▁નાણા	-2427
િસ્તાન	-2428
▁કાર્ડ	-2429
▁ભારતને	-2430
▁શક્યતા	-2431
▁હોવાથી	-2432
▁ખ્રિસ્તી	-2433
▁દુનિયામાં	-2434
▁૧૦	-2435
ક્રો	-2436
જ્ઞા	-2437
ન્સર	-2438
▁સાય	-2439
▁પ્રોડ	-2440
▁ભાજપે	-2441
▁લોન્ચ	-2442
▁શિક્ષ	-2443
▁સ્પર્	-2444
▁મુશ્કેલ	-2445
▁પ્રકારના	-2446
કને	-2447
▁16	-2448
▁ગી	-2449
જીવન	-2450
શાંત	-2451
▁ઇજા	-2452
▁ભરો	-2453
▁રકમ	-2454
▁સુખ	-2455
▁જાણે	-2456
કાશ્મી	-2457
શાસ્ત્ર	-2458
▁ઉદ્યોગ	-2459
▁પોતાનું	-2460
▁બાજુમાં	-2461
di	-2462
મદ	-2463
▁M	-2464
▁R	-2465
ન્જ	-2466
લેટ	-2467
▁નવ	-2468
▁ભગ	-2469
▁શ્	-2470
▁ચહે	-2471
▁ચુક	-2472
▁નદી	-2473
▁રોડ	-2474
▁કરતો	-2475
▁બ્રા	-2476
▁વાસ્ત	-2477
જાગ્રસ્ત	-2478
▁આતંકવાદી	-2479
▁ક્ષેત્રમાં	-2480
લુ	-2481
રુષ	-2482
ારંભ	-2483
▁નાખ	-2484
▁સંગઠ	-2485
▁કર્યુ	-2486
▁કરવાના	-2487
▁પ્રભાવ	-2488
▁પ્રવેશ	-2489
▁વસ્તુઓ	-2490
▁સંબંધો	-2491
▁ટેકનોલોજી	-2492
▁પાકિસ્તાનના	-2493
એન	-2494
જિક	-2495
▁થા	-2496
▁કલમ	-2497
▁તાપ	-2498
▁રાત	-2499
રોમાં	-2500
▁પાછા	-2501
▁રિલીઝ	-2502
▁શૂટિંગ	-2503
▁ધ્યાનમાં	-2504
નેસ	-2505
ઘટના	-2506
▁ગોઠ	-2507
▁જતા	-2508
▁સભા	-2509
▁બહેન	-2510
▁તસવીર	-2511
ડિ	-2512
ંડી	-2513
▁ફા	-2514
▁બૉ	-2515
▁આખી	-2516
▁કમિ	-2517
▁બરા	-2518
ારમાં	-2519
▁વિરૂ	-2520
▁કોઈને	-2521
▁જણાવે	-2522
▁મિત્ર	-2523
રવ	-2524
-19	-2525
તરા	-2526
મની	-2527
▁અગ	-2528
▁રુ	-2529
▁વિપ	-2530
▁સજા	-2531
ડામાં	-2532
▁બદલા	-2533
▁ગ્રાહ	-2534
▁સિસ્ટ	-2535
▁તમારું	-2536
▁તાત્કા	-2537
▁ઘટનામાં	-2538
▁શ્રદ્ધા	-2539
તૃ	-2540
બાઈ	-2541
ાળા	-2542
કારા	-2543
સીસી	-2544
▁માલ	-2545
કોર્ડ	-2546
ૃત્તિ	-2547
▁શકશે	-2548
▁સમાન	-2549
▁આવેલી	-2550
▁મુંબઇ	-2551
▁મેચમાં	-2552
▁સક્રિય	-2553
▁લાઈ	-2554
ક્ષિત	-2555
▁વિકેટ	-2556
▁ગામમાં	-2557
નલ	-2558
બીર	-2559
ુંગ	-2560
▁30	-2561
▁જળ	-2562
ડીયો	-2563
્રીન	-2564
▁ગર્	-2565
▁પાન	-2566
▁મિલ	-2567
▁સમી	-2568
▁સહાય	-2569
▁ખોરાક	-2570
▁ચિત્ર	-2571
▁આવ્યાં	-2572
▁રહેવું	-2573
▁વાતચીત	-2574
▁ટ્રાફિક	-2575
▁સંબંધિત	-2576
▁એક્ટ્રેસ	-2577
▁ખસેડવામાં	-2578
ટરી	-2579
▁PM	-2580
▁તી	-2581
▁બળ	-2582
મ્બર	-2583
▁જમા	-2584
▁તરત	-2585
નામું	-2586
▁આપશે	-2587
▁દિગ્	-2588
▁સ્ટા	-2589
▁ટેક્સ	-2590
▁પ્રશં	-2591
▁મામલો	-2592
▁સંદેશ	-2593
▁૯	-2594
કાન	-2595
▁ઈસ	-2596
ષ્કા	-2597
▁શકતા	-2598
▁સ્થિત	-2599
▁અમેરિક	-2600
▁ઇતિહાસ	-2601
▁કોંગ્રેસે	-2602
▁વિદ્યાર્થીઓ	-2603
રસ	-2604
ંદા	-2605
ળું	-2606
વાઇ	-2607
▁આટ	-2608
▁૧૫	-2609
જેપી	-2610
નારી	-2611
▁કેસો	-2612
▁રચના	-2613
▁સીબી	-2614
▁ખરીદી	-2615
▁નાણાં	-2616
▁ભક્તિ	-2617
▁મીઠું	-2618
▁હાજરી	-2619
▁ત્રીજા	-2620
▁વિડીયો	-2621
▁સુધારો	-2622
▁રેકોર્ડ	-2623
.5	-2624
ગલ	-2625
સાઇ	-2626
▁ઓન	-2627
પમાં	-2628
રોને	-2629
▁છોડ	-2630
▁જૂથ	-2631
▁ફેસ	-2632
▁રોક	-2633
▁શકા	-2634
ભાવના	-2635
▁વપરા	-2636
▁અંતિમ	-2637
▁પુરુષ	-2638
▁કરીશું	-2639
▁પવિત્ર	-2640
▁માટેની	-2641
ંગ્લેન્ડ	-2642
હુ	-2643
ર્ય	-2644
ોના	-2645
વારે	-2646
વાલો	-2647
▁ગેર	-2648
▁થતી	-2649
▁તાલુ	-2650
▁આસપાસ	-2651
▁હાઈકો	-2652
▁જગ્યાએ	-2653
▁શહેરમાં	-2654
▁કાર્યક્રમમાં	-2655
ંગી	-2656
▁શૌ	-2657
▁વળી	-2658
▁સહે	-2659
ંગ્લા	-2660
સ્કાર	-2661
▁એક્ટર	-2662
▁ચંદ્ર	-2663
▁દીકરા	-2664
▁પાર્ક	-2665
▁ગુજરાતના	-2666
me	-2667
ટ્ટ	-2668
ાલે	-2669
▁૧૧	-2670
▁અટક	-2671
નાલ્ડ	-2672
પ્રિય	-2673
ાયેલી	-2674
▁ડેટા	-2675
▁પૂરા	-2676
▁વિના	-2677
▁ખાતરી	-2678
▁રાખવા	-2679
▁મેળવવા	-2680
▁યહોવાહની	-2681
પિત	-2682
મતી	-2683
બંધી	-2684
િષ્ઠ	-2685
્યાલ	-2686
▁આશી	-2687
▁નેટ	-2688
તામાં	-2689
▁એન્જ	-2690
▁ડુંગ	-2691
▁બિલ્	-2692
▁માનવ	-2693
▁બોર્ડ	-2694
▁શિષ્યો	-2695
▁નિર્માણ	-2696
▁માર્કેટ	-2697
▁સ્વીકાર	-2698
મ્બ	-2699
ળના	-2700
▁વ્	-2701
ક્તો	-2702
દારો	-2703
ામીન	-2704
▁આર્	-2705
▁ઉદ્	-2706
▁મૂલ	-2707
▁હરા	-2708
▁કરાઈ	-2709
▁નિધન	-2710
▁શકું	-2711
▁તમારો	-2712
▁ફાયદા	-2713
▁બચ્ચન	-2714
▁બરાબર	-2715
▁રણવીર	-2716
▁કરોડની	-2717
▁બાળકોને	-2718
ભૂ	-2719
વુ	-2720
▁ઐ	-2721
ડીએ	-2722
દીપ	-2723
▁ફટ	-2724
▁જોર	-2725
▁લાઇ	-2726
ર્વાદ	-2727
સામાં	-2728
▁આમાં	-2729
▁જસ્ટ	-2730
▁થોડી	-2731
▁બાંધ	-2732
▁વધશે	-2733
▁ટ્વીટ	-2734
▁દીધું	-2735
▁એવોર્ડ	-2736
▁યાત્રા	-2737
▁યુવાનો	-2738
▁અનુષ્કા	-2739
ષિત	-2740
સાઈ	-2741
▁યૂ	-2742
▁છૂટ	-2743
▁ભૂત	-2744
▁શાસ	-2745
▁નિપજ	-2746
▁બોલા	-2747
▁સમજી	-2748
▁હોવા	-2749
▁કરીના	-2750
▁પક્ષી	-2751
▁હંમેશ	-2752
▁ક્ષમતા	-2753
▁નિર્દેશ	-2754
▁દુર્ઘટના	-2755
▁તાત્કાલિક	-2756
હ્	-2757
કરે	-2758
▁લડ	-2759
્રાઇ	-2760
▁તબી	-2761
▁મરી	-2762
▁રેડ	-2763
▁આવતી	-2764
▁ઇચ્છા	-2765
▁વૃક્ષ	-2766
▁વ્યાપ	-2767
▁ટ્વિટર	-2768
▁સીસીટી	-2769
▁પ્રારંભ	-2770
કટ	-2771
ંદન	-2772
લ્લી	-2773
▁એક્	-2774
▁ડિઝ	-2775
▁વાઈ	-2776
▁ઇચ્છ	-2777
▁ભોજન	-2778
▁બીજું	-2779
▁યુવતી	-2780
▁ભાજપને	-2781
▁મોદીની	-2782
▁પરીક્ષા	-2783
▁ફિલ્મને	-2784
▁સામાજિક	-2785
▁આશીર્વાદ	-2786
▁પ્રતિબંધ	-2787
યલ	-2788
સલ	-2789
ોએ	-2790
▁અડ	-2791
▁હળ	-2792
રીને	-2793
▁ભરા	-2794
▁વાળ	-2795
તૃત્વ	-2796
▁બેસી	-2797
▁આવશ્ય	-2798
▁વધારા	-2799
▁અંતર્ગ	-2800
▁પ્રમાણ	-2801
▁બાંગ્લા	-2802
▁બોલીવુડ	-2803
▁સરકારની	-2804
▁સીસીટીવી	-2805
▁ફૂ	-2806
▁વસ	-2807
લાઇન	-2808
▁પકડ	-2809
▁યુવ	-2810
દ્ધતિ	-2811
ફોર્મ	-2812
▁મહેન	-2813
્રિસ્ત	-2814
▁બેન્ચ	-2815
▁વેપાર	-2816
▁બન્યું	-2817
▁એકાઉન્ટ	-2818
▁ડોનાલ્ડ	-2819
▁ઔ	-2820
ફ્ટ	-2821
ભૂત	-2822
▁આપો	-2823
▁કરાવ	-2824
▁ખેંચ	-2825
▁ધોની	-2826
▁બજેટ	-2827
▁સુના	-2828
▁આદિત્ય	-2829
▁કરનારા	-2830
▁નીચેના	-2831
▁ફિલ્મો	-2832
▁વરિષ્ઠ	-2833
▁અંતર્ગત	-2834
es	-2835
ઉં	-2836
દમ	-2837
સન	-2838
ંતી	-2839
કડી	-2840
ઠવા	-2841
ડાં	-2842
ણીએ	-2843
પરછ	-2844
ભાઈ	-2845
પિતા	-2846
સીપી	-2847
િતાભ	-2848
▁અપી	-2849
▁યોજ	-2850
▁સાઉ	-2851
▁આશરે	-2852
▁ગ્રે	-2853
▁મહિલાઓ	-2854
▁ખ્રિસ્ત	-2855
▁સંભાવના	-2856
કના	-2857
તરે	-2858
ેટ્	-2859
▁ગઠ	-2860
▁ધન	-2861
▁૧૨	-2862
▁પીડ	-2863
પાત્ર	-2864
▁કાઢી	-2865
▁તણાવ	-2866
▁સાચી	-2867
▁ડુંગળી	-2868
▁પદ્ધતિ	-2869
▁પ્રગતિ	-2870
▁નેતૃત્વ	-2871
▁વાતાવરણ	-2872
ંગા	-2873
રાફ	-2874
્રહ	-2875
વાર્	-2876
સમાં	-2877
▁આથી	-2878
▁દૂધ	-2879
▁હાં	-2880
▁લેશે	-2881
▁પડ્યો	-2882
▁પ્રભુ	-2883
▁મોકલી	-2884
▁મોદીના	-2885
▁સંયુક્ત	-2886
▁જિલ્લાના	-2887
ધ્	-2888
રિક	-2889
િના	-2890
▁તિ	-2891
▁ગમે	-2892
▁જામ	-2893
▁તને	-2894
▁પર્વ	-2895
▁જેટલા	-2896
▁પાત્ર	-2897
▁મારું	-2898
▁અમિતાભ	-2899
▁જેનાથી	-2900
▁સમર્થન	-2901
▁વર્તમાન	-2902
▁વિશ્વમાં	-2903
પથ	-2904
જની	-2905
ર્ષ	-2906
▁37	-2907
▁એફ	-2908
▁લિ	-2909
▁વલ	-2910
▁ઊભા	-2911
▁શરુ	-2912
▁મેગા	-2913
▁હજાર	-2914
▁હરિયા	-2915
▁આવશ્યક	-2916
▁બીમારી	-2917
▁લાગ્યો	-2918
▁સંશોધન	-2919
▁વિરૂદ્ધ	-2920
▁કહેવામાં	-2921
જુન	-2922
ડાઈ	-2923
ણના	-2924
વરે	-2925
સાહ	-2926
▁(_	-2927
▁ગૂ	-2928
▁ભય	-2929
▁સગ	-2930
▁તહે	-2931
▁પરત	-2932
▁વાઇ	-2933
કર્તા	-2934
▁અઠવા	-2935
▁એન્ટ	-2936
▁કૃષિ	-2937
▁ખાને	-2938
▁જનતા	-2939
▁જેનો	-2940
▁જોખમ	-2941
▁બીજો	-2942
▁ખોટું	-2943
▁શક્યા	-2944
▁કાર્યો	-2945
▁પ્રતિક	-2946
▁ઈન્સ્ટાગ્રામ	-2947
or	-2948
ાવત	-2949
▁ઑફ	-2950
▁ખૂ	-2951
▁ઘો	-2952
▁મથ	-2953
▁ઓછા	-2954
▁શૌચ	-2955
ેટ્ટી	-2956
▁કંઈક	-2957
▁શોધી	-2958
▁બેસ્ટ	-2959
▁ડિગ્રી	-2960
▁બીજેપી	-2961
▁મોદીને	-2962
▁દિશામાં	-2963
▁સરકારના	-2964
વડ	-2965
▁[	-2966
નીય	-2967
નેજ	-2968
રૂખ	-2969
્યે	-2970
▁ઉભ	-2971
▁તુ	-2972
▁ધમ	-2973
ધ્યા	-2974
શ્વિક	-2975
▁ઓફિસ	-2976
▁ખરીદ	-2977
▁તકલી	-2978
▁પૈકી	-2979
▁યાદવ	-2980
સ્ટ્રી	-2981
▁ઉત્તે	-2982
▁બતાવે	-2983
▁ભગવાન	-2984
▁માધ્ય	-2985
▁મિશ્ર	-2986
▁અહેવાલ	-2987
▁ફિલ્મની	-2988
▁યહોવાહે	-2989
▁લોકપ્રિય	-2990
BI	-2991
ફળ	-2992
ારૂ	-2993
ેટર	-2994
સ્વી	-2995
▁જ્ઞ	-2996
▁બિન	-2997
▁રમત	-2998
▁અપીલ	-2999
▁જેટલી	-3000
▁વાહનો	-3001
▁અધિકાર	-3002
▁આપવાની	-3003
▁જવાબદાર	-3004
▁સમીક્ષા	-3005
▁બાંગ્લાદેશ	-3006
▁મહારાષ્ટ્રમાં	-3007
ચો	-3008
ઝન	-3009
ઢી	-3010
▁હી	-3011
ગ્રા	-3012
▁નાય	-3013
▁ફાઈ	-3014
▁સપા	-3015
▁અગ્ર	-3016
▁પુરા	-3017
▁વાહન	-3018
▁શબ્દ	-3019
▁કરાયો	-3020
▁પાઠવી	-3021
▁હિન્દ	-3022
▁ચૂક્યા	-3023
▁શાહરૂખ	-3024
▁હરિયાણા	-3025
▁ફિલ્મોમાં	-3026
▁એચ	-3027
▁તમ	-3028
િત્વ	-3029
▁અતિ	-3030
▁ઉભા	-3031
▁જંગ	-3032
▁નીક	-3033
▁રોલ	-3034
▁અંબા	-3035
▁નિરા	-3036
▁શરીર	-3037
▁સીએમ	-3038
▁આગળની	-3039
▁ખાનની	-3040
▁ફેરફાર	-3041
▁વૃદ્ધિ	-3042
▁વ્યસ્ત	-3043
▁હવામાન	-3044
▁પ્રયાસો	-3045
▁પ્રશંસા	-3046
▁વૈશ્વિક	-3047
al	-3048
શીલ	-3049
ભાજી	-3050
રીના	-3051
▁પોઝ	-3052
▁શહી	-3053
▁શાક	-3054
▁એકદમ	-3055
▁દાવો	-3056
▁મંદિ	-3057
▁હિસ્	-3058
▁ભરોસો	-3059
▁સ્વાદ	-3060
▁પોતાને	-3061
▁ભારતનો	-3062
▁માનસિક	-3063
▁લાગ્યા	-3064
▁સુશાંત	-3065
ંખ	-3066
નમ	-3067
મંડ	-3068
▁17	-3069
▁૧૪	-3070
▁અજય	-3071
▁રીત	-3072
▁અનિલ	-3073
▁કોન્	-3074
▁ટિપ્	-3075
▁તારા	-3076
▁તેવા	-3077
▁સિંગ	-3078
▁કરાયા	-3079
▁હિંસા	-3080
▁પુસ્તક	-3081
▁રાજકાર	-3082
▁શૌચાલય	-3083
▁સુનાવણી	-3084
▁સ્પર્ધા	-3085
▁દિવસોમાં	-3086
▁ભૂમિકામાં	-3087
▁એડ	-3088
ન્દી	-3089
હમાં	-3090
▁ટોચ	-3091
▁મરણ	-3092
▁વડી	-3093
નામાં	-3094
▁નીપજ	-3095
▁પરેશ	-3096
▁ફરાર	-3097
▁બ્રિ	-3098
▁આલિયા	-3099
▁ઈસ્રા	-3100
▁કેસની	-3101
▁મહેનત	-3102
▁મૃતદે	-3103
▁રહેલી	-3104
▁સંગીત	-3105
▁વધુમાં	-3106
▁ધારાસભ્ય	-3107
▁ધારાસભ્યો	-3108
99	-3109
જિ	-3110
ઠો	-3111
ઠ્	-3112
મસ	-3113
કાં	-3114
દર્ભ	-3115
▁માળ	-3116
▁રાવ	-3117
▁શાન	-3118
▁સૂચ	-3119
▁આપતા	-3120
▁કશું	-3121
▁દેવા	-3122
▁બ્રે	-3123
▁મ્યુ	-3124
▁સાઇન	-3125
▁હેલ્	-3126
▁ગઠબંધ	-3127
▁ત્રણે	-3128
▁પડકાર	-3129
▁બનાવે	-3130
▁વિશાળ	-3131
▁સમયથી	-3132
▁અત્યંત	-3133
▁પ્રોત્	-3134
▁બેટિંગ	-3135
▁રાખવું	-3136
▁પરિણામો	-3137
▁સરકારને	-3138
▁રાજ્યસભા	-3139
▁પ્રમાણમાં	-3140
કિ	-3141
મેટ	-3142
લિમ	-3143
િલના	-3144
▁અરે	-3145
▁આઉટ	-3146
▁આગે	-3147
▁એપ્	-3148
▁ચીફ	-3149
▁શપથ	-3150
▁સાફ	-3151
▁સૈફ	-3152
▁આકાશ	-3153
▁બેંગ	-3154
▁ભટ્ટ	-3155
▁મૂકી	-3156
▁જામીન	-3157
▁મેનેજ	-3158
▁જસ્ટિસ	-3159
▁રોલમાં	-3160
▁સિસ્ટમ	-3161
કારાત્મક	-3162
▁મોટાભાગ	-3163
▁વિધાનસભાની	-3164
▁બર	-3165
ગાવી	-3166
્યાન	-3167
▁કંઇ	-3168
▁ગતિ	-3169
▁ટાઇ	-3170
ત્કાર	-3171
▁કેવા	-3172
▁બદલે	-3173
▁સંસદ	-3174
▁સભ્ય	-3175
▁સ્તર	-3176
ાર્મિક	-3177
▁જેવું	-3178
▁લગાવી	-3179
▁હૈદરા	-3180
▁ડૉક્ટર	-3181
▁શાનદાર	-3182
▁સંપર્ક	-3183
▁સાંભળી	-3184
▁સ્વચ્છ	-3185
▁હિન્દી	-3186
▁કાર્યક્ર	-3187
▁વ્યક્તિને	-3188
ખાણ	-3189
લીમ	-3190
હોલ	-3191
▁ઓલ	-3192
▁કબ	-3193
▁રદ	-3194
લ્પો	-3195
સ્ટે	-3196
▁કેદ	-3197
▁વાપ	-3198
▁સાથ	-3199
લ્લેખ	-3200
▁ચાલક	-3201
▁પૂર્	-3202
▁એશિયા	-3203
▁કાળજી	-3204
▁ક્લિક	-3205
▁થયેલી	-3206
▁સાચું	-3207
▁ઉત્પાદ	-3208
▁ઉલ્લેખ	-3209
▁નેટવર્	-3210
▁સોનિયા	-3211
▁પાર્ટીના	-3212
▁અકસ્માતમાં	-3213
ૂમ	-3214
▁s	-3215
થ્થ	-3216
▁મગ	-3217
▁રૃ	-3218
ગેરે	-3219
▁આંગ	-3220
▁કડક	-3221
▁કરણ	-3222
▁જરા	-3223
▁મના	-3224
▁લીડ	-3225
▁વિટ	-3226
▁શંકા	-3227
▁તારીખ	-3228
▁ધાર્મિક	-3229
▁પાકિસ્તાની	-3230
અપ	-3231
ઇડ	-3232
બુક	-3233
લ્લ	-3234
▁જઇ	-3235
▁જમ	-3236
ર્જા	-3237
▁500	-3238
▁ડીઝ	-3239
▁તેજ	-3240
▁ત્વ	-3241
▁રાય	-3242
▁હોત	-3243
▁ઉત્પ	-3244
▁કપિલ	-3245
▁કરાર	-3246
▁ડિસ્	-3247
▁ભાગે	-3248
▁હેતુ	-3249
▁આંકડા	-3250
▁માન્ય	-3251
▁મેગાપ	-3252
▁શ્રીલ	-3253
▁એન્જિન	-3254
▁પ્રાણી	-3255
▁જણાવ્યા	-3256
▁વિકલ્પો	-3257
▁હંમેશાં	-3258
▁ગૃહમંત્રી	-3259
▁સ્થિતિમાં	-3260
દના	-3261
▁આઠ	-3262
▁લૂ	-3263
મ્મી	-3264
લાસો	-3265
▁જોગ	-3266
▁દંડ	-3267
▁બિઝ	-3268
▁ચૂકી	-3269
▁ટૂંક	-3270
▁ફ્રે	-3271
▁વર્ગ	-3272
▁હાલત	-3273
▁અર્થે	-3274
▁ઉજવણી	-3275
▁કેવું	-3276
▁રશિયા	-3277
▁અર્જુન	-3278
▁ઓપરેશન	-3279
▁ભાવમાં	-3280
▁માર્યા	-3281
▁સ્વાગત	-3282
▁ધરવામાં	-3283
▁પ્રેરિત	-3284
▁ફિલ્મના	-3285
ંજ	-3286
ધુ	-3287
હત	-3288
▁%	-3289
▁0	-3290
ંડો	-3291
દિક	-3292
ાંજ	-3293
ારણ	-3294
▁ઘે	-3295
▁ફિ	-3296
▁હર	-3297
ધાની	-3298
બ્રા	-3299
▁આખા	-3300
▁જાગ	-3301
▁કાળા	-3302
▁ખાંડ	-3303
▁ગોલ્ડ	-3304
▁પર્યા	-3305
▁બોક્સ	-3306
▁સપ્તા	-3307
▁તાપમાન	-3308
▁હિન્દુ	-3309
▁વિજ્ઞાન	-3310
▁શાકભાજી	-3311
▁પ્રોત્સા	-3312
▁હૈદરાબાદ	-3313
▁પરિવારજનો	-3314
),	-3315
સં	-3316
લ્ટ	-3317
ળની	-3318
▁40	-3319
પ્તિ	-3320
ર્ટે	-3321
▁ઠેર	-3322
▁રજા	-3323
શ્ચિત	-3324
િક્સલ	-3325
▁ઉકેલ	-3326
▁ખાલી	-3327
▁નજરે	-3328
▁યુરો	-3329
▁શકશો	-3330
▁સ્પી	-3331
▁બતાવી	-3332
▁બનાવો	-3333
▁મર્યા	-3334
▁યુવાન	-3335
▁વધારી	-3336
▁સિદ્ધ	-3337
▁જોડાયા	-3338
▁પરિવર્	-3339
▁સંદર્ભ	-3340
▁તેમાંથી	-3341
▁નોંધાવી	-3342
▁રાજ્યપાલ	-3343
▁રાજીનામું	-3344
▁|	-3345
કેશ	-3346
પણી	-3347
િકો	-3348
▁24	-3349
▁૧૩	-3350
▁કન્	-3351
▁2019	-3352
▁જુદા	-3353
▁સંજો	-3354
▁ઈન્ટર	-3355
▁તેવું	-3356
▁રણબીર	-3357
▁ઉત્તેજન	-3358
▁યહોવાહને	-3359
▁શ્રીલંકા	-3360
▁સ્માર્ટફોન	-3361
?"	-3362
કન	-3363
વિસ	-3364
▁કૈ	-3365
▁ચૌ	-3366
▁ઝી	-3367
▁ફુ	-3368
....	-3369
▁આમિ	-3370
▁ચેત	-3371
▁મોડ	-3372
▁લડી	-3373
▁વિન	-3374
▁ચાલે	-3375
▁દેવે	-3376
▁સીટો	-3377
▁જિરાફ	-3378
▁નિશાન	-3379
▁સેન્ટ	-3380
▁અભિયાન	-3381
▁નિયમિત	-3382
▁પૂછપરછ	-3383
▁રૂપાણી	-3384
▁અભિનંદન	-3385
▁માનવામાં	-3386
લાઇ	-3387
િયત	-3388
▁આજ	-3389
સ્ટર	-3390
ાયેલ	-3391
▁આની	-3392
▁ચાં	-3393
▁નવો	-3394
▁ભ્ર	-3395
કુમાર	-3396
્રિયા	-3397
▁ગુસ્	-3398
▁ધીમે	-3399
▁ફ્લા	-3400
▁લોહી	-3401
▁સ્ના	-3402
▁ઈસુના	-3403
▁ચહેરા	-3404
▁તેઓની	-3405
▁દાખલા	-3406
▁પગલું	-3407
▁પહેલો	-3408
▁રહેતા	-3409
▁સૂચના	-3410
▁હોવાની	-3411
▁ટ્રાન્સ	-3412
▁ખેડૂતોને	-3413
▁ડિરેક્ટર	-3414
▁વાસ્તવિક	-3415
▁O	-3416
કુલ	-3417
ષ્ણ	-3418
▁Ne	-3419
▁અચ	-3420
▁પિ	-3421
▁લૉ	-3422
દ્દન	-3423
▁ઊભી	-3424
▁થતો	-3425
▁રેટ	-3426
▁લાવ	-3427
▁વેબ	-3428
▁એટલા	-3429
▁એનું	-3430
▁પૂજા	-3431
▁પૂરો	-3432
▁છોકરી	-3433
▁જયારે	-3434
▁દરરોજ	-3435
▁ફેન્સ	-3436
▁શેતાન	-3437
▁સંચાલ	-3438
▁અંગેની	-3439
▁મેડિકલ	-3440
▁સ્થાને	-3441
▁કર્ણાટક	-3442
▁બનાવ્યા	-3443
▁ક્રિકેટર	-3444
▁દિલ્હીના	-3445
▁ગીતશાસ્ત્ર	-3446
en	-3447
ગન	-3448
ક્કર	-3449
ષ્ટા	-3450
▁ટુક	-3451
▁મચી	-3452
લેક્ટ	-3453
▁લેવી	-3454
▁જોયું	-3455
▁બન્યો	-3456
▁વગેરે	-3457
▁સમિતિ	-3458
▁સિરીઝ	-3459
▁સેવાઓ	-3460
▁પ્રસ્તા	-3461
▁મધ્યપ્રદેશ	-3462
સૂ	-3463
ડની	-3464
મનો	-3465
વાહ	-3466
▁21	-3467
▁નમ	-3468
મીટર	-3469
લિંગ	-3470
શાળી	-3471
ાર્ટ	-3472
▁મેન	-3473
▁વિગ	-3474
▁સૂર	-3475
▁અટકા	-3476
▁કેબિ	-3477
▁ચુકા	-3478
▁બધું	-3479
▁બેઠા	-3480
▁મુસ્	-3481
▁આત્મા	-3482
▁જાપાન	-3483
▁ત્વચા	-3484
▁પાઊલે	-3485
▁બાળકી	-3486
▁સંતાન	-3487
▁સુધાર	-3488
▁બિઝનેસ	-3489
▁જેમાંથી	-3490
▁નાણાકીય	-3491
▁બિલ્ડિંગ	-3492
▁સુરક્ષિત	-3493
▁હુમલામાં	-3494
▁રાજ્યોમાં	-3495
-2	-3496
ધો	-3497
જીત	-3498
પીએ	-3499
ર્જ	-3500
ાયી	-3501
િટલ	-3502
▁અહ	-3503
ંતોષ	-3504
ંદગી	-3505
જમાં	-3506
દેસર	-3507
ન્ડર	-3508
પ્પા	-3509
લીને	-3510
વાડી	-3511
▁અના	-3512
▁ઓવર	-3513
▁કાન	-3514
▁મનુ	-3515
વવાની	-3516
▁આર્ટ	-3517
▁પહેર	-3518
▁પાડી	-3519
▁પ્રી	-3520
▁આનાથી	-3521
▁ટીમના	-3522
▁તદ્દન	-3523
▁દેખાય	-3524
▁માહોલ	-3525
▁વપરાશ	-3526
▁શામેલ	-3527
▁દર્દીઓ	-3528
▁શેટ્ટી	-3529
▁દેશોમાં	-3530
▁મુસાફરી	-3531
▁સામગ્રી	-3532
▁પ્રસ્તાવ	-3533
.0	-3534
એક	-3535
દિ	-3536
યન	-3537
▁U	-3538
▁ઍ	-3539
એસટી	-3540
તાના	-3541
માનો	-3542
▁કાઉ	-3543
▁ડેબ	-3544
▁નું	-3545
▁ભલા	-3546
▁સંઘ	-3547
▁હાઉ	-3548
ણીમાં	-3549
▁જવાન	-3550
▁મિશન	-3551
▁શારી	-3552
▁સોંપ	-3553
▁કરાશે	-3554
▁કેજરી	-3555
▁બ્રિટ	-3556
▁માંગો	-3557
▁માલિક	-3558
▁એજન્સી	-3559
▁કેન્સર	-3560
▁પાણીની	-3561
▁ફેસબુક	-3562
▁માટેના	-3563
▁રાખીને	-3564
▁શારીરિક	-3565
ંબ	-3566
ચલ	-3567
▁H	-3568
"""	-3569
ડીઝ	-3570
▁ફળ	-3571
▁ભણ	-3572
▁૧૭	-3573
ંપરા	-3574
કોની	-3575
ર્તિ	-3576
▁અનિ	-3577
▁જેઓ	-3578
▁થયાં	-3579
▁નીકળ	-3580
▁ન્યુ	-3581
▁ફોટા	-3582
▁માથા	-3583
▁વિગત	-3584
▁વર્ષો	-3585
▁વાદળી	-3586
▁પરંપરા	-3587
છે	-3588
લને	-3589
િયે	-3590
▁ટુ	-3591
▁ભી	-3592
ર્મે	-3593
▁અલબ	-3594
▁ટાળ	-3595
▁બાર	-3596
▁રૂા	-3597
▁લંડ	-3598
▁સેવ	-3599
નલમાં	-3600
▁આપણો	-3601
▁આમિર	-3602
▁ગોળી	-3603
▁જુદી	-3604
▁શહીદ	-3605
▁કરેલી	-3606
▁પ્રજા	-3607
▁ભરપૂર	-3608
▁મેદાન	-3609
▁વહેંચ	-3610
▁અંબાણી	-3611
▁કંપનીઓ	-3612
▁તહેવાર	-3613
▁રાજનાથ	-3614
▁સૂત્રો	-3615
▁હિસ્સો	-3616
▁ઈજાગ્રસ્ત	-3617
.1	-3618
50	-3619
ઝર	-3620
િડ	-3621
કટી	-3622
કામ	-3623
ચાણ	-3624
ધિક	-3625
ાની	-3626
ઝર્સ	-3627
પત્ર	-3628
શ્રી	-3629
સ્ટો	-3630
▁આગા	-3631
▁આયુ	-3632
▁દબા	-3633
▁ધવન	-3634
▁પાપ	-3635
▁રમી	-3636
▁ઉમેર	-3637
▁ગાડી	-3638
▁ટીમો	-3639
▁પાલન	-3640
▁મમતા	-3641
▁વિકસ	-3642
▁સચિવ	-3643
▁સ્કૂ	-3644
▁કાયદો	-3645
▁જોઈને	-3646
▁જ્ઞાન	-3647
▁નોંધા	-3648
▁પડ્યા	-3649
▁પુનરા	-3650
▁કરાયું	-3651
▁બાથરૂમ	-3652
▁વિકલ્પ	-3653
▁પ્રતિનિ	-3654
▁રૂપિયાની	-3655
ઓથી	-3656
ઘાન	-3657
દિવ	-3658
લવા	-3659
▁જણ	-3660
▁હુ	-3661
ણામે	-3662
▁ફંડ	-3663
▁ભોગ	-3664
▁વધે	-3665
▁સંર	-3666
્રેજી	-3667
▁બનવા	-3668
▁સર્જ	-3669
ંગ્રેસ	-3670
▁એટલું	-3671
▁ખેડૂત	-3672
▁ચાર્જ	-3673
▁બિલાડી	-3674
▁ભાજપની	-3675
▁વૈજ્ઞાન	-3676
▁ભૂતપૂર્વ	-3677
ંસ	-3678
ીક	-3679
▁22	-3680
▁છૂ	-3681
ચાવી	-3682
તાનો	-3683
મારે	-3684
યેલી	-3685
▁કાફ	-3686
▁કોચ	-3687
▁ગેસ	-3688
▁ટિક	-3689
▁મજા	-3690
▁માફ	-3691
▁સહન	-3692
▁સેક	-3693
▁સ્મ	-3694
્યુઅલ	-3695
▁ખોટી	-3696
▁નહિં	-3697
▁બ્લે	-3698
▁સંકે	-3699
▁અંદાજ	-3700
▁કોઇપણ	-3701
▁ચોપરા	-3702
▁દેખાવ	-3703
▁ભક્તો	-3704
▁શોધખો	-3705
▁શ્વાસ	-3706
▁સવાલો	-3707
▁હકીકત	-3708
▁હોવું	-3709
▁વર્ષના	-3710
▁વિદેશી	-3711
▁પરિણામે	-3712
▁લોકોમાં	-3713
▁વરસાદના	-3714
સણ	-3715
ૂહ	-3716
▁ઋ	-3717
યાત	-3718
વાજ	-3719
▁ધા	-3720
▁સબ	-3721
▁૨૦	-3722
ડમાં	-3723
પ્લે	-3724
બાઇલ	-3725
રાની	-3726
▁અમલ	-3727
▁દયા	-3728
▁પોલ	-3729
▁ફરજ	-3730
ખ્યાત	-3731
હત્યા	-3732
▁ઈચ્છ	-3733
▁ઓછું	-3734
▁પામી	-3735
▁શાહે	-3736
▁સમજૂ	-3737
▁હકીક	-3738
▁જણાવી	-3739
▁તાલીમ	-3740
▁નીતિન	-3741
▁ફગાવી	-3742
▁મિક્સ	-3743
▁રાજપૂ	-3744
▁સૈન્ય	-3745
▁હિંમત	-3746
▁ઈસ્રાએ	-3747
▁જોરદાર	-3748
▁મૃતદેહ	-3749
▁શોધખોળ	-3750
▁સંગ્રહ	-3751
▁સાથેના	-3752
▁સાથેની	-3753
▁સ્વર્ગ	-3754
▁સ્વસ્થ	-3755
▁ભાગીદારી	-3756
▁સ્વતંત્ર	-3757
▁પરિવારમાં	-3758
▁પાર્ટીમાં	-3759
ૂળ	-3760
▁રજ	-3761
▁લવ	-3762
કેશન	-3763
ક્સી	-3764
રેલી	-3765
▁ખંડ	-3766
▁ફાળ	-3767
▁મુક	-3768
▁આખરે	-3769
▁પથ્થ	-3770
▁પાદુ	-3771
▁ફ્રી	-3772
▁યુવા	-3773
▁સ્ટી	-3774
િલનાડુ	-3775
▁આગાહી	-3776
▁દરિયા	-3777
▁નહોતો	-3778
▁મમ્મી	-3779
▁વિગતો	-3780
▁સહકાર	-3781
▁સૈનિક	-3782
▁જીએસટી	-3783
▁ધરાવતા	-3784
▁મુદ્દો	-3785
▁વ્યવહાર	-3786
▁સંપત્તિ	-3787
▁કાર્યક્રમો	-3788
▁મેગાપિક્સલ	-3789
બાર	-3790
મથી	-3791
યાં	-3792
▁ડર	-3793
▁શૈ	-3794
▁૧૬	-3795
ગારી	-3796
નીતિ	-3797
ન્યા	-3798
▁નગર	-3799
▁મની	-3800
▁મેટ	-3801
▁રમા	-3802
▁રિસ	-3803
▁વહી	-3804
રીમાં	-3805
▁અદાલ	-3806
▁અવસર	-3807
▁આરામ	-3808
▁દત્ત	-3809
ક્ષણિક	-3810
▁અભિષે	-3811
▁ઈસુને	-3812
▁રક્ષણ	-3813
▁વડીલો	-3814
▁સરળતા	-3815
▁નિષ્ફળ	-3816
▁પાદુકો	-3817
▁યોગદાન	-3818
▁વાર્તા	-3819
▁સુધારા	-3820
▁અમેરિકન	-3821
▁પરીક્ષણ	-3822
▁ચર્ચામાં	-3823
▁પરિવર્તન	-3824
પન	-3825
બળ	-3826
ati	-3827
દ્દ	-3828
ધ્ધ	-3829
▁જલ	-3830
▁ઝા	-3831
રોની	-3832
▁આંખ	-3833
▁આને	-3834
▁ઉંમ	-3835
▁ગણા	-3836
▁મોહ	-3837
▁લોન	-3838
▁વેર	-3839
▁આકર્	-3840
▁આશ્ચ	-3841
▁ગરીબ	-3842
▁મહાસ	-3843
▁વાયુ	-3844
▁વિજે	-3845
▁સાઉથ	-3846
▁સ્પે	-3847
▁આક્ષે	-3848
▁મુક્ત	-3849
▁વિન્ડ	-3850
રાષ્ટ્ર	-3851
▁અલબત્ત	-3852
▁કોર્પો	-3853
▁ક્યારેક	-3854
▁રહેવાની	-3855
▁સમસ્યાઓ	-3856
▁અર્થતંત્ર	-3857
▁વ્યક્તિગત	-3858
▁પ્રોત્સાહન	-3859
▁સંપૂર્ણપણે	-3860
▁વિદ્યાર્થીઓને	-3861
ટેજ	-3862
દની	-3863
રાઈ	-3864
રેજ	-3865
ાંક	-3866
▁મલ	-3867
▁યથ	-3868
▁રચ	-3869
ત્તી	-3870
સ્પે	-3871
▁કદી	-3872
▁ચાહ	-3873
▁માઇ	-3874
▁ઉતાર	-3875
▁કિંગ	-3876
▁થતું	-3877
▁પુષ્	-3878
▁દીકરો	-3879
▁વેસ્ટ	-3880
▁સંબોધન	-3881
▁આરોપીની	-3882
▁દિલ્હીઃ	-3883
▁ભારતનું	-3884
▁મહત્વની	-3885
▁જરૂરિયાત	-3886
▁લોકસભાની	-3887
▁આત્મહત્યા	-3888
ઈન	-3889
ળુ	-3890
▁F	-3891
▁t	-3892
ડતા	-3893
રુણ	-3894
િત્	-3895
▁કચ	-3896
▁કૅ	-3897
▁ગમ	-3898
▁હૉ	-3899
▁૧૮	-3900
તાથી	-3901
માને	-3902
વમાં	-3903
વારી	-3904
સાથે	-3905
▁કાપ	-3906
▁નાગ	-3907
▁વચન	-3908
▁2020	-3909
▁કાબૂ	-3910
▁કિંમ	-3911
▁જૂના	-3912
▁ડેરી	-3913
▁બાયો	-3914
▁મળતા	-3915
▁મળવા	-3916
▁માબા	-3917
▁યોજા	-3918
▁હોવી	-3919
▁અફઘાન	-3920
▁પૂરું	-3921
▁માણસો	-3922
▁સંબોધ	-3923
ઝીલેન્ડ	-3924
▁પ્રહાર	-3925
▁શહેરની	-3926
▁આશ્ચર્ય	-3927
▁પોલીસની	-3928
▁શેરીમાં	-3929
▁સંરક્ષણ	-3930
▁પ્રભાવિત	-3931
▁મુલાકાતે	-3932
▁પ્રવૃત્તિ	-3933
.2	-3934
ખત	-3935
▁E	-3936
ંજન	-3937
ંધા	-3938
▁જૈ	-3939
▁તૂ	-3940
▁નર	-3941
તરના	-3942
દ્દી	-3943
પ્રદ	-3944
▁370	-3945
▁અજા	-3946
▁ઊંઘ	-3947
▁નાશ	-3948
▁બેન	-3949
▁સમૃ	-3950
ગ્રામ	-3951
▁જનરલ	-3952
▁ત્રિ	-3953
▁મળતી	-3954
▁માની	-3955
▁યોગી	-3956
▁સમયગ	-3957
સ્તાવે	-3958
▁એકવાર	-3959
▁કરેલા	-3960
▁પ્લેટ	-3961
▁સ્ટેટ	-3962
▁હાઇકો	-3963
▁અભિષેક	-3964
▁લેવાની	-3965
▁વધારવા	-3966
▁આમંત્રણ	-3967
▁ઈશ્વરના	-3968
▁દસ્તાવે	-3969
▁નિયંત્ર	-3970
▁સ્ત્રીઓ	-3971
▁પુનરાવર્	-3972
▁બનાવવાની	-3973
.”	-3974
le	-3975
રત	-3976
લબ	-3977
▁c	-3978
ઘાત	-3979
ચીન	-3980
યાન	-3981
▁વૉ	-3982
▁હટ	-3983
મરાન	-3984
િટેડ	-3985
ુનિક	-3986
▁લોટ	-3987
▁વકી	-3988
▁વલણ	-3989
કર્મી	-3990
▁જતાં	-3991
▁દારૂ	-3992
▁પીડા	-3993
▁માફી	-3994
▁શાહિ	-3995
▁સાજા	-3996
▁આજ્ઞા	-3997
▁ઠાકરે	-3998
▁મહિને	-3999
▁લીધું	-4000
▁વિટામ	-4001
▁સંતોષ	-4002
▁આધુનિક	-4003
▁ઉપયોગી	-4004
▁કહેવાય	-4005
▁કહેવું	-4006
▁કેટલું	-4007
▁ત્રણેય	-4008
▁શ્રદ્ધ	-4009
▁કોંગ્રેસને	-4010
ઘર	-4011
દૂ	-4012
લમ	-4013
ૂક	-4014
▁T	-4015
▁m	-4016
ણીય	-4017
વિત	-4018
ષિક	-4019
ન્સે	-4020
પુરા	-4021
બાઈલ	-4022
વ્યવ	-4023
ૃતિક	-4024
▁કોમ	-4025
▁ધોર	-4026
▁વાય	-4027
▁વીજ	-4028
▁સિવ	-4029
કામના	-4030
શિષ્ટ	-4031
▁આંખો	-4032
▁ક્રે	-4033
▁જવું	-4034
▁મેળવ	-4035
▁ડ્રાઇ	-4036
▁તબીબી	-4037
▁તેઓના	-4038
▁મનમાં	-4039
▁લાંબી	-4040
▁સંસ્ક	-4041
▁સર્જા	-4042
▁સ્કૂલ	-4043
▁હિંદુ	-4044
▁અટકાયત	-4045
▁પામ્યા	-4046
▁મોબાઇલ	-4047
▁વિરોધી	-4048
▁સહિતના	-4049
▁સીબીઆઈ	-4050
▁પ્રેરણા	-4051
▁લાગ્યું	-4052
▁વર્ષમાં	-4053
▁કિલોમીટર	-4054
▁દેશભરમાં	-4055
▁ઇંગ્લેન્ડ	-4056
▁તાલુકામાં	-4057
▁પ્રતિક્રિયા	-4058
am	-4059
▁p	-4060
જનક	-4061
ડામ	-4062
ત્સ	-4063
ફાઇ	-4064
લોડ	-4065
▁ઉમ	-4066
મ્મદ	-4067
▁ઘેટ	-4068
▁પંડ	-4069
▁મોટ	-4070
ડોદરા	-4071
નેશનલ	-4072
રેક્ટ	-4073
લીમાં	-4074
▁અંતર	-4075
▁એપ્ર	-4076
▁ગણાવ	-4077
▁ગુલા	-4078
▁તોપણ	-4079
▁પ્રિ	-4080
▁વાપર	-4081
▁કહેવા	-4082
▁ડ્રાઈ	-4083
▁સવારે	-4084
▁હજારો	-4085
▁ગઠબંધન	-4086
▁દિવાળી	-4087
▁વેપારી	-4088
▁અસરકારક	-4089
▁ટ્રમ્પે	-4090
▁દરમ્યાન	-4091
▁નેટવર્ક	-4092
▁વરસાદની	-4093
▁D	-4094
કાત	-4095
વેલ	-4096
વ્ર	-4097
▁1/	-4098
▁ગત	-4099
▁ઘટ	-4100
▁પલ	-4101
ન્શન	-4102
મનાથ	-4103
ર્ટમ	-4104
ર્ના	-4105
▁આંધ	-4106
શ્વાસ	-4107
▁જોડી	-4108
▁ટ્રક	-4109
▁તેમા	-4110
▁પડતી	-4111
▁પરિષ	-4112
▁પેદા	-4113
▁લાખો	-4114
▁સિંધ	-4115
▁ચેમ્પ	-4116
▁તકલીફ	-4117
▁બ્લેક	-4118
▁કેબિનેટ	-4119
▁પ્રવાસી	-4120
જાગ્રસ્તો	-4121
▁કાર્યકરો	-4122
▁નોંધપાત્ર	-4123
▁પ્રદેશમાં	-4124
GB	-4125
it	-4126
ખે	-4127
હણ	-4128
ંદી	-4129
કોએ	-4130
વીએ	-4131
▁1,	-4132
▁in	-4133
▁છી	-4134
કાર્	-4135
લાઈન	-4136
્રિક	-4137
▁પાઉ	-4138
▁પાવ	-4139
▁મરા	-4140
▁વિલ	-4141
▁સરસ	-4142
ન્ટ્સ	-4143
પક્ષી	-4144
▁આંદો	-4145
▁જારી	-4146
▁ડોલર	-4147
▁તેણી	-4148
▁ભાઈઓ	-4149
▁કરાવી	-4150
▁જાણીએ	-4151
▁નારાજ	-4152
▁નીકળી	-4153
▁સ્થળો	-4154
▁હેલ્થ	-4155
▁જીતીને	-4156
▁નહોતું	-4157
▁વિજેતા	-4158
▁સમજૂતી	-4159
▁ત્યારથી	-4160
▁યાદીમાં	-4161
▁શ્રદ્ધાંજ	-4162
▁કોંગ્રેસની	-4163
▁મહારાષ્ટ્રના	-4164
ha	-4165
▁60	-4166
▁અખ	-4167
▁ઘૂ	-4168
પિંગ	-4169
ર્મો	-4170
વચનો	-4171
▁ઉપા	-4172
▁જાઓ	-4173
▁ટાઈ	-4174
બલમાં	-4175
્યાલય	-4176
▁કરેલ	-4177
▁ગીતો	-4178
▁નાખી	-4179
▁પાવર	-4180
▁બદલી	-4181
▁સિંક	-4182
▁અથડામ	-4183
▁આવ્યુ	-4184
▁કમાણી	-4185
▁જોડાણ	-4186
▁પ્રમો	-4187
▁રાજીવ	-4188
▁હાંસલ	-4189
▁ઓછામાં	-4190
▁ઘટનાને	-4191
▁ચેતવણી	-4192
▁રાજીના	-4193
▁હાથમાં	-4194
▁હાર્દિક	-4195
▁નાગરિકતા	-4196
▁પુરસ્કાર	-4197
▁પ્રદેશના	-4198
▁સત્તાવાર	-4199
▁અફઘાનિસ્તાન	-4200
ઈટ	-4201
ઈલ	-4202
પલ	-4203
યી	-4204
હૂ	-4205
ટીન	-4206
રેટ	-4207
ેલી	-4208
્રુ	-4209
▁અજ	-4210
▁ઘા	-4211
▁મૌ	-4212
કોનો	-4213
પૂરે	-4214
▁ઘટી	-4215
▁જતી	-4216
▁ક્રો	-4217
▁ટેબલ	-4218
▁નાયબ	-4219
▁બ્લડ	-4220
▁ભૂમિ	-4221
▁ભેગા	-4222
▁મકાન	-4223
▁મારફ	-4224
▁સમર્	-4225
▁કપૂરે	-4226
▁કોલેજ	-4227
▁ચલાવી	-4228
▁ટિકિટ	-4229
▁ડિઝાઇ	-4230
▁તંત્ર	-4231
▁ફટકાર	-4232
▁સરદાર	-4233
▁સિવિલ	-4234
▁સ્ટાફ	-4235
▁અરવિંદ	-4236
▁એક્ટિવ	-4237
▁એપ્લિક	-4238
▁જાણીતા	-4239
▁ટ્રેલર	-4240
▁પાણીથી	-4241
▁બનાવની	-4242
▁ભાજપમાં	-4243
▁મુસ્લિમ	-4244
▁સરળતાથી	-4245
▁સાક્ષીઓ	-4246
uj	-4247
ચક	-4248
બજ	-4249
કોર	-4250
પૂન	-4251
હેબ	-4252
▁સદ	-4253
કોના	-4254
ડિયો	-4255
ડ્યો	-4256
ભારી	-4257
ભૂમિ	-4258
▁આઝા	-4259
▁ઘાસ	-4260
▁બેસ	-4261
ડીમાં	-4262
ફરન્સ	-4263
▁અંતે	-4264
▁એમની	-4265
▁જીબી	-4266
▁ટેક્	-4267
▁નમ્ર	-4268
▁ન્યા	-4269
▁પાછો	-4270
▁મેડલ	-4271
▁લેતા	-4272
▁વર્ક	-4273
▁સત્ર	-4274
▁કાફલો	-4275
▁જાળવી	-4276
▁દુષ્ટ	-4277
▁દેશને	-4278
▁રાખવી	-4279
▁વર્ષે	-4280
તિહાસિક	-4281
▁ઉત્સાહ	-4282
▁નુકશાન	-4283
▁હોવાનો	-4284
▁પાકિસ્તાનની	-4285
re	-4286
ti	-4287
શલ	-4288
અમે	-4289
તનો	-4290
ફાઈ	-4291
લિવ	-4292
લીઓ	-4293
સગઢ	-4294
ૈયા	-4295
▁શખ	-4296
ujar	-4297
ત્તર	-4298
ફ્રે	-4299
બદ્ધ	-4300
બાની	-4301
લ્દી	-4302
વાયા	-4303
શાની	-4304
▁ઓટો	-4305
▁ઓફર	-4306
▁તુલ	-4307
▁દુખ	-4308
▁પવન	-4309
▁રવિ	-4310
▁લખી	-4311
▁અજાણ	-4312
▁ઉદ્ધ	-4313
▁એમને	-4314
▁ગુના	-4315
▁ગ્રી	-4316
▁પકડી	-4317
▁માને	-4318
▁લગાવ	-4319
ન્ટમાં	-4320
યોધ્યા	-4321
▁એન્ટી	-4322
▁થોડું	-4323
▁દિગ્ગ	-4324
▁નામની	-4325
▁બધાને	-4326
▁બેટ્સ	-4327
▁ભાવના	-4328
▁શાહરુ	-4329
▁સ્તરે	-4330
▁સ્થિર	-4331
▁સ્પેશ	-4332
▁એનસીપી	-4333
▁કિંમતો	-4334
▁જિંદગી	-4335
▁ત્રીજી	-4336
▁પંચાયત	-4337
▁રાત્રે	-4338
▁રિસર્ચ	-4339
▁વડોદરા	-4340
▁વિચારી	-4341
▁કાયદેસર	-4342
▁પૂછ્યું	-4343
▁વિશિષ્ટ	-4344
▁નિયંત્રણ	-4345
▁પ્રખ્યાત	-4346
▁મુંબઈમાં	-4347
ઝે	-4348
પક	-4349
ણની	-4350
મીર	-4351
રેખ	-4352
વને	-4353
▁28	-4354
▁32	-4355
▁ચઢ	-4356
▁કૂત	-4357
▁છબી	-4358
▁જુએ	-4359
▁થયુ	-4360
▁સખત	-4361
▁સરહ	-4362
ેક્ષા	-4363
▁એકલા	-4364
▁ગર્વ	-4365
▁ટાપુ	-4366
▁થવું	-4367
▁ધમકી	-4368
▁નાસી	-4369
▁વિસ્	-4370
▁શીખી	-4371
લાયન્સ	-4372
▁તબિયત	-4373
▁પ્રવા	-4374
▁પ્લાન	-4375
▁રસ્તો	-4376
▁સપાટી	-4377
▁સમક્ષ	-4378
▁સિંહે	-4379
▁આરોપીઓ	-4380
▁જવામાં	-4381
▁શહેરના	-4382
▁સેન્ટર	-4383
▁ઈશ્વરની	-4384
▁ગાંધીની	-4385
▁ત્યાંથી	-4386
▁નોંધાયો	-4387
▁સ્થાપિત	-4388
▁દુનિયાના	-4389
▁હકીકતમાં	-4390
is	-4391
શક	-4392
િશ	-4393
દ્ર	-4394
િરા	-4395
▁26	-4396
▁અણ	-4397
▁ઝો	-4398
▁હલ	-4399
ક્તા	-4400
ડાના	-4401
ત્રે	-4402
લ્યુ	-4403
▁અપા	-4404
▁ચેર	-4405
▁ભલે	-4406
▁લુક	-4407
▁વિભ	-4408
▁સેટ	-4409
આતમાં	-4410
શનમાં	-4411
▁આંગણ	-4412
▁કોશિ	-4413
▁દ્વિ	-4414
▁ફાઇલ	-4415
▁મોડે	-4416
▁કોઈની	-4417
▁ગુજરા	-4418
▁પાવડર	-4419
▁પોર્ટ	-4420
▁શાહિદ	-4421
▁કિસ્સા	-4422
▁જેલમાં	-4423
▁પ્રદાન	-4424
▁શાહરુખ	-4425
▁અયોધ્યા	-4426
▁કોર્ટના	-4427
▁ગાંધીને	-4428
▁નોંધીને	-4429
▁પાણીમાં	-4430
▁મર્યાદા	-4431
▁મોટરસાઇ	-4432
▁સંસ્થાઓ	-4433
▁આરોપીઓને	-4434
▁સંસ્કૃતિ	-4435
▁મુશ્કેલીઓ	-4436
▁માર્ગદર્શન	-4437
▁ઉત્તરપ્રદેશ	-4438
.)	-4439
ra	-4440
પાળ	-4441
▁૨૧	-4442
ંવાર	-4443
નિયર	-4444
સાથી	-4445
▁અંક	-4446
▁ઝાર	-4447
▁ટોસ	-4448
▁ઠાર	-4449
▁ફોર	-4450
▁યહુ	-4451
▁લશ્	-4452
▁વાજ	-4453
▁સંક	-4454
▁સતા	-4455
▁સરખ	-4456
▁હિત	-4457
શ્વરે	-4458
▁અનુક	-4459
▁ઉપાય	-4460
▁જાતે	-4461
▁નાખો	-4462
▁બજાર	-4463
▁વખાણ	-4464
▁સાચા	-4465
પક્ષીય	-4466
▁આપણું	-4467
▁મદદથી	-4468
▁મૂલ્ય	-4469
▁રાજકો	-4470
▁કામમાં	-4471
▁બેસીને	-4472
▁મોબાઈલ	-4473
▁સપોર્ટ	-4474
▁સમુદાય	-4475
▁સિદ્ધા	-4476
▁પોલીસના	-4477
▁બોલિવુડ	-4478
▁વારંવાર	-4479
▁અઠવાડિયા	-4480
▁આંગણવાડી	-4481
▁ઐતિહાસિક	-4482
▁ચેમ્પિયન	-4483
▁ડાયરેક્ટર	-4484
▁તબક્કામાં	-4485
▁મંત્રીમંડ	-4486
▁મોકલવામાં	-4487
▁મોટાભાગના	-4488
▁સૌરાષ્ટ્ર	-4489
▁ઇન્સ્ટાગ્રામ	-4490
ંશ	-4491
ઘુ	-4492
ષા	-4493
જૂર	-4494
પ્સ	-4495
માલ	-4496
ષ્ક	-4497
▁23	-4498
▁બગ	-4499
ક્ટો	-4500
ક્ષમ	-4501
ઘાટન	-4502
શાહી	-4503
િટીવ	-4504
▁ઝાડ	-4505
▁દાઊ	-4506
▁ભૂક	-4507
▁ભેટ	-4508
▁માપ	-4509
બોર્ડ	-4510
▁કરીશ	-4511
▁કુદર	-4512
▁ગરમી	-4513
▁તેલુ	-4514
▁પાડે	-4515
▁પુરી	-4516
▁ફ્લો	-4517
▁ભજવી	-4518
▁મુકા	-4519
▁મોડી	-4520
▁વહીવ	-4521
▁સમૂહ	-4522
▁જલ્દી	-4523
▁જવાની	-4524
▁દેખાઈ	-4525
▁કપૂરની	-4526
▁ખુલાસો	-4527
▁દિવસની	-4528
▁પરિવહન	-4529
▁ફોનમાં	-4530
▁સમાધાન	-4531
▁કેટલાંક	-4532
▁ક્યાંથી	-4533
▁ટિપ્પણી	-4534
▁પોઝિટીવ	-4535
▁સ્ક્રીન	-4536
▁જોડાયેલા	-4537
▁પ્રયત્નો	-4538
▁મહત્વનું	-4539
.4	-4540
ંડે	-4541
ટિલ	-4542
ડતી	-4543
ણવી	-4544
થિય	-4545
દેવ	-4546
ધરી	-4547
નનો	-4548
સીએ	-4549
▁ઉછ	-4550
▁કૂ	-4551
કાનો	-4552
મોહન	-4553
રાના	-4554
િકાર	-4555
▁આખો	-4556
▁ચોક	-4557
▁ડિજ	-4558
▁પટે	-4559
▁2018	-4560
▁ખાતા	-4561
▁ચારે	-4562
▁મોટે	-4563
▁લડાઈ	-4564
▁વિતર	-4565
▁સંવે	-4566
▁સીમા	-4567
▁સુરત	-4568
▁કલ્યા	-4569
▁ગણતરી	-4570
▁પથ્થર	-4571
▁મધ્યમ	-4572
▁કર્યાં	-4573
▁કોરિયા	-4574
▁ક્રિયા	-4575
▁જોગવાઈ	-4576
▁ઝારખંડ	-4577
▁ટીમમાં	-4578
▁બાપ્તિ	-4579
▁સંક્રમ	-4580
▁સર્વિસ	-4581
▁અપેક્ષા	-4582
▁મહાત્મા	-4583
▁વાર્ષિક	-4584
▁અંગ્રેજી	-4585
▁પરિવારના	-4586
▁પાડવામાં	-4587
▁પુનરાવર્તન	-4588
ગમ	-4589
ટિ	-4590
ંકર	-4591
યેલ	-4592
શને	-4593
હ્ન	-4594
▁35	-4595
▁ભુ	-4596
રેલા	-4597
સ્ટી	-4598
▁ઓછો	-4599
▁કને	-4600
▁કૌભ	-4601
▁જાવ	-4602
▁ઠીક	-4603
▁દોર	-4604
▁બેક	-4605
▁વોટ	-4606
▁હોમ	-4607
દર્શક	-4608
સ્ટિક	-4609
▁આરંભ	-4610
▁આવવા	-4611
▁કાંઈ	-4612
▁ચુકી	-4613
▁જેને	-4614
▁ટાટા	-4615
▁બંદો	-4616
▁સચિન	-4617
▁આંધ્ર	-4618
▁ઘેટાં	-4619
▁ડ્રેસ	-4620
▁નોટિસ	-4621
▁લાકડા	-4622
▁વેચાણ	-4623
▁શક્યો	-4624
▁સોશ્ય	-4625
▁સ્ટોપ	-4626
▁કર્ણાટ	-4627
▁છેલ્લી	-4628
▁નજીકના	-4629
▁પક્ષના	-4630
▁શર્માએ	-4631
▁સ્વભાવ	-4632
▁આરોપીને	-4633
▁પોસ્ટમો	-4634
▁વાયરસના	-4635
▁કૉંગ્રેસ	-4636
▁ગુજરાતની	-4637
▁વ્યક્તિઓ	-4638
▁સરકારમાં	-4639
▁મોટરસાઇકલ	-4640
▁સ્ટેશનમાં	-4641
▁અમેરિકામાં	-4642
▁કાશ્મીરમાં	-4643
CI	-4644
as	-4645
ગણ	-4646
ંદર	-4647
કાળ	-4648
તરો	-4649
ાનક	-4650
▁અઘ	-4651
▁૨૨	-4652
બસ્ત	-4653
મારા	-4654
રિટી	-4655
▁ગાય	-4656
▁ટોપ	-4657
▁પીએ	-4658
▁વફા	-4659
▁વિધ	-4660
▁હોટ	-4661
▁કોને	-4662
▁માછી	-4663
▁હાઉસ	-4664
ર્ટમાં	-4665
▁અચાનક	-4666
▁ઉત્તમ	-4667
▁ચીનના	-4668
▁થવાનો	-4669
▁પેસ્ટ	-4670
▁વધીને	-4671
▁સંજોગ	-4672
▁સાધનો	-4673
કાશ્મીર	-4674
ષ્ટાચાર	-4675
▁એપ્રિલ	-4676
▁ધરાવતી	-4677
▁મારફતે	-4678
▁લક્ષ્ય	-4679
▁સ્ટોરી	-4680
▁ભાષામાં	-4681
▁વરસાદને	-4682
▁બંદોબસ્ત	-4683
▁મામલામાં	-4684
▁શુભકામના	-4685
-0	-4686
.3	-4687
dia	-4688
ંધો	-4689
ંબુ	-4690
ભાઇ	-4691
લાલ	-4692
સેસ	-4693
▁70	-4694
ંગના	-4695
શિયમ	-4696
સીની	-4697
▁કંટ	-4698
▁કૈફ	-4699
▁ફૂટ	-4700
▁બળા	-4701
▁મશી	-4702
▁લિમ	-4703
ચાર્જ	-4704
માર્ગ	-4705
વત્તા	-4706
▁કૃપા	-4707
▁કેવો	-4708
▁ઘરની	-4709
▁ઠંડી	-4710
▁ડાઉન	-4711
▁નામે	-4712
▁ભવ્ય	-4713
પુરમાં	-4714
▁કમિશન	-4715
▁ગ્રીન	-4716
▁તીવ્ર	-4717
▁દિલથી	-4718
▁બનેલી	-4719
▁લાખની	-4720
▁વૃદ્ધ	-4721
▁વોર્ડ	-4722
▁શુદ્ધ	-4723
▁સાવચે	-4724
▁ઉદ્દેશ	-4725
▁દિગ્ગજ	-4726
▁ન્યાયા	-4727
▁મિશ્રણ	-4728
▁વિપક્ષ	-4729
▁વિભાગે	-4730
▁વિસ્ફો	-4731
▁ફેરફારો	-4732
▁સ્થાપના	-4733
▁કેજરીવાલ	-4734
▁રસોડામાં	-4735
▁શરૂઆતમાં	-4736
▁કોન્ફરન્સ	-4737
▁વૈજ્ઞાનિક	-4738
▁પાકિસ્તાને	-4739
▁ભ્રષ્ટાચાર	-4740
▁ન્યૂઝીલેન્ડ	-4741
▁પાકિસ્તાનને	-4742
▁પાકિસ્તાનમાં	-4743
).	-4744
▁J	-4745
▁K	-4746
કાઈ	-4747
મરી	-4748
સ્ય	-4749
▁IP	-4750
▁તફ	-4751
▁ફડ	-4752
લીની	-4753
વાને	-4754
શિયન	-4755
▁એણે	-4756
▁કસર	-4757
▁ટેક	-4758
▁નાં	-4759
▁ભીડ	-4760
▁રિઝ	-4761
▁લઈએ	-4762
્યુટર	-4763
▁અનુસ	-4764
▁ગુણો	-4765
▁ટીમે	-4766
▁પરાજ	-4767
▁પામે	-4768
▁આરોપો	-4769
▁ઉપકરણ	-4770
▁છત્તી	-4771
▁ટ્વિટ	-4772
▁તેનાં	-4773
▁નિર્મ	-4774
▁માંથી	-4775
▁સમારો	-4776
▁ઈતિહાસ	-4777
▁કોહલીએ	-4778
▁નિષ્ણા	-4779
▁રોજગાર	-4780
▁લેખમાં	-4781
▁સેક્ટર	-4782
▁દર્શાવે	-4783
▁ફાયરિંગ	-4784
▁રાજનીતિ	-4785
▁દિલ્હીની	-4786
▁કિસ્સામાં	-4787
▁લોકસભામાં	-4788
▁પરમેશ્વરના	-4789
▁પ્લેટફોર્મ	-4790
▁બાપ્તિસ્મા	-4791
▁શ્રદ્ધાંજલિ	-4792
,5	-4793
ૂં	-4794
▁V	-4795
કાલ	-4796
િની	-4797
્રલ	-4798
▁ખી	-4799
માની	-4800
લોને	-4801
▁1/2	-4802
▁કાગ	-4803
▁મલ્	-4804
▁સરે	-4805
▁સિક	-4806
▁અગ્ન	-4807
▁ઉંમર	-4808
▁કલ્પ	-4809
▁ગયાં	-4810
▁ચક્ર	-4811
▁જપ્ત	-4812
▁જર્મ	-4813
▁બાઇક	-4814
▁મનોર	-4815
▁વ્યૂ	-4816
▁શાંત	-4817
▁સેવન	-4818
▁ઇનકાર	-4819
▁કેટલો	-4820
▁ભાગના	-4821
▁માગણી	-4822
▁મ્યુઝ	-4823
▁યુરોપ	-4824
▁યોહાન	-4825
▁લાવવા	-4826
▁વાતને	-4827
શ્વર્યા	-4828
▁અંદાજે	-4829
▁કલ્યાણ	-4830
▁કોવિંદ	-4831
▁તેમનાં	-4832
▁તેલુગુ	-4833
▁થવાનું	-4834
▁દિવસના	-4835
▁પહોંચા	-4836
▁પ્રયોગ	-4837
▁બંન્ને	-4838
▁બાળકને	-4839
▁હોવાના	-4840
વ્યવસ્થા	-4841
▁તૈયારીઓ	-4842
▁લોકોનું	-4843
▁વિશ્વના	-4844
▁છત્તીસગઢ	-4845
▁નીતિવચનો	-4846
▁પહેલીવાર	-4847
▁વ્યક્તિની	-4848
ic	-4849
લક	-4850
વળ	-4851
સમ	-4852
વશે	-4853
શોક	-4854
સને	-4855
▁તળ	-4856
▁લુ	-4857
ંદુર	-4858
ડાયા	-4859
ર્દી	-4860
સ્તે	-4861
્રેટ	-4862
▁અરો	-4863
▁ઊભો	-4864
▁તાર	-4865
▁દોષ	-4866
▁પડો	-4867
▁પોઈ	-4868
▁ફિટ	-4869
▁મોર	-4870
▁રોય	-4871
કોમાં	-4872
▁એટલી	-4873
▁કમ્પ	-4874
▁ખરું	-4875
▁ઘટકો	-4876
▁જલદી	-4877
▁જાતિ	-4878
▁તૂટી	-4879
▁બધાં	-4880
▁રક્ત	-4881
▁વધતી	-4882
▁વરસા	-4883
▁શકતો	-4884
▁સર્ચ	-4885
▁સોનમ	-4886
▁હથિય	-4887
કાઉન્ટ	-4888
ગ્રસ્ત	-4889
▁ઘટનાઓ	-4890
▁જાણતા	-4891
▁પીડિત	-4892
▁માંગી	-4893
▁રક્ષા	-4894
▁વ્યાજ	-4895
▁સંગઠન	-4896
▁સ્ટેડ	-4897
▁સ્પીડ	-4898
વિશ્વાસ	-4899
▁કરોડનો	-4900
▁ટ્રેનો	-4901
▁ન્યાયી	-4902
▁ફ્રન્ટ	-4903
▁મનમોહન	-4904
▁માટેનો	-4905
▁મિલિયન	-4906
▁મૂક્યો	-4907
▁વિનંતી	-4908
▁ઇન્ડિયન	-4909
▁એન્ટ્રી	-4910
▁કરાયેલા	-4911
▁કારણોસર	-4912
▁રાખવાની	-4913
▁લગાવ્યો	-4914
▁શાસ્ત્ર	-4915
▁બાઇબલમાં	-4916
▁મેદાનમાં	-4917
▁રિલાયન્સ	-4918
▁હાઈકોર્ટે	-4919
જાગ્રસ્તોને	-4920
.6	-4921
ઈડ	-4922
ણુ	-4923
▁b	-4924
ચિત	-4925
નાત	-4926
ન્ગ	-4927
માળ	-4928
યાહ	-4929
રાશ	-4930
વેર	-4931
શિપ	-4932
ાજન	-4933
ાવર	-4934
િલિ	-4935
▁31	-4936
▁80	-4937
▁ચર	-4938
▁૨૩	-4939
▁૨૪	-4940
ટાવી	-4941
પીએફ	-4942
હારી	-4943
▁300	-4944
▁અબ્	-4945
▁ફર્	-4946
▁બેડ	-4947
▁મંગ	-4948
▁માછ	-4949
▁યશા	-4950
▁રેમ	-4951
લોમાં	-4952
ળામાં	-4953
▁અપના	-4954
▁અસ્ત	-4955
▁એકતા	-4956
▁કાપી	-4957
▁કાબુ	-4958
▁જેવો	-4959
▁જ્યો	-4960
▁થઈને	-4961
▁પોલિ	-4962
▁રાજય	-4963
▁લાઇટ	-4964
▁વચનો	-4965
સ્ત્રી	-4966
▁અમારો	-4967
▁કોશિશ	-4968
▁વસ્તી	-4969
▁શકાશે	-4970
▁સૂર્ય	-4971
▁ઓનલાઇન	-4972
▁કૌભાંડ	-4973
▁ચુક્યા	-4974
▁ડિજિટલ	-4975
▁પરેશાન	-4976
▁બંનેની	-4977
▁રૂપમાં	-4978
▁લગ્નની	-4979
▁વૃક્ષો	-4980
▁શ્રેણી	-4981
▁સંબંધી	-4982
▁ગુજરાતી	-4983
▁દ્રષ્ટિ	-4984
▁ગુણવત્તા	-4985
▁માધ્યમથી	-4986
▁ઇજાગ્રસ્ત	-4987
▁અમદાવાદમાં	-4988
▁પોસ્ટમોર્ટમ	-4989
છા	-4990
▁)	-4991
▁₹	-4992
ંટી	-4993
ાજુ	-4994
▁અય	-4995
ઠ્ઠી	-4996
દાયક	-4997
પિયા	-4998
ાર્ડ	-4999
▁202	-5000
▁અદ્	-5001
▁અસા	-5002
▁મરચ	-5003
▁વડે	-5004
▁શોક	-5005
શક્તિ	-5006
▁ઉત્સ	-5007
▁થોડો	-5008
▁દબાણ	-5009
▁ધરતી	-5010
▁પેકે	-5011
▁મીટર	-5012
▁મૂકો	-5013
▁સંકળ	-5014
▁સુયો	-5015
કિર્દી	-5016
▁ઈબ્રા	-5017
▁નામના	-5018
▁નેપાળ	-5019
▁સમયની	-5020
▁સવારી	-5021
▁સ્ટોર	-5022
▁કરોડથી	-5023
▁યહોવાએ	-5024
▁સ્ત્રો	-5025
▁જન્મદિવ	-5026
▁પાદુકોણ	-5027
▁બીજાઓને	-5028
▁ભારતીયો	-5029
▁માન્યતા	-5030
▁મોહમ્મદ	-5031
▁ગાંધીનગર	-5032
▁પરિવારને	-5033
▁બેટ્સમેન	-5034
▁ઈંગ્લેન્ડ	-5035
▁કારકિર્દી	-5036
ed	-5037
ષક	-5038
▁W	-5039
▁g	-5040
ડિટ	-5041
તીય	-5042
પાક	-5043
બહે	-5044
મતિ	-5045
લીન	-5046
સીબ	-5047
ડાની	-5048
ડીપી	-5049
લેથી	-5050
▁ખોલ	-5051
▁ગાળ	-5052
▁ચિદ	-5053
▁તત્	-5054
▁તોડ	-5055
▁પદે	-5056
▁બુક	-5057
▁યુગ	-5058
ગરમાં	-5059
ચાર્ય	-5060
▁અવાજ	-5061
▁ઇમાર	-5062
▁કસ્ટ	-5063
▁કૌશલ	-5064
▁ખોટા	-5065
▁ચોરી	-5066
▁પરના	-5067
▁પુનઃ	-5068
▁યુએસ	-5069
▁યુપી	-5070
▁રોકી	-5071
▁વર્ણ	-5072
▁શિલ્	-5073
▁સિટી	-5074
▁સેલિ	-5075
▁સ્ને	-5076
▁હવાઈ	-5077
▁Gujar	-5078
▁ત્રાસ	-5079
▁પપ્પા	-5080
▁પરાજય	-5081
▁બ્રેક	-5082
▁ભૂકંપ	-5083
▁માંગે	-5084
▁યથાવત	-5085
▁રહ્યુ	-5086
▁અનુભવી	-5087
▁કુદરતી	-5088
▁જાનહાન	-5089
▁ડિઝાઇન	-5090
▁તબક્કા	-5091
▁બીસીસી	-5092
▁બેઠેલા	-5093
▁મૂળભૂત	-5094
▁રાખ્યો	-5095
▁વિન્ડો	-5096
▁શિક્ષક	-5097
▁સમુદ્ર	-5098
▁સીબીઆઇ	-5099
▁સુધીની	-5100
▁યહોવાની	-5101
▁વિચિત્ર	-5102
▁વિટામિન	-5103
▁સુવિધાઓ	-5104
▁બળાત્કાર	-5105
▁સેન્ટ્રલ	-5106
▁સ્વીકારી	-5107
▁કર્મચારીઓ	-5108
▁દેવેન્દ્ર	-5109
▁દ્વિપક્ષીય	-5110
▁કોંગ્રેસમાં	-5111
વૉ	-5112
કાય	-5113
ટણી	-5114
ટની	-5115
ટેક	-5116
બળો	-5117
બેક	-5118
રોએ	-5119
સ્વ	-5120
▁તજ	-5121
▁નુ	-5122
▁સન	-5123
▁૨૫	-5124
ન્હા	-5125
પ્યુ	-5126
વનાર	-5127
વાણી	-5128
સ્પદ	-5129
હ્નો	-5130
▁આનો	-5131
▁છેઃ	-5132
▁ડબલ	-5133
▁તકો	-5134
▁દાન	-5135
▁પાય	-5136
▁બલિ	-5137
▁બેં	-5138
▁રસી	-5139
▁રૂમ	-5140
▁વ્હ	-5141
વાળું	-5142
▁અશોક	-5143
▁આકરા	-5144
▁કોણે	-5145
▁જઈને	-5146
▁દેવી	-5147
▁પાછી	-5148
▁પાયો	-5149
▁બેનર	-5150
▁મેસે	-5151
▁વધતા	-5152
▁વિવે	-5153
▁સાર્	-5154
▁સુખી	-5155
▁હોવો	-5156
▁આપીને	-5157
▁ઉદ્ધવ	-5158
▁ચેન્ન	-5159
▁દૃશ્ય	-5160
▁નહોતા	-5161
▁ફોર્મ	-5162
▁લિસ્ટ	-5163
▁વાતની	-5164
▁સરખામ	-5165
▁હાલના	-5166
▁હેન્ડ	-5167
▁આપવાનો	-5168
▁ઇલેક્ટ	-5169
▁ઈશ્વરભ	-5170
▁એમાંથી	-5171
▁કલ્પના	-5172
▁કુમારે	-5173
▁જીવનની	-5174
▁પડ્યું	-5175
▁મદદરૂપ	-5176
▁માંગણી	-5177
▁રસપ્રદ	-5178
▁એન્ડ્રો	-5179
▁નોંધાયા	-5180
▁બજારમાં	-5181
▁બેનર્જી	-5182
▁યહોવાના	-5183
▁રાજકારણ	-5184
▁પહોંચ્યો	-5185
▁શહેરોમાં	-5186
▁સંબંધમાં	-5187
▁બાથરૂમમાં	-5188
આરી	-5189
ક્ક	-5190
રાહ	-5191
▁નક	-5192
▁મૅ	-5193
▁૩૦	-5194
ડાઉન	-5195
વર્ડ	-5196
્યુટ	-5197
▁કલે	-5198
▁દળો	-5199
▁નિત	-5200
▁રોષ	-5201
▁સફર	-5202
▁સોં	-5203
માત્ર	-5204
▁અવાર	-5205
▁આકાર	-5206
▁એમના	-5207
▁કરાઇ	-5208
▁ગવર્	-5209
▁ગ્રૂ	-5210
▁ટીકા	-5211
▁તેવો	-5212
▁ધરાવ	-5213
▁પેટા	-5214
▁ફાર્	-5215
▁બોલર	-5216
▁મંડળ	-5217
▁આવકાર	-5218
▁તંદુર	-5219
▁પાઉડર	-5220
▁ફડણવી	-5221
▁બતાવો	-5222
▁મુકેશ	-5223
▁લીંબુ	-5224
▁સંકેત	-5225
▁સમજવા	-5226
▁સાથીઓ	-5227
▁આંતરિક	-5228
▁કંપનીએ	-5229
▁ચિહ્નો	-5230
▁ચુકાદો	-5231
▁ફટકારી	-5232
▁બ્રિગે	-5233
▁સરેરાશ	-5234
▁સ્ટાર્	-5235
▁નિર્ણયો	-5236
▁લોકોનાં	-5237
▁ઇન્ટરનેટ	-5238
▁ક્ષેત્રે	-5239
▁પંચાયતઘર	-5240
▁સાંભળીને	-5241
કૃ	-5242
ીય	-5243
અલગ	-5244
ભુત	-5245
રાઇ	-5246
▁ઈન	-5247
▁દબ	-5248
દમાં	-5249
દ્દા	-5250
પ્તા	-5251
વાયો	-5252
ાવતા	-5253
▁ઓફિ	-5254
▁તામ	-5255
▁ધોઈ	-5256
▁નિમ	-5257
▁બીચ	-5258
▁વાન	-5259
સ્ટ્ર	-5260
▁આયાત	-5261
▁ગૌરવ	-5262
▁ટેકો	-5263
▁તમિલ	-5264
▁દરવા	-5265
▁દુશ્	-5266
▁પેઢી	-5267
▁બ્રો	-5268
▁રહેલ	-5269
▁રોકડ	-5270
▁શાસન	-5271
ર્કમાં	-5272
ાવ્યું	-5273
▁આર્મી	-5274
▁ચાલતા	-5275
▁જાતને	-5276
▁જેમણે	-5277
▁ટ્રેક	-5278
▁દાખલો	-5279
▁પુલવા	-5280
▁પૃષ્ઠ	-5281
▁માબાપ	-5282
▁માસ્ક	-5283
▁લક્ષ્	-5284
▁વર્તન	-5285
▁વાઈરલ	-5286
▁શોમાં	-5287
▁સક્ષમ	-5288
▁સર્જન	-5289
▁અન્યાય	-5290
▁આંદોલન	-5291
▁કલાકાર	-5292
▁છેલ્લે	-5293
▁ડોક્ટર	-5294
▁નેતાઓએ	-5295
▁બાકીના	-5296
▁મહત્તમ	-5297
▁રજિસ્ટ	-5298
▁રામનાથ	-5299
▁વહીવટી	-5300
▁સામેની	-5301
▁સોશ્યલ	-5302
▁કંટ્રોલ	-5303
▁કંપનીના	-5304
▁કલાકારો	-5305
▁પત્રકાર	-5306
▁પ્રોટીન	-5307
▁રાખ્યું	-5308
▁વિગતવાર	-5309
▁આરોપીઓની	-5310
▁જીવનસાથી	-5311
▁એપ્લિકેશન	-5312
▁સંજોગોમાં	-5313
av	-5314
ws	-5315
ૅર	-5316
▁f	-5317
જીએ	-5318
મણે	-5319
ોનો	-5320
૦૦૦	-5321
▁27	-5322
▁ટન	-5323
ટીંગ	-5324
ડેજા	-5325
શાલે	-5326
▁દીઠ	-5327
▁પદ્	-5328
▁માથ	-5329
▁સીએ	-5330
સ્ટાર	-5331
▁ગુરુ	-5332
▁ગૂગલ	-5333
▁ગ્લો	-5334
▁ટોળા	-5335
▁રહીએ	-5336
▁સુનિ	-5337
▁સેલ્	-5338
▁હર્ષ	-5339
▁હિમા	-5340
▁અભિનય	-5341
▁આપેલા	-5342
▁કપડાં	-5343
▁કમિટી	-5344
▁કોલકા	-5345
▁ટુકડા	-5346
▁પાડવા	-5347
▁પ્રસિ	-5348
▁માનું	-5349
▁લાખથી	-5350
▁સર્વે	-5351
▁સર્વો	-5352
ફ્રેન્ડ	-5353
▁પુરાવા	-5354
▁પુષ્ટિ	-5355
▁આતંકવાદ	-5356
▁દિવસમાં	-5357
▁પુલવામા	-5358
▁પ્રાચીન	-5359
▁બાળકોના	-5360
▁રાજધાની	-5361
▁લિમિટેડ	-5362
▁લોકશાહી	-5363
▁વધારાની	-5364
▁ઉત્પત્તિ	-5365
▁પાર્કિંગ	-5366
▁લાવવામાં	-5367
▁મેનેજમેન્ટ	-5368
JP	-5369
om	-5370
છો	-5371
ધક	-5372
ટકી	-5373
ડેટ	-5374
લાસ	-5375
હાજ	-5376
હાણ	-5377
▁29	-5378
▁ગડ	-5379
▁ગભ	-5380
▁ઝઘ	-5381
▁દઈ	-5382
▁પક	-5383
▁મધ	-5384
▁મફ	-5385
ડ્યા	-5386
નાની	-5387
રૂપે	-5388
સીબે	-5389
્યુલ	-5390
્યૂટ	-5391
▁અશ્	-5392
▁ગાઢ	-5393
▁ચીજ	-5394
▁દિક	-5395
▁ફ્લ	-5396
▁બનો	-5397
▁બાઈ	-5398
▁માઈ	-5399
▁મિશ	-5400
▁લીગ	-5401
▁વાડ	-5402
▁સાહ	-5403
▁આશ્ર	-5404
▁ગ્લા	-5405
▁ધ્રુ	-5406
▁ફ્રા	-5407
▁બહુમ	-5408
▁શાખા	-5409
▁શિયા	-5410
▁સંકટ	-5411
વાયેલા	-5412
▁આપણાં	-5413
▁ઈનિંગ	-5414
▁ક્રમે	-5415
▁ગ્રહણ	-5416
▁ટક્કર	-5417
▁ટીમને	-5418
▁દર્શન	-5419
▁બદલાઈ	-5420
▁માનવી	-5421
▁લાગશે	-5422
▁અગ્રણી	-5423
▁જાડેજા	-5424
▁જીત્યો	-5425
▁સ્વરૂપ	-5426
▁ચિદમ્બર	-5427
▁ડ્રાઈવર	-5428
▁પહેલાથી	-5429
▁પુસ્તકો	-5430
▁પ્રવાસે	-5431
▁બંગાળના	-5432
▁ભાગોમાં	-5433
▁મુખર્જી	-5434
▁યહોવાને	-5435
▁રાજ્યની	-5436
▁રોજગારી	-5437
▁પર્યાવરણ	-5438
▁પોલીસમાં	-5439
▁વિરોધમાં	-5440
▁વિસ્તારો	-5441
▁કર્ણાટકમાં	-5442
▁મુખ્યપ્રધાન	-5443
▁અર્થવ્યવસ્થા	-5444
ઝુ	-5445
યક	-5446
યૂ	-5447
ટલી	-5448
ણસી	-5449
નાઇ	-5450
પિં	-5451
ફાન	-5452
રાવ	-5453
▁ઊઠ	-5454
▁કથ	-5455
▁ટૉ	-5456
▁સજ	-5457
▁સળ	-5458
કેલા	-5459
ડીયા	-5460
રિયલ	-5461
વાલે	-5462
િયાત	-5463
▁150	-5464
▁ઓઇલ	-5465
▁કદર	-5466
▁ગાજ	-5467
▁જરુ	-5468
▁નાન	-5469
▁પર્	-5470
▁બચી	-5471
▁મિન	-5472
▁સહી	-5473
દ્યોગ	-5474
મારું	-5475
વાનગી	-5476
્સમાં	-5477
▁અડવા	-5478
▁આવતો	-5479
▁કોઈએ	-5480
▁ચાહે	-5481
▁છેતર	-5482
▁જૂની	-5483
▁દવાઓ	-5484
▁પીળા	-5485
▁રંગો	-5486
▁રિયા	-5487
▁રોગો	-5488
▁વાણી	-5489
▁વાવા	-5490
▁શિખર	-5491
▁સીઆર	-5492
▁આંકડો	-5493
▁આવનાર	-5494
▁ઉર્જા	-5495
▁કામકા	-5496
▁ચહેરો	-5497
▁ડેવિડ	-5498
▁ડોક્ટ	-5499
▁તફાવત	-5500
▁તાકાત	-5501
▁પાંડે	-5502
▁બેટરી	-5503
▁વાંચી	-5504
▁સાહેબ	-5505
▁સ્નાન	-5506
▁ચૂક્યો	-5507
▁જીવનનો	-5508
▁તપાસના	-5509
▁નજીકની	-5510
▁નીચેની	-5511
▁પુરુષો	-5512
▁બિલકુલ	-5513
▁ભાજપનો	-5514
▁રિઝર્વ	-5515
▁વ્યાપક	-5516
▁સાંસ્ક	-5517
▁સ્મૃતિ	-5518
▁કાર્તિક	-5519
▁ડિરેક્ટ	-5520
▁મહત્વનો	-5521
▁મહામારી	-5522
ર્નામેન્ટ	-5523
▁પ્રકાશિત	-5524
▁લાક્ષણિક	-5525
▁સોનાક્ષી	-5526
▁જરૂરિયાતો	-5527
▁મહત્ત્વનું	-5528
▁દુર્ઘટનામાં	-5529
.9	-5530
પડ	-5531
જામ	-5532
ઝિટ	-5533
ટાઇ	-5534
ડ્ડ	-5535
નીલ	-5536
રિઝ	-5537
રિય	-5538
લિત	-5539
વીજ	-5540
વૂડ	-5541
િંક	-5542
▁ઓર	-5543
▁ઢો	-5544
▁હમ	-5545
ગ્ને	-5546
દેવી	-5547
વવું	-5548
શમાં	-5549
▁આદર	-5550
▁કલર	-5551
▁કેળ	-5552
▁ડેટ	-5553
▁ધીર	-5554
▁પાળ	-5555
▁ફાં	-5556
▁બરફ	-5557
▁ભાઇ	-5558
▁મસા	-5559
▁મોં	-5560
▁લસણ	-5561
▁વેચ	-5562
હિત્ય	-5563
▁આસામ	-5564
▁ઊંચી	-5565
▁કેને	-5566
▁ગ્રુ	-5567
▁ઠંડા	-5568
▁ડ્રગ	-5569
▁ધ્યે	-5570
▁બીએસ	-5571
▁મોંઘ	-5572
▁લાઇફ	-5573
▁વકીલ	-5574
▁સાંસ	-5575
▁સ્કી	-5576
ન્ડિંગ	-5577
▁અગત્ય	-5578
▁અરોરા	-5579
▁અર્પણ	-5580
▁ઊર્જા	-5581
▁ટકાનો	-5582
▁માછલી	-5583
▁સંવાદ	-5584
▁સીતાર	-5585
▁આયોજિત	-5586
▁એવામાં	-5587
▁કારમાં	-5588
▁છોડીને	-5589
▁પુષ્કળ	-5590
▁વાવાઝો	-5591
▁સ્વરાજ	-5592
▁તેજસ્વી	-5593
▁પરવાનગી	-5594
▁બિહારના	-5595
▁સ્ટોરેજ	-5596
▁અસ્તિત્વ	-5597
▁નિર્ણયને	-5598
▁ન્યાયાધી	-5599
▁પ્રશ્નનો	-5600
▁ફોટોગ્રા	-5601
▁મહેન્દ્ર	-5602
▁શિષ્યોને	-5603
▁કોર્પોરેશન	-5604
!"	-5605
,3	-5606
ot	-5607
xt	-5608
ંઝ	-5609
વણ	-5610
-20	-5611
ડને	-5612
નિસ	-5613
ન્‍	-5614
લાન	-5615
સિં	-5616
▁ઇઝ	-5617
▁ચક	-5618
▁નૌ	-5619
▁સઘ	-5620
બીઆઈ	-5621
હરણો	-5622
▁એકે	-5623
▁ગણે	-5624
▁છાપ	-5625
▁જતો	-5626
▁જોન	-5627
▁થવી	-5628
▁ફૂડ	-5629
▁મધુ	-5630
▁શખ્	-5631
▁સંસ	-5632
લામાં	-5633
વેસ્ટ	-5634
▁કોની	-5635
▁જરાય	-5636
▁ટર્મ	-5637
▁ડીઝલ	-5638
▁ધીરે	-5639
▁નાંખ	-5640
▁પુરૂ	-5641
▁બર્થ	-5642
▁સંતુ	-5643
▁હોતી	-5644
ધ્યક્ષ	-5645
રૂશાલે	-5646
▁એકત્ર	-5647
▁એનડીએ	-5648
▁કરતું	-5649
▁કહ્યુ	-5650
▁ગરીબો	-5651
▁નિરાશ	-5652
▁મુકાબ	-5653
▁રહેતી	-5654
▁વિતરણ	-5655
▁વીજળી	-5656
▁સસ્પે	-5657
▁આક્ષેપ	-5658
▁ઓનલાઈન	-5659
▁ખુલ્લા	-5660
▁બલિદાન	-5661
▁માર્ગો	-5662
▁રસોડું	-5663
▁સેનાના	-5664
▁આગેવાની	-5665
▁એકમાત્ર	-5666
▁ગણવામાં	-5667
▁પહેલેથી	-5668
▁વિશ્વની	-5669
▁એકબીજાને	-5670
▁સુનિશ્ચિત	-5671
▁સ્માર્ટફો	-5672
▁દુનિયાભરમાં	-5673
.7	-5674
યં	-5675
્‍	-5676
▁L	-5677
▁a	-5678
▁k	-5679
ગ્ન	-5680
ટોપ	-5681
તમે	-5682
વટે	-5683
સંગ	-5684
▁90	-5685
▁દૈ	-5686
▁ભૌ	-5687
▁શૂ	-5688
▁સપ	-5689
tion	-5690
નિકલ	-5691
ર્ડર	-5692
ાવું	-5693
ૅન્ડ	-5694
▁અંધ	-5695
▁આદુ	-5696
▁ઓડિ	-5697
▁કવિ	-5698
▁ખોટ	-5699
▁ચિક	-5700
▁ચેપ	-5701
▁ઠંડ	-5702
▁પુછ	-5703
▁હેર	-5704
ટરિના	-5705
ર્ટના	-5706
▁News	-5707
▁આહાર	-5708
▁કસરત	-5709
▁કહું	-5710
▁ગાળા	-5711
▁ચેલે	-5712
▁જટિલ	-5713
▁જીવી	-5714
▁જોતા	-5715
▁ઠાકુ	-5716
▁તોડી	-5717
▁ધન્ય	-5718
▁પર્ય	-5719
▁ફસાય	-5720
▁ફોલો	-5721
▁ભંડો	-5722
▁ભરતી	-5723
▁યુનિ	-5724
▁સુરે	-5725
▁આપવું	-5726
▁આવીને	-5727
▁ઈચ્છા	-5728
▁ગયેલા	-5729
▁ડેસ્ક	-5730
▁ડૉક્ટ	-5731
▁પૂરતી	-5732
▁બાળપણ	-5733
▁માનતા	-5734
▁માર્ચ	-5735
▁સૂચનો	-5736
▁સેનાએ	-5737
▁ઉત્તરા	-5738
▁ચિત્રો	-5739
▁દેશોની	-5740
▁પીડિતા	-5741
▁બંનેને	-5742
▁સાંસદો	-5743
▁સાયન્સ	-5744
▁સિન્હા	-5745
▁અજાણ્યા	-5746
▁ઉદાહરણો	-5747
▁કરોડનું	-5748
▁ડાઉનલોડ	-5749
▁બનાવ્યો	-5750
▁મુદ્દાઓ	-5751
▁મુસાફરો	-5752
▁યરૂશાલે	-5753
▁વચ્ચેના	-5754
▁સાવધાની	-5755
▁હુમલાની	-5756
▁ઉમેર્યું	-5757
▁પહોંચીને	-5758
▁મંદિરમાં	-5759
▁મૂકવામાં	-5760
▁આદિત્યનાથ	-5761
▁નોંધવામાં	-5762
▁પ્રારંભિક	-5763
ol	-5764
ભિ	-5765
યમ	-5766
▁n	-5767
ame	-5768
એશન	-5769
કતા	-5770
ગેટ	-5771
પ્ય	-5772
બોલ	-5773
લેસ	-5774
▁દળ	-5775
▁વય	-5776
ઇન્ટ	-5777
કાના	-5778
જીની	-5779
ત્વે	-5780
નનું	-5781
નવાર	-5782
શક્ય	-5783
્સની	-5784
▁અખ્	-5785
▁ઈરા	-5786
▁એસો	-5787
▁કરુ	-5788
▁કું	-5789
▁ખાય	-5790
▁ખુદ	-5791
▁જથ્	-5792
▁દાય	-5793
▁બટન	-5794
▁બિગ	-5795
▁રજુ	-5796
▁વિજ	-5797
▁૨૦૦	-5798
કાર્ય	-5799
પ્રેસ	-5800
▁ઉલ્લ	-5801
▁ઊંચા	-5802
▁એચડી	-5803
▁કામો	-5804
▁કેરળ	-5805
▁કોરી	-5806
▁ગર્ભ	-5807
▁જોશી	-5808
▁ડાયા	-5809
▁ત્યા	-5810
▁માળખ	-5811
▁રદ્દ	-5812
▁રૂપે	-5813
▁રોશન	-5814
▁લેખક	-5815
▁વારા	-5816
▁સિલ્	-5817
▁અપવાદ	-5818
▁અપહરણ	-5819
▁ક્રિસ	-5820
▁ખતરના	-5821
▁ચોંકા	-5822
▁ડાન્સ	-5823
▁ધોરણે	-5824
▁પ્રબો	-5825
▁રજૂઆત	-5826
▁શોધવા	-5827
▁કાઉન્સ	-5828
▁દરેકને	-5829
▁પડકારો	-5830
▁મિશ્રા	-5831
▁લાગતું	-5832
▁વફાદાર	-5833
▁વર્ષથી	-5834
▁વિડિયો	-5835
▁સંદેશો	-5836
▁સાથેનો	-5837
▁આગેવાનો	-5838
▁આર્ટિકલ	-5839
▁કેટરીના	-5840
▁દેશવાસી	-5841
▁ફ્રાન્સ	-5842
▁શરીરમાં	-5843
▁ઈસ્રાએલી	-5844
▁પ્રસિદ્ધ	-5845
▁બંગાળમાં	-5846
▁સંદર્ભમાં	-5847
▁ઇન્ડસ્ટ્રી	-5848
▁પોલીસકર્મી	-5849
▁બોલિવૂડમાં	-5850
▁સાંસ્કૃતિક	-5851
રૃ	-5852
ંટા	-5853
ગાં	-5854
જ્જ	-5855
લિન	-5856
▁On	-5857
▁આય	-5858
▁ઉડ	-5859
▁કદ	-5860
▁દસ	-5861
▁નબ	-5862
▁પૌ	-5863
▁મૈ	-5864
▁હસ	-5865
▁૨૮	-5866
ડીએસ	-5867
ન્ટી	-5868
લિકો	-5869
વાડા	-5870
શ્મા	-5871
શ્યો	-5872
હારો	-5873
ામીણ	-5874
િફિક	-5875
▁આદિ	-5876
▁ઉના	-5877
▁કહો	-5878
▁કેપ	-5879
▁ગયુ	-5880
▁ઘઉં	-5881
▁જગા	-5882
▁જબર	-5883
▁તાજ	-5884
▁દલી	-5885
▁નીચ	-5886
▁પાલ	-5887
▁લખન	-5888
▁લગ્	-5889
બ્લિક	-5890
સ્ટિટ	-5891
સ્તાન	-5892
▁આપતી	-5893
▁ઉપકર	-5894
▁એમણે	-5895
▁કયાં	-5896
▁કરાય	-5897
▁કિમી	-5898
▁જણાય	-5899
▁નિમણ	-5900
▁બ્લા	-5901
▁મુકી	-5902
▁વળતર	-5903
▁અશક્ય	-5904
▁કંગના	-5905
▁છેવટે	-5906
▁ટીમની	-5907
▁દોષિત	-5908
▁પડોશી	-5909
▁ફાસ્ટ	-5910
▁ભલામણ	-5911
▁મનોહર	-5912
▁મેસેજ	-5913
▁રાખવો	-5914
▁અનુમાન	-5915
▁ગુમાવી	-5916
▁ટ્વીટર	-5917
▁નિશાની	-5918
▁માછીમા	-5919
▁મેટ્રો	-5920
▁રેટિંગ	-5921
▁વિશ્વા	-5922
▁વેકેશન	-5923
▁સમાપ્ત	-5924
▁સિદ્ધિ	-5925
▁અમેરિકી	-5926
▁આપવાનું	-5927
▁ઉત્પન્ન	-5928
▁ચેલેન્જ	-5929
▁નિર્મલા	-5930
▁ભારતનાં	-5931
▁મંડળમાં	-5932
▁મેળવ્યો	-5933
▁સાહિત્ય	-5934
▁ઉમેદવારો	-5935
▁ઐશ્વર્યા	-5936
▁પ્રતિનિધ	-5937
▁મહિનામાં	-5938
▁ઉત્તરાખંડ	-5939
▁કાયદેસરની	-5940
▁ખ્રિસ્તીઓ	-5941
▁ગ્રાહકોને	-5942
▁મુખ્યત્વે	-5943
▁આત્મવિશ્વાસ	-5944
▁વિધાનસભામાં	-5945
▁મેગાપિક્સલનો	-5946
▁વિદ્યાર્થીઓએ	-5947
el	-5948
ણિ	-5949
ભો	-5950
વત	-5951
ing	-5952
અને	-5953
ચિવ	-5954
તુર	-5955
દિત	-5956
રૂણ	-5957
લાજ	-5958
ળાં	-5959
વની	-5960
િક્	-5961
▁(1	-5962
▁ઝે	-5963
▁લં	-5964
કૃતિ	-5965
ટ્ટી	-5966
ડ્ડા	-5967
દીના	-5968
દ્રા	-5969
બ્રી	-5970
ભાવી	-5971
મેલન	-5972
ર્સે	-5973
લ્વે	-5974
ળીને	-5975
હાની	-5976
▁અટલ	-5977
▁અહી	-5978
▁ઉતર	-5979
▁કટો	-5980
▁કાજ	-5981
▁દિન	-5982
▁પ્લ	-5983
▁મફત	-5984
▁સાઇ	-5985
▁હોઇ	-5986
ણામાં	-5987
લીવુડ	-5988
શામાં	-5989
▁Next	-5990
▁અસ્થ	-5991
▁આઈપી	-5992
▁આટલી	-5993
▁ઉડ્ડ	-5994
▁ક્વો	-5995
▁ખતરો	-5996
▁જેણે	-5997
▁જેમા	-5998
▁બારી	-5999
▁બોલે	-6000
▁વ્હી	-6001
▁શરતો	-6002
▁સ્વિ	-6003
▁હસ્ત	-6004
▁અઠવાડ	-6005
▁ઇચ્છે	-6006
▁એક્શન	-6007
▁ટ્રેડ	-6008
▁દિવાલ	-6009
▁નકારી	-6010
▁નિકાસ	-6011
▁પક્ષો	-6012
▁મેમરી	-6013
▁સેક્સ	-6014
ક્ષેત્ર	-6015
▁અનુકૂળ	-6016
▁ઈશ્વરે	-6017
▁ઉલ્લંઘ	-6018
▁ક્યાંય	-6019
▁ખતરનાક	-6020
▁જાણીતી	-6021
▁ટેક્નો	-6022
▁તમારાં	-6023
▁દેખરેખ	-6024
▁પ્રસંગ	-6025
▁પ્રસાદ	-6026
▁વરસાદી	-6027
▁સિંહની	-6028
▁ક્રેડિટ	-6029
▁ગાંધીના	-6030
▁ગ્રામીણ	-6031
▁બોલીવૂડ	-6032
▁મનોરંજન	-6033
▁મામલાની	-6034
▁વર્લ્ડક	-6035
▁સંબોધિત	-6036
▁પ્રતિષ્ઠ	-6037
▁બીસીસીઆઈ	-6038
▁લક્ષ્યાં	-6039
▁સ્પેશિયલ	-6040
▁પ્લાસ્ટિક	-6041
▁સિદ્ધાર્થ	-6042
કોમ	-6043
દાસ	-6044
દ્ય	-6045
રીએ	-6046
રોધ	-6047
ાળી	-6048
િયુ	-6049
▁51	-6050
▁64	-6051
▁ગિ	-6052
▁નળ	-6053
▁યશ	-6054
ક્કા	-6055
ક્ચર	-6056
ડીની	-6057
ત્રિ	-6058
ધારી	-6059
ન્ટે	-6060
વાલા	-6061
શન્સ	-6062
ષ્મા	-6063
સ્વા	-6064
▁BJP	-6065
▁ઉભી	-6066
▁કિન	-6067
▁પેશ	-6068
▁બપો	-6069
▁ભેદ	-6070
▁લઘુ	-6071
માન્ડ	-6072
વનારા	-6073
▁અયૂબ	-6074
▁અહિં	-6075
▁આવરી	-6076
▁ગર્લ	-6077
▁ચિંત	-6078
▁ચોકી	-6079
▁ચોથા	-6080
▁ચોથી	-6081
▁પડતો	-6082
▁પહેલ	-6083
▁પ્રણ	-6084
▁ભૂલી	-6085
▁મલાઈ	-6086
▁રનથી	-6087
▁લાભો	-6088
કર્તાઓ	-6089
પ્રમુખ	-6090
સ્ટમાં	-6091
▁અપડેટ	-6092
▁આટલું	-6093
▁ઈમરાન	-6094
▁કહેતા	-6095
▁ક્રૂડ	-6096
▁ખાનના	-6097
▁ખ્યાલ	-6098
▁ગોઠવી	-6099
▁ચુસ્ત	-6100
▁ટિપ્સ	-6101
▁ટૂંકા	-6102
▁થવાના	-6103
▁નિભાવ	-6104
▁નિવેદ	-6105
▁શહેરી	-6106
▁સોંપી	-6107
▁સોફ્ટ	-6108
▁સ્વપ્	-6109
▁ઓવરમાં	-6110
▁કટોકટી	-6111
▁ઘટનાનો	-6112
▁ડેબ્યૂ	-6113
▁પોઈન્ટ	-6114
▁ફિલ્મે	-6115
▁બોલિંગ	-6116
▁મળ્યાં	-6117
▁રસ્તાઓ	-6118
▁સંતાનો	-6119
▁સમૃદ્ધ	-6120
▁સલામતી	-6121
▁આકાશમાં	-6122
▁કેટરિના	-6123
▁ખસેડાયા	-6124
▁ગ્રાહકો	-6125
▁પ્રાપ્ય	-6126
▁માઇક્રો	-6127
▁માટેનું	-6128
▁સંસદમાં	-6129
▁સેલિબ્ર	-6130
▁ખેડૂતોની	-6131
▁દુનિયાની	-6132
▁નિપજ્યું	-6133
▁નિર્માતા	-6134
▁પરિવારની	-6135
▁સિદ્ધાંત	-6136
▁સંબંધોમાં	-6137
▁સમારોહમાં	-6138
▁રાજ્યસભામાં	-6139
.8	-6140
જર	-6141
ધર	-6142
શય	-6143
▁w	-6144
,99	-6145
ંગુ	-6146
દીય	-6147
લાં	-6148
વરી	-6149
સિસ	-6150
િનર	-6151
▁48	-6152
▁ઉત	-6153
▁ખડ	-6154
▁ખર	-6155
▁ફ્	-6156
▁૨૭	-6157
ન્ડા	-6158
બાજુ	-6159
બ્રિ	-6160
િવાર	-6161
ૈતિક	-6162
્રીટ	-6163
▁કયો	-6164
▁ગેમ	-6165
▁ગોલ	-6166
▁ચોપ	-6167
▁તસ્	-6168
▁દાવ	-6169
▁ફરક	-6170
▁બહા	-6171
▁ભંગ	-6172
▁ભરી	-6173
▁ભવન	-6174
▁મેક	-6175
▁સમ્	-6176
▁સાઈ	-6177
વસ્તુ	-6178
સ્પતિ	-6179
▁આજના	-6180
▁આપું	-6181
▁કાયમ	-6182
▁ધીરજ	-6183
▁બદલો	-6184
▁બેસા	-6185
▁ભાષણ	-6186
▁રાંધ	-6187
▁રાશિ	-6188
▁રેલી	-6189
▁લંડન	-6190
▁લૂંટ	-6191
▁વાળા	-6192
▁સમજા	-6193
▁સાચો	-6194
▁સુલે	-6195
ર્સમાં	-6196
▁અભિષિ	-6197
▁અમારે	-6198
▁ઉત્સા	-6199
▁કરોડો	-6200
▁કૂતરો	-6201
▁ચાલતી	-6202
▁દેવના	-6203
▁દેવની	-6204
▁ન્યૂઝ	-6205
▁પછીથી	-6206
▁પટેલે	-6207
▁પ્રદૂ	-6208
▁પ્રાઇ	-6209
▁પ્રેશ	-6210
▁બદલાવ	-6211
▁બીજાઓ	-6212
▁મળેલી	-6213
▁વહેલી	-6214
▁વાંધો	-6215
▁શખ્સો	-6216
▁શાસિત	-6217
▁સાંજે	-6218
▁સ્ક્ર	-6219
▁હેરાન	-6220
દ્યોગિક	-6221
▁એકસાથે	-6222
▁કરોડના	-6223
▁ગુપ્તા	-6224
▁ચેરમેન	-6225
▁દુખાવો	-6226
▁પામ્યો	-6227
▁પાર્ટન	-6228
▁પ્રકટી	-6229
▁પ્રોસે	-6230
▁મનુષ્ય	-6231
▁માન્યો	-6232
▁રાજપૂત	-6233
▁શકીશું	-6234
▁સહયોગી	-6235
▁ઉદ્ઘાટન	-6236
▁જાનહાનિ	-6237
▁નાગરિકો	-6238
▁બાબતમાં	-6239
▁મંત્રાલ	-6240
▁મુંબઈના	-6241
▁મોટરસાય	-6242
કાશ્મીરના	-6243
▁અવારનવાર	-6244
▁તમિલનાડુ	-6245
▁નીપજ્યું	-6246
▁પ્રોડ્યુ	-6247
▁શ્રીદેવી	-6248
▁જણાવવામાં	-6249
▁પૃષ્ઠભૂમિ	-6250
▁સાંભળ્યું	-6251
▁સ્વતંત્રતા	-6252
ST	-6253
ઢા	-6254
ીન	-6255
amb	-6256
ંગલ	-6257
કિત	-6258
ખ્ત	-6259
ફેલ	-6260
લિપ	-6261
વડો	-6262
િનલ	-6263
્વર	-6264
▁જજ	-6265
▁ધુ	-6266
▁નૃ	-6267
ડીના	-6268
તોની	-6269
તોને	-6270
ધારા	-6271
મિશન	-6272
મ્બે	-6273
રીંગ	-6274
વિંગ	-6275
સ્લા	-6276
િયાં	-6277
ુલકર	-6278
▁ઓપ્	-6279
▁કુશ	-6280
▁જાત	-6281
▁નંબ	-6282
▁પીઠ	-6283
▁બટા	-6284
▁બોય	-6285
▁બોસ	-6286
▁રેપ	-6287
▁શરદ	-6288
▁સની	-6289
▁હેડ	-6290
દ્દીન	-6291
▁2014	-6292
▁અનંત	-6293
▁આર્ય	-6294
▁કાનૂ	-6295
▁ખામી	-6296
▁ગ્રો	-6297
▁ઘેરા	-6298
▁જોયો	-6299
▁તેજી	-6300
▁પરની	-6301
▁પાસા	-6302
▁ફેશન	-6303
▁ફ્લે	-6304
▁ભૂષણ	-6305
▁રેન્	-6306
▁લાઠી	-6307
▁વરુણ	-6308
▁વિતા	-6309
▁વિધિ	-6310
▁શકતી	-6311
▁સંભળ	-6312
▁સમજણ	-6313
▁સારુ	-6314
▁સિંઘ	-6315
▁અગ્નિ	-6316
▁અપમાન	-6317
▁આપેલી	-6318
▁કન્ટે	-6319
▁ખેંચી	-6320
▁ઘડિયા	-6321
▁છોકરા	-6322
▁પ્રગટ	-6323
▁પ્રીમ	-6324
▁પ્રેસ	-6325
▁ફ્લોર	-6326
▁રવાના	-6327
▁સાયકલ	-6328
▁સ્વયં	-6329
▁ઉડ્ડયન	-6330
▁ચૂકવણી	-6331
▁યુઝર્સ	-6332
▁યોજનાઓ	-6333
▁રુપિયા	-6334
▁રૂમમાં	-6335
▁સંસદીય	-6336
▁સહેલું	-6337
▁સેલ્ફી	-6338
▁ઈબ્રાહી	-6339
▁પ્રકારો	-6340
▁પ્રસ્તુ	-6341
▁લક્ષ્મી	-6342
▁વચ્ચેની	-6343
▁વિભાગના	-6344
▁હત્યાનો	-6345
▁Gujarati	-6346
▁ઉત્પાદનો	-6347
▁ટેસ્ટમાં	-6348
▁બિહારમાં	-6349
▁તામિલનાડુ	-6350
▁નિયંત્રિત	-6351
▁પ્રતિનિધિ	-6352
▁ભવિષ્યમાં	-6353
▁વાસ્તવમાં	-6354
▁નેતૃત્વમાં	-6355
▁પ્રવૃત્તિઓ	-6356
▁ઑસ્ટ્રેલિયા	-6357
ad	-6358
ંથ	-6359
એટ	-6360
તક	-6361
શાસ	-6362
▁NC	-6363
▁ચલ	-6364
▁જડ	-6365
▁થે	-6366
કાંત	-6367
ગ્ગા	-6368
ડીંગ	-6369
લોની	-6370
સાઇટ	-6371
▁ઉંચ	-6372
▁કઠો	-6373
▁ચેક	-6374
▁જેલ	-6375
▁જોહ	-6376
▁દાં	-6377
▁દુર	-6378
▁દોડ	-6379
▁મથક	-6380
▁મસ્	-6381
▁રમે	-6382
▁રિલ	-6383
▁વાઘ	-6384
▁શરૃ	-6385
▁સંત	-6386
▁સવલ	-6387
india	-6388
પ્રથમ	-6389
▁2017	-6390
▁ઈજાઓ	-6391
▁ઊંડા	-6392
▁ક્રમ	-6393
▁ખસેડ	-6394
▁ખુબજ	-6395
▁ગુણધ	-6396
▁ગોવા	-6397
▁જિયો	-6398
▁ધોરણ	-6399
▁નીરવ	-6400
▁પવાર	-6401
▁ભાવિ	-6402
▁મશીન	-6403
▁મોડલ	-6404
▁રનની	-6405
▁લાઈન	-6406
▁લાવી	-6407
▁શ્રો	-6408
▁સપના	-6409
ન્દ્રા	-6410
સ્વામી	-6411
▁અનુસર	-6412
▁આક્રમ	-6413
▁ઉઠાવી	-6414
▁ખન્ના	-6415
▁ગડકરી	-6416
▁ગણાવી	-6417
▁ગ્રીક	-6418
▁ટકાથી	-6419
▁ટોચના	-6420
▁તસ્વી	-6421
▁દર્શા	-6422
▁દુકાન	-6423
▁પોલિસ	-6424
▁ફ્રાં	-6425
▁રહેશો	-6426
▁રાખતા	-6427
▁રાખીએ	-6428
▁રોમાં	-6429
▁લૉકડા	-6430
▁વાઇરલ	-6431
▁વાનગી	-6432
▁શીખવા	-6433
▁સ્કોર	-6434
▁હસ્તા	-6435
▁હાર્ટ	-6436
▁કનેક્ટ	-6437
▁ગુસ્સો	-6438
▁જર્મની	-6439
▁તેઓનું	-6440
▁માર્ગે	-6441
▁મૂર્તિ	-6442
▁રાઉન્ડ	-6443
▁વર્ષનો	-6444
▁સ્વામી	-6445
▁આસપાસના	-6446
▁ઈશ્વરને	-6447
▁જોવામાં	-6448
▁નિપજ્યા	-6449
▁પાસવર્ડ	-6450
▁પ્રતિમા	-6451
▁બાળકોની	-6452
▁મહત્વના	-6453
▁મોદીનું	-6454
▁રહેવાસી	-6455
▁વનસ્પતિ	-6456
▁વ્યાપાર	-6457
▁શિક્ષકો	-6458
▁સમાજમાં	-6459
▁સ્ત્રોત	-6460
▁હૉસ્પિટ	-6461
▁કાઉન્સિલ	-6462
▁કાર્યાલય	-6463
▁પ્રકારનો	-6464
▁લાભાર્થી	-6465
▁સન્માનિત	-6466
▁સર્વોચ્ચ	-6467
▁સસ્પેન્ડ	-6468
▁સીઆરપીએફ	-6469
▁કરાવવામાં	-6470
▁કેન્દ્રિત	-6471
▁કેમેરામાં	-6472
▁વ્યક્તિના	-6473
▁અધિકારીઓને	-6474
▁બાઇબલમાંથી	-6475
▁માછીમારોને	-6476
▁માર્કેટમાં	-6477
▁ક્ષેત્રોમાં	-6478
,1	-6479
il	-6480
nt	-6481
ou	-6482
ચૂ	-6483
▁X	-6484
ણિક	-6485
ધું	-6486
ફેર	-6487
બેન	-6488
મિન	-6489
વેટ	-6490
સેલ	-6491
હની	-6492
ાનુ	-6493
▁41	-6494
▁ઓગ	-6495
▁કઇ	-6496
▁મચ	-6497
ણાની	-6498
દાને	-6499
ધાને	-6500
પેયી	-6501
પ્રે	-6502
સીના	-6503
્રીત	-6504
▁199	-6505
▁ઉતા	-6506
▁કરિ	-6507
▁ગું	-6508
▁મહો	-6509
▁મેઘ	-6510
ટરમાં	-6511
િયન્સ	-6512
▁અપરા	-6513
▁અપાર	-6514
▁આપવો	-6515
▁કંઇક	-6516
▁કારો	-6517
▁ગભરા	-6518
▁જોયા	-6519
▁તેંડ	-6520
▁દાઊદ	-6521
▁દોરી	-6522
▁બેસે	-6523
▁માણી	-6524
▁લેવો	-6525
▁વોલ્	-6526
▁સાધન	-6527
▁સીધી	-6528
▁સ્તન	-6529
ષ્કર્મ	-6530
▁આપનાર	-6531
▁એલર્ટ	-6532
▁કેમ્પ	-6533
▁ગાંગુ	-6534
▁ગ્લાસ	-6535
▁જેમને	-6536
▁તજવીજ	-6537
▁તાલુક	-6538
▁દુઃખી	-6539
▁દૂધની	-6540
▁નિંદા	-6541
▁બસમાં	-6542
▁ભરાયા	-6543
▁ભાજપા	-6544
▁રહસ્ય	-6545
▁લેવું	-6546
▁સલામત	-6547
▁સ્પૂન	-6548
▁હટાવી	-6549
▁હિંદી	-6550
▁અડવાણી	-6551
▁અદ્ભુત	-6552
▁અમારું	-6553
▁આવનારા	-6554
▁કેટલાય	-6555
▁ગ્લોબલ	-6556
▁ચીનમાં	-6557
▁જવાનું	-6558
▁તકલીફો	-6559
▁દૃષ્ટિ	-6560
▁દેખાશે	-6561
▁પદાર્થ	-6562
▁પાછળથી	-6563
▁બહુમતી	-6564
▁બોલમાં	-6565
▁બોલ્યા	-6566
▁મોદીનો	-6567
▁રેલ્વે	-6568
▁રેસ્ટો	-6569
▁વાતાવર	-6570
▁શિલ્પા	-6571
▁સિલ્વર	-6572
▁અકાઉન્ટ	-6573
▁ઉલ્લંઘન	-6574
▁પહોંચાડ	-6575
▁ફ્રેન્ડ	-6576
▁ઈન્ટરનેટ	-6577
▁તંદુરસ્ત	-6578
▁દુષ્કર્મ	-6579
▁કેન્દ્રિય	-6580
▁દસ્તાવેજો	-6581
▁શુભેચ્છાઓ	-6582
▁કોંગ્રેસનો	-6583
▁રાજસ્થાનના	-6584
,4	-6585
30	-6586
અર	-6587
ચિ	-6588
પદ	-6589
વૃ	-6590
વૈ	-6591
સક	-6592
▁>	-6593
આઉટ	-6594
કાઉ	-6595
જિદ	-6596
ડના	-6597
દુલ	-6598
ધની	-6599
વના	-6600
સંદ	-6601
સમી	-6602
ૃતા	-6603
▁36	-6604
▁49	-6605
▁તૃ	-6606
▁બૂ	-6607
▁વચ	-6608
▁હક	-6609
ક્ટે	-6610
ક્ષક	-6611
ક્ષર	-6612
ખાને	-6613
ટ્સએ	-6614
નિર્	-6615
ન્ટા	-6616
મારો	-6617
સ્યો	-6618
▁IPL	-6619
▁One	-6620
▁ઉકે	-6621
▁ખતમ	-6622
▁ઘોષ	-6623
▁ધોધ	-6624
▁ભૂખ	-6625
▁યાક	-6626
▁શૅર	-6627
▁હિટ	-6628
▁હોબ	-6629
ધારિત	-6630
લિસ્ટ	-6631
▁અંગત	-6632
▁આદમી	-6633
▁કાલે	-6634
▁ખોટો	-6635
▁છૂટા	-6636
▁ડ્રો	-6637
▁નિયુ	-6638
▁ભૂલો	-6639
▁મલયા	-6640
▁માંડ	-6641
▁માંસ	-6642
▁રીતો	-6643
▁રોયલ	-6644
▁લડશે	-6645
▁વનડે	-6646
િંગમાં	-6647
▁કન્યા	-6648
▁કેન્સ	-6649
▁થવાથી	-6650
▁દૈનિક	-6651
▁નાનું	-6652
▁નિવાર	-6653
▁નૃત્ય	-6654
▁પર્વત	-6655
▁પુરૂષ	-6656
▁ફરીયા	-6657
▁બીમાર	-6658
▁બેરોજ	-6659
▁બ્રહ્	-6660
▁મચાવી	-6661
▁યહુદી	-6662
▁વિષયો	-6663
▁સવલતો	-6664
▁સહાયક	-6665
▁સાર્વ	-6666
▁સિંધુ	-6667
▁સુનીલ	-6668
▁હાઇવે	-6669
▁ચેન્નઈ	-6670
▁દેશોના	-6671
▁નોંધણી	-6672
▁પંડ્યા	-6673
▁પરિબળો	-6674
▁પ્રેસિ	-6675
▁બિમારી	-6676
▁વિશ્લે	-6677
▁સંભાળી	-6678
▁સભામાં	-6679
▁સેટિંગ	-6680
▁ચમત્કાર	-6681
▁ચૂક્યું	-6682
▁લોકડાઉન	-6683
▁વારાણસી	-6684
▁વિસ્તૃત	-6685
▁સમર્પિત	-6686
▁ઉપયોગમાં	-6687
▁પ્રતિભાવ	-6688
▁રાજીનામુ	-6689
▁તાલુકાનું	-6690
▁પ્રોડક્શન	-6691
▁વીડિયોમાં	-6692
▁શુભકામનાઓ	-6693
▁કાર્યકર્તા	-6694
▁કિસ્સાઓમાં	-6695
▁જિલ્લાઓમાં	-6696
▁રાજસ્થાનમાં	-6697
et	-6698
યત	-6699
ુત	-6700
res	-6701
ગરી	-6702
જને	-6703
ડોર	-6704
પંચ	-6705
રથી	-6706
લિશ	-6707
લોક	-6708
ાયણ	-6709
ાળે	-6710
િઝન	-6711
▁પટ	-6712
કાની	-6713
ચર્સ	-6714
ટીના	-6715
નારો	-6716
રોડા	-6717
ર્ગે	-6718
લાના	-6719
શિંગ	-6720
▁RBI	-6721
▁આવુ	-6722
▁કૃત	-6723
▁કોગ	-6724
▁ચામ	-6725
▁છુટ	-6726
▁જઈએ	-6727
▁તકે	-6728
▁દાળ	-6729
▁નિર	-6730
▁પોત	-6731
▁મંચ	-6732
▁યાજ	-6733
▁રિત	-6734
▁રેશ	-6735
▁લગા	-6736
▁સુન	-6737
▁હુક	-6738
▁હોવ	-6739
ટીમાં	-6740
દનશીલ	-6741
▁2016	-6742
▁અમલી	-6743
▁આખું	-6744
▁આપને	-6745
▁ઈરાન	-6746
▁કોમે	-6747
▁ગરમા	-6748
▁ગાજર	-6749
▁ઝટકો	-6750
▁તકની	-6751
▁ધોવા	-6752
▁પુરવ	-6753
▁પેસે	-6754
▁પોષણ	-6755
▁ફાઈલ	-6756
▁મળતો	-6757
▁શેયર	-6758
▁શ્વે	-6759
▁સ્મિ	-6760
▁સ્રો	-6761
▁હળવા	-6762
ન્દિરા	-6763
▁અમૃતા	-6764
▁આપઘાત	-6765
▁ઇનિંગ	-6766
▁ઈરાની	-6767
▁જથ્થો	-6768
▁જીવંત	-6769
▁બચાવી	-6770
▁બાંધી	-6771
▁લાંબો	-6772
▁શહેરો	-6773
▁સીરીઝ	-6774
▁સ્ટીલ	-6775
▁અનિચ્છ	-6776
▁કપૂરના	-6777
▁કિંગ્સ	-6778
▁કિસ્સો	-6779
▁ક્યાંક	-6780
▁તપાસનો	-6781
▁તેલંગા	-6782
▁પહેલું	-6783
▁મલાઈકા	-6784
▁મુક્તિ	-6785
▁સંભવિત	-6786
▁સાવચેત	-6787
▁સુષ્મા	-6788
▁સેક્રે	-6789
▁હિમાચલ	-6790
▁ઈન્ડિયન	-6791
▁કોલકાતા	-6792
▁છેતરપિં	-6793
▁મહેમાનો	-6794
▁મુંબઈની	-6795
▁લેવાનું	-6796
▁Oneindia	-6797
▁બાળકોમાં	-6798
▁વિશ્વાસુ	-6799
▁અથડામણમાં	-6800
▁નકારાત્મક	-6801
▁પ્રતિબદ્ધ	-6802
▁ફાયદાકારક	-6803
▁માત્રામાં	-6804
▁સ્વર્ગમાં	-6805
▁ટેક્નોલોજી	-6806
▁વપરાશકર્તા	-6807
▁મહત્ત્વપૂર્ણ	-6808
િગ	-6809
▁d	-6810
▁o	-6811
જરે	-6812
જીવ	-6813
ટનો	-6814
ડ્સ	-6815
દિન	-6816
દોષ	-6817
નિય	-6818
ન્ક	-6819
પાઇ	-6820
પેટ	-6821
ફ્ર	-6822
મણો	-6823
મિત	-6824
શનો	-6825
શીપ	-6826
સ્‍	-6827
▁પૉ	-6828
Name	-6829
haav	-6830
ંપતી	-6831
ટ્ટા	-6832
પણું	-6833
મોથી	-6834
ાર્ક	-6835
િટિવ	-6836
િન્ન	-6837
▁અદા	-6838
▁આવડ	-6839
▁એમે	-6840
▁કાલ	-6841
▁ખેર	-6842
▁તલા	-6843
▁બચત	-6844
▁વીર	-6845
▁સેલ	-6846
▁સ્ત	-6847
▁હરી	-6848
▁હાડ	-6849
ર્સની	-6850
િંગના	-6851
િયારા	-6852
▁Samb	-6853
▁આપના	-6854
▁આપીએ	-6855
▁ઇન્ટ	-6856
▁કિશો	-6857
▁ખોલો	-6858
▁ચોખ્	-6859
▁જોવી	-6860
▁પડતા	-6861
▁પાઊલ	-6862
▁લિટર	-6863
▁સમાર	-6864
▁સીધો	-6865
▁સેમસ	-6866
▁હારી	-6867
ક્ટોબર	-6868
નાઇટેડ	-6869
ાયેલું	-6870
▁આભારી	-6871
▁ઇમરાન	-6872
▁ઓફિસર	-6873
▁કોમ્પ	-6874
▁ગેમ્સ	-6875
▁ચીનની	-6876
▁જમ્મૂ	-6877
▁ટેલિવ	-6878
▁તત્કા	-6879
▁તત્વો	-6880
▁તૈનાત	-6881
▁બનેલા	-6882
▁માર્ક	-6883
▁મોડેલ	-6884
▁મોતને	-6885
▁રાફેલ	-6886
▁લખ્યો	-6887
▁શીખવે	-6888
▁શ્રોફ	-6889
▁સર્વર	-6890
▁કુલદીપ	-6891
▁કેમેરો	-6892
▁ગવર્નર	-6893
▁ઘણીવાર	-6894
▁તસ્વીર	-6895
▁દરવાજા	-6896
▁નોંધાઈ	-6897
▁ફડણવીસ	-6898
▁ફર્સ્ટ	-6899
▁બનાવશે	-6900
▁માલ્યા	-6901
▁લેવાનો	-6902
▁વસ્ત્ર	-6903
▁વિદ્યા	-6904
▁સંકલ્પ	-6905
▁સંઘર્ષ	-6906
▁સંજોગો	-6907
▁સંમેલન	-6908
▁સમ્માન	-6909
▁સાવધાન	-6910
▁સૈનિકો	-6911
▁કાર્યરત	-6912
▁ખેલાડીઓ	-6913
▁તપાસમાં	-6914
▁પોલીસનો	-6915
▁પ્રતિભા	-6916
▁બાંધકામ	-6917
▁બૉલીવુડ	-6918
▁મહાસચિવ	-6919
▁મહિલાની	-6920
▁લગ્નમાં	-6921
▁લાકડાના	-6922
▁સપ્તાહે	-6923
▁સરકારનો	-6924
▁સલાહકાર	-6925
▁સાધ્યું	-6926
▁Sambhaav	-6927
▁ચીજવસ્તુ	-6928
▁ચૂંટણીના	-6929
▁દસ્તાવેજ	-6930
▁પ્રત્યેક	-6931
▁પ્રોસેસર	-6932
▁બનાવવાનો	-6933
▁મૃતદેહને	-6934
▁અમેરિકાની	-6935
▁પ્રશ્નોના	-6936
▁પ્રોગ્રામ	-6937
▁લગાવવામાં	-6938
▁લાઠીચાર્જ	-6939
▁વિચાર્યું	-6940
▁વ્યક્તિનું	-6941
▁લાક્ષણિકતાઓ	-6942
▁ઈજાગ્રસ્તોને	-6943
BS	-6944
ID	-6945
oo	-6946
કટર	-6947
ફાય	-6948
બ્સ	-6949
લાત	-6950
લીક	-6951
વવી	-6952
શિવ	-6953
હિમ	-6954
▁૩૨	-6955
જીના	-6956
ઝેશન	-6957
દીની	-6958
નોને	-6959
પ્ટર	-6960
ફળતા	-6961
રીની	-6962
વેરા	-6963
સીઆઈ	-6964
ાજનક	-6965
▁અબજ	-6966
▁અમર	-6967
▁અરબ	-6968
▁અલ્	-6969
▁ઉભો	-6970
▁ખાઈ	-6971
▁ગુમ	-6972
▁જગત	-6973
▁ડોલ	-6974
▁થાઓ	-6975
▁નમૂ	-6976
▁પરા	-6977
▁બસો	-6978
▁લાય	-6979
▁શમૂ	-6980
ન્ટની	-6981
ર્સના	-6982
▁આદાન	-6983
▁ગેલે	-6984
▁ચીને	-6985
▁જોહર	-6986
▁ટ્રો	-6987
▁પૂરે	-6988
▁બનતા	-6989
▁ભજવે	-6990
▁મહેર	-6991
▁મૂર્	-6992
▁વળગી	-6993
નગરમાં	-6994
ાવવાની	-6995
ેન્દ્ર	-6996
▁અખ્તર	-6997
▁આવતું	-6998
▁ઈસુની	-6999
▁એન્ટિ	-7000
▁ચારેય	-7001
▁ચૌધરી	-7002
▁ટીમનો	-7003
▁ધ્યેય	-7004
▁નડ્ડા	-7005
▁નિદાન	-7006
▁પદેથી	-7007
▁બિંદુ	-7008
▁બ્રાઝ	-7009
▁ભંડોળ	-7010
▁મસાલા	-7011
▁મહિમા	-7012
▁યાકૂબ	-7013
▁રોકવા	-7014
▁વાટકી	-7015
▁સગવડો	-7016
▁સાઉદી	-7017
▁સિંગા	-7018
▁સીરિઝ	-7019
▁હોતું	-7020
▁અભિપ્ર	-7021
▁આત્મિક	-7022
▁ઉપકરણો	-7023
▁કેસોની	-7024
▁ગુલાબી	-7025
▁ચેન્ના	-7026
▁નિભાવી	-7027
▁પાણીનો	-7028
▁પામેલા	-7029
▁પૂર્વે	-7030
▁પોસ્ટર	-7031
▁પ્રશાસ	-7032
▁બિહારી	-7033
▁મહિલાએ	-7034
▁શકાયું	-7035
▁શાળાના	-7036
▁સદીમાં	-7037
▁સમર્પણ	-7038
▁સેન્સર	-7039
▁સ્થળોએ	-7040
▁હથિયાર	-7041
▁હોબાળો	-7042
▁અધિકારો	-7043
▁ઘાયલોને	-7044
▁જાનહાની	-7045
▁નિશ્ચિત	-7046
▁પેસેન્જ	-7047
▁પોઝિટિવ	-7048
▁પોતાનાં	-7049
▁પ્રેમાળ	-7050
▁મનુષ્યો	-7051
▁મ્યુઝિક	-7052
▁રાજ્યને	-7053
▁લંડનમાં	-7054
▁લગાવ્યા	-7055
▁વિચારણા	-7056
▁વેબસાઇટ	-7057
▁સૌપ્રથમ	-7058
▁સ્ટાર્ટ	-7059
▁હાલતમાં	-7060
▁ઉમેદવારી	-7061
▁કોરોનાના	-7062
▁પરંપરાગત	-7063
▁પાર્ટીની	-7064
▁પ્રવક્તા	-7065
▁પ્રવાસીઓ	-7066
▁મહિલાઓને	-7067
▁યહોવાહનો	-7068
▁વાયુસેના	-7069
▁અધિકારીઓએ	-7070
▁ઉપાધ્યક્ષ	-7071
▁કાશ્મીરના	-7072
▁પ્રકારનું	-7073
▁મંત્રાલયે	-7074
▁સંવેદનશીલ	-7075
▁સકારાત્મક	-7076
▁સપ્તાહમાં	-7077
▁સેક્રેટરી	-7078
▁ઇન્ટરનેશનલ	-7079
▁ઉમેદવારોની	-7080
▁મંત્રીમંડળે	-7081
,0	-7082
,2	-7083
,8	-7084
MP	-7085
hi	-7086
મય	-7087
રર	-7088
ડ્ર	-7089
પુટ	-7090
મેં	-7091
રાગ	-7092
હના	-7093
હાલ	-7094
િટિ	-7095
િપલ	-7096
▁ગઢ	-7097
▁તલ	-7098
,999	-7099
ડાને	-7100
ત્થી	-7101
ભારત	-7102
ર્કી	-7103
સન્સ	-7104
હાના	-7105
િષ્ટ	-7106
▁અવસ	-7107
▁આંચ	-7108
▁આરા	-7109
▁ગણી	-7110
▁દુબ	-7111
▁ધામ	-7112
▁નફો	-7113
▁નવે	-7114
▁પેર	-7115
▁વેગ	-7116
▁સરો	-7117
▁હોલ	-7118
ડેન્ટ	-7119
દ્દાખ	-7120
યોજના	-7121
વર્તી	-7122
ેશન્સ	-7123
▁અપાઈ	-7124
▁અરુણ	-7125
▁આગની	-7126
▁આતુર	-7127
▁ઇંડા	-7128
▁ઉગ્ર	-7129
▁કથિત	-7130
▁ગણાય	-7131
▁ગાયક	-7132
▁ગૌરી	-7133
▁ચકાસ	-7134
▁જોડે	-7135
▁દાદા	-7136
▁ધારા	-7137
▁ધિક્	-7138
▁પીતર	-7139
▁બ્લો	-7140
▁માગે	-7141
▁મારુ	-7142
▁રેડ્	-7143
▁સરહદ	-7144
▁સાથો	-7145
▁સિને	-7146
▁સૂચિ	-7147
▁હ્યુ	-7148
▁આર્યન	-7149
▁કાયમી	-7150
▁કૃષ્ણ	-7151
▁ખાનને	-7152
▁છોકરો	-7153
▁ટોળું	-7154
▁ડાયાબ	-7155
▁પ્રાઈ	-7156
▁બનતું	-7157
▁મંજૂર	-7158
▁મજબુત	-7159
▁માગતા	-7160
▁સમયના	-7161
▁સામાન	-7162
▁આમાંથી	-7163
▁જેટલું	-7164
▁દિલાસો	-7165
▁નારંગી	-7166
▁નોંધાઇ	-7167
▁મલયાલમ	-7168
▁રાજકોટ	-7169
▁લદ્દાખ	-7170
▁સર્જાઈ	-7171
▁આક્ષેપો	-7172
▁આદિવાસી	-7173
▁કાબૂમાં	-7174
▁પ્રહારો	-7175
▁બાઇબલના	-7176
▁વાજપેયી	-7177
▁સંદર્ભે	-7178
▁સમારેલી	-7179
▁સમૃદ્ધિ	-7180
▁સર્જાયો	-7181
▁સેવામાં	-7182
▁અઠવાડિયે	-7183
▁ઔદ્યોગિક	-7184
▁કાર્યમાં	-7185
▁ક્ષેત્રો	-7186
▁ગુણધર્મો	-7187
▁દુનિયાનો	-7188
▁નીચેનાનો	-7189
▁પ્રતિસાદ	-7190
▁પ્રોડક્ટ	-7191
▁મહિલાઓની	-7192
▁મુંબઇમાં	-7193
▁રેન્કિંગ	-7194
▁સમસ્યાનો	-7195
▁સ્કૂલમાં	-7196
▁સ્ટેડિયમ	-7197
▁આશીર્વાદો	-7198
▁એક્સપ્રેસ	-7199
▁સુપરસ્ટાર	-7200
▁સ્વાદિષ્ટ	-7201
▁ઈન્ટરનેશનલ	-7202
▁ભવિષ્યવાણી	-7203
▁રાજકારણમાં	-7204
▁આંધ્રપ્રદેશ	-7205
AA	-7206
PF	-7207
એચ	-7208
ખુ	-7209
થિ	-7210
▁l	-7211
ંડર	-7212
જ્ય	-7213
તિઓ	-7214
બોહ	-7215
મિટ	-7216
▁44	-7217
▁52	-7218
▁75	-7219
▁અઝ	-7220
▁ઘુ	-7221
▁ચડ	-7222
લાકી	-7223
ાવશે	-7224
▁250	-7225
▁અસમ	-7226
▁આલ્	-7227
▁એલી	-7228
▁ઓપન	-7229
▁તંગ	-7230
▁તેં	-7231
▁નહે	-7232
▁પિત	-7233
▁પુલ	-7234
▁બાઉ	-7235
▁ભરે	-7236
▁રને	-7237
▁રાધ	-7238
▁રિક	-7239
▁લડા	-7240
▁સદન	-7241
▁૧૦૦	-7242
ક્ટિસ	-7243
માંના	-7244
ર્સને	-7245
સ્પૂન	-7246
▁અલ્પ	-7247
▁આઘાત	-7248
▁આપવી	-7249
▁ઉડાન	-7250
▁કપાસ	-7251
▁કબજે	-7252
▁કાગળ	-7253
▁ગુને	-7254
▁ટેલી	-7255
▁દરખા	-7256
▁દાની	-7257
▁નવીન	-7258
▁નાનો	-7259
▁નિરી	-7260
▁પગાર	-7261
▁પાચન	-7262
▁મહેશ	-7263
▁મેટલ	-7264
▁રંજન	-7265
▁રિયલ	-7266
▁લેવલ	-7267
▁વિકે	-7268
▁સંસા	-7269
▁સૌને	-7270
▁હળદર	-7271
▁હોતો	-7272
ચૂંટણી	-7273
પમેન્ટ	-7274
▁આગળના	-7275
▁કપમાં	-7276
▁ક્રોસ	-7277
▁ચક્રો	-7278
▁જયંતી	-7279
▁જીવવા	-7280
▁દંપતી	-7281
▁દુધની	-7282
▁પંચાય	-7283
▁પછીના	-7284
▁ભૌતિક	-7285
▁મરાઠી	-7286
▁માનવા	-7287
▁મોતની	-7288
▁યુનિટ	-7289
▁વાપરી	-7290
▁સંગ્ર	-7291
▁સંમેલ	-7292
▁સપ્ટે	-7293
▁સ્ટ્ર	-7294
▁હાલની	-7295
ભાવસ્થા	-7296
▁આચાર્ય	-7297
▁કમિશનર	-7298
▁ઘડિયાળ	-7299
▁જાન્યુ	-7300
▁દિવસથી	-7301
▁પાછળના	-7302
▁પાણીના	-7303
▁પેન્શન	-7304
▁બનવાની	-7305
▁બેંગલુ	-7306
▁મળવાની	-7307
▁માંગતા	-7308
▁મૂલ્યો	-7309
▁વિક્રમ	-7310
▁સંગઠનો	-7311
▁સરકારો	-7312
▁સહાયતા	-7313
▁કામદારો	-7314
▁પાછળનું	-7315
▁પ્રેમથી	-7316
▁મંત્રીએ	-7317
▁એકબીજાની	-7318
▁કિંમતમાં	-7319
▁ચંદ્રયાન	-7320
▁દ્રષ્ટિએ	-7321
▁પ્રસ્તુત	-7322
▁બાબતોમાં	-7323
▁યુરોપિયન	-7324
▁રાજકુમાર	-7325
▁સ્પષ્ટતા	-7326
▁કમ્પ્યુટર	-7327
▁કસ્ટડીમાં	-7328
▁પ્રચારમાં	-7329
▁બોલિવૂડની	-7330
▁મહત્ત્વની	-7331
▁રૂપિયામાં	-7332
▁હકારાત્મક	-7333
▁વાસ્તવિકતા	-7334
ri	-7335
ઓલ	-7336
ઠે	-7337
બડ	-7338
ભે	-7339
લભ	-7340
ૂન	-7341
ેલ	-7342
▁▪	-7343
કેપ	-7344
ગતિ	-7345
ગામ	-7346
ઝોન	-7347
તોડ	-7348
ધીન	-7349
નીઝ	-7350
પિક	-7351
બલી	-7352
બીએ	-7353
મૂર	-7354
યતા	-7355
વડા	-7356
સેટ	-7357
▁45	-7358
▁કણ	-7359
▁ભડ	-7360
▁રૉ	-7361
▁૩૪	-7362
એફસી	-7363
ઓનાં	-7364
કાલે	-7365
જીને	-7366
ટ્ટર	-7367
ઠ્ઠા	-7368
બ્રે	-7369
લ્લો	-7370
▁ઇમે	-7371
▁કથા	-7372
▁કબ્	-7373
▁જયા	-7374
▁જુલ	-7375
▁તાવ	-7376
▁ફળો	-7377
▁રેફ	-7378
ન્ટના	-7379
રામાં	-7380
વર્ધન	-7381
વાયું	-7382
▁અડધી	-7383
▁ઉપાસ	-7384
▁ઓળખી	-7385
▁કહીએ	-7386
▁કોરિ	-7387
▁ગેંગ	-7388
▁ઘૂંટ	-7389
▁ચીની	-7390
▁જમણી	-7391
▁ટાળો	-7392
▁ડિસે	-7393
▁તાકી	-7394
▁થાળે	-7395
▁દરજ્	-7396
▁દહીં	-7397
▁દોષી	-7398
▁ધામધ	-7399
▁નર્મ	-7400
▁નામો	-7401
▁બાલા	-7402
▁બેદર	-7403
▁મતલબ	-7404
▁મનોજ	-7405
▁મૂંઝ	-7406
▁રજની	-7407
▁રમતો	-7408
▁રેખા	-7409
▁લગતી	-7410
▁લાઈફ	-7411
▁લાવે	-7412
▁સાચે	-7413
▁સીધા	-7414
▁હીરો	-7415
કાળમાં	-7416
પ્રદાન	-7417
વવાનું	-7418
હોત્રા	-7419
િયરમાં	-7420
▁અવસાન	-7421
▁આધ્યા	-7422
▁ઉપચાર	-7423
▁કક્ષા	-7424
▁કોઈના	-7425
▁ક્રીમ	-7426
▁ગાર્ડ	-7427
▁ગુપ્ત	-7428
▁ચલાવે	-7429
▁ધોરણો	-7430
▁નાણામ	-7431
▁પ્રણવ	-7432
▁માળખા	-7433
▁મેળવે	-7434
▁રાખશે	-7435
▁લશ્કર	-7436
▁વાતનો	-7437
▁વાપરો	-7438
▁સજીવન	-7439
▁સુરેશ	-7440
▁સ્માર	-7441
▁સ્વરા	-7442
▁કરવાને	-7443
▁ગ્રાહક	-7444
▁ઘટનાના	-7445
▁ચિંતિત	-7446
▁જગતમાં	-7447
▁દિલ્લી	-7448
▁પૂરતું	-7449
▁પ્રેશર	-7450
▁બંધારણ	-7451
▁બુદ્ધિ	-7452
▁માત્થી	-7453
▁સંચાલન	-7454
▁સંદેશા	-7455
▁કરિશ્મા	-7456
▁કોલેસ્ટ	-7457
▁જોડાયેલ	-7458
▁નોંધ્યો	-7459
▁પત્નીને	-7460
▁પદ્ધતિઓ	-7461
▁પરિવારે	-7462
▁પારિવાર	-7463
▁પાર્ટનર	-7464
▁પેમેન્ટ	-7465
▁ફરિયાદો	-7466
▁ફિલ્મનો	-7467
▁બનાવમાં	-7468
▁બેંગ્લો	-7469
▁મુકાબલો	-7470
▁વિપક્ષી	-7471
▁શાળામાં	-7472
▁સિરીઝમાં	-7473
▁કિંમતોમાં	-7474
▁પ્રકટીકરણ	-7475
▁પ્રેક્ટિસ	-7476
▁શિવસેનાના	-7477
▁સેક્ટરમાં	-7478
▁સોંપવામાં	-7479
▁પ્રાથમિકતા	-7480
▁વાતાવરણમાં	-7481
▁હરિયાણામાં	-7482
▁કાર્યક્ષેત્ર	-7483
):	-7484
,6	-7485
us	-7486
ંછ	-7487
ઇસ	-7488
ચુ	-7489
બન	-7490
શર	-7491
odi	-7492
જું	-7493
પછી	-7494
ભાસ	-7495
લીપ	-7496
સનો	-7497
સીસ	-7498
▁ટૅ	-7499
▁બૅ	-7500
▁યજ	-7501
▁યિ	-7502
▁સશ	-7503
એસએસ	-7504
ક્કો	-7505
જ્યુ	-7506
તેલા	-7507
ત્રુ	-7508
દાતા	-7509
ભાગી	-7510
મિંગ	-7511
મ્પલ	-7512
યેલો	-7513
ર્વે	-7514
લ્ટી	-7515
વાળો	-7516
શંકર	-7517
સીને	-7518
સ્કો	-7519
▁400	-7520
▁ઇરા	-7521
▁ઉઠી	-7522
▁કસો	-7523
▁કિસ	-7524
▁કોથ	-7525
▁ખરો	-7526
▁ગેટ	-7527
▁ઘેર	-7528
▁ચતુ	-7529
▁ચાવ	-7530
▁ચું	-7531
▁ટકી	-7532
▁તેટ	-7533
▁બેઝ	-7534
▁મનન	-7535
▁મું	-7536
▁મૌન	-7537
▁યહૂ	-7538
▁હાસ	-7539
યોગ્ય	-7540
ષ્માન	-7541
્રેશન	-7542
▁2022	-7543
▁અટકી	-7544
▁અનાજ	-7545
▁આઝાદ	-7546
▁એટલો	-7547
▁એસિડ	-7548
▁કવાય	-7549
▁ક્ષણ	-7550
▁ગોયલ	-7551
▁ગ્લે	-7552
▁ઘટાડ	-7553
▁ચરબી	-7554
▁પાડો	-7555
▁પાયા	-7556
▁પીસી	-7557
▁પેટે	-7558
▁ફિલિ	-7559
▁ફીચર	-7560
▁મરચા	-7561
▁મહામ	-7562
▁મૂડી	-7563
▁યુવક	-7564
▁રૂમી	-7565
▁લીટર	-7566
▁વધવા	-7567
▁વાળી	-7568
▁સાગર	-7569
▁સારૂ	-7570
્યારથી	-7571
▁અભિગમ	-7572
▁આઝાદી	-7573
▁આરંભી	-7574
▁ઊભેલા	-7575
▁કારની	-7576
▁કોરીં	-7577
▁ખાવું	-7578
▁ચાલશે	-7579
▁જુલાઈ	-7580
▁જેટલો	-7581
▁ડિઝાઈ	-7582
▁તુલના	-7583
▁તૈમૂર	-7584
▁પંડિત	-7585
▁પક્ષે	-7586
▁પરિષદ	-7587
▁પ્રતી	-7588
▁ફેબ્ર	-7589
▁બહુમત	-7590
▁માલદી	-7591
▁મૂર્ખ	-7592
▁વર્ણન	-7593
▁શિકાર	-7594
▁હરાવી	-7595
▁કરનારી	-7596
▁ક્વાર્	-7597
▁ખુરાના	-7598
▁ગુસ્સે	-7599
▁ગેરકાય	-7600
▁ચાલ્યા	-7601
▁જીત્યા	-7602
▁ડેબ્યુ	-7603
▁ત્રીજો	-7604
▁ધોધમાર	-7605
▁નર્મદા	-7606
▁પ્રેમી	-7607
▁પ્લેયર	-7608
▁ફરીયાદ	-7609
▁ફાર્મા	-7610
▁ભલામણો	-7611
▁માલિકી	-7612
▁લેવાયો	-7613
▁શરીરના	-7614
▁અગ્રવાલ	-7615
▁ઓક્ટોબર	-7616
▁ગાંગુલી	-7617
▁તસ્વીરો	-7618
▁પાર્ટીએ	-7619
▁પ્રાણીઓ	-7620
▁ફસાયેલા	-7621
▁બહેનોને	-7622
▁બ્રિક્સ	-7623
▁વધારીને	-7624
▁વરસાદથી	-7625
▁સંચાલિત	-7626
▁સમયગાળા	-7627
▁સુયોજિત	-7628
પાકિસ્તાન	-7629
▁આયુષ્માન	-7630
▁ગુમાવ્યા	-7631
▁ચૂંટણીની	-7632
▁ડિસ્પ્લે	-7633
▁દર્દીઓને	-7634
▁નિર્દેશન	-7635
▁નિષ્ફળતા	-7636
▁પરિયોજના	-7637
▁ફાઇનલમાં	-7638
▁બતાવ્યું	-7639
▁બેદરકારી	-7640
▁માતાપિતા	-7641
▁યુનાઇટેડ	-7642
▁ઇતિહાસમાં	-7643
▁જાન્યુઆરી	-7644
▁બોલીવુડના	-7645
▁મલ્હોત્રા	-7646
▁શક્તિશાળી	-7647
▁શ્રેણીમાં	-7648
▁સંપર્કમાં	-7649
▁હસ્તાક્ષર	-7650
▁ઈન્ડસ્ટ્રી	-7651
▁કેન્દ્રમાં	-7652
▁પેટ્રોલિયમ	-7653
▁પ્રમાણપત્ર	-7654
▁બોલીવુડમાં	-7655
▁પરિવારજનોને	-7656
10	-7657
ch	-7658
ov	-7659
મથ	-7660
લટ	-7661
વ્	-7662
ોલ	-7663
ંગો	-7664
ખાન	-7665
થાન	-7666
બાસ	-7667
મણી	-7668
મું	-7669
મેક	-7670
▁(2	-7671
▁33	-7672
▁CM	-7673
▁IC	-7674
▁ઑપ	-7675
▁ધૂ	-7676
▁૨૯	-7677
▁૩૧	-7678
▁૪૦	-7679
ment	-7680
ક્ષ્	-7681
ડીઆર	-7682
ણાના	-7683
ત્સવ	-7684
દાયી	-7685
પીના	-7686
પ્રા	-7687
બારી	-7688
સાની	-7689
સેપ્	-7690
સ્કર	-7691
ોનાં	-7692
▁198	-7693
▁SBI	-7694
▁અરજ	-7695
▁અવગ	-7696
▁ચાઇ	-7697
▁દૃઢ	-7698
▁ધમા	-7699
▁પોપ	-7700
▁બાય	-7701
▁વંશ	-7702
▁વહા	-7703
▁સગી	-7704
▁સેન	-7705
▁હાન	-7706
ટ્સએપ	-7707
ભાગ્ય	-7708
વવાનો	-7709
િયરની	-7710
▁અજિત	-7711
▁અફવા	-7712
▁ઇનામ	-7713
▁કન્ન	-7714
▁કોફી	-7715
▁ક્યા	-7716
▁ક્લબ	-7717
▁ખેડુ	-7718
▁ગૌતમ	-7719
▁ચોમા	-7720
▁જબરદ	-7721
▁તારે	-7722
▁તારો	-7723
▁નવાઈ	-7724
▁પાટી	-7725
▁ભરાઈ	-7726
▁મંજુ	-7727
▁મેનુ	-7728
▁મોહન	-7729
▁રાણી	-7730
▁રિયર	-7731
▁શૈલી	-7732
▁સજાગ	-7733
▁હડતા	-7734
ંધામાં	-7735
▁આગ્રહ	-7736
▁આજકાલ	-7737
▁ક્ષતિ	-7738
▁ખાદ્ય	-7739
▁ખાનનો	-7740
▁ગાડીઓ	-7741
▁ચકચાર	-7742
▁ચાલવા	-7743
▁જીતવા	-7744
▁જોડાઈ	-7745
▁તેણીએ	-7746
▁થોડાક	-7747
▁પિતાએ	-7748
▁પુખ્ત	-7749
▁ફરહાન	-7750
▁બધાની	-7751
▁બોન્ડ	-7752
▁મકાનો	-7753
▁મોતનો	-7754
▁યાત્ર	-7755
▁વળાંક	-7756
▁વિભાજ	-7757
▁શાહને	-7758
▁સ્મિથ	-7759
▁અંગેનો	-7760
▁અદાલતે	-7761
▁અમલમાં	-7762
▁અહીંયા	-7763
▁આવનારી	-7764
▁ઇમારતો	-7765
▁કાનૂની	-7766
▁ચુકવણી	-7767
▁જાણવું	-7768
▁જીવનને	-7769
▁તબક્કે	-7770
▁પક્ષીઓ	-7771
▁પટેલની	-7772
▁પુરાવો	-7773
▁પૂરેપૂ	-7774
▁પ્રીતિ	-7775
▁ફિટનેસ	-7776
▁ફ્લાઇટ	-7777
▁યાત્રી	-7778
▁લાગણીઓ	-7779
▁વિચારે	-7780
▁શીખ્યા	-7781
▁સભ્યોએ	-7782
▁સર્જરી	-7783
▁સુવાર્	-7784
▁હેબ્રી	-7785
▁ખાતામાં	-7786
▁ટેકનિકલ	-7787
▁દરખાસ્ત	-7788
▁પંજાબના	-7789
▁પ્રદર્શ	-7790
▁વાયરસનો	-7791
▁શર્માની	-7792
▁સંવેદના	-7793
▁સંસ્કાર	-7794
▁સમયગાળો	-7795
▁સ્ટેટ્સ	-7796
▁અભિષિક્ત	-7797
▁ઇન્સ્ટિટ	-7798
▁ઈશ્વરનું	-7799
▁કાયદાકીય	-7800
▁કેન્દ્રો	-7801
▁જન્મદિવસ	-7802
▁ડાયાબિટી	-7803
▁તેંડુલકર	-7804
▁બનાવ્યું	-7805
▁મહેરબાની	-7806
▁યુવાનોને	-7807
▁વર્ષોમાં	-7808
▁વીડિયોને	-7809
▁એન્જિનિયર	-7810
▁કાર્યકારી	-7811
▁કેજરીવાલે	-7812
▁ક્ષેત્રની	-7813
▁છેતરપિંડી	-7814
▁ડ્રાઇવિંગ	-7815
▁નાગરિકોને	-7816
▁ન્યાયાધીશ	-7817
▁પારિવારિક	-7818
▁બતાવવામાં	-7819
▁બોલિવૂડના	-7820
▁મહત્ત્વનો	-7821
▁વિસ્તારના	-7822
▁શૂટિંગમાં	-7823
▁પરમેશ્વરની	-7824
▁સફળતાપૂર્વક	-7825
▁હાઈકોર્ટમાં	-7826
▁ઓસ્ટ્રેલિયાના	-7827
ay	-7828
id	-7829
ંુ	-7830
ટુ	-7831
ડમ	-7832
ડલ	-7833
શૈ	-7834
કોટ	-7835
ગમત	-7836
ઘાટ	-7837
ઝના	-7838
ધામ	-7839
નવી	-7840
નાઈ	-7841
નીર	-7842
પર્	-7843
પાત	-7844
પેડ	-7845
પોટ	-7846
બરી	-7847
બાઝ	-7848
બેલ	-7849
ભાષ	-7850
માએ	-7851
યલે	-7852
રાં	-7853
રીત	-7854
વડી	-7855
વીય	-7856
શાહ	-7857
હ્ય	-7858
િવે	-7859
▁55	-7860
▁65	-7861
▁US	-7862
▁of	-7863
▁ઓમ	-7864
▁ઘી	-7865
▁ટિ	-7866
▁ઠે	-7867
▁૩૭	-7868
કલ્પ	-7869
ક્વિ	-7870
પત્ય	-7871
બર્ટ	-7872
બાજી	-7873
મેટા	-7874
ર્ષણ	-7875
લેશન	-7876
વાયર	-7877
સુધી	-7878
િયું	-7879
▁અવિ	-7880
▁ઋષિ	-7881
▁એથી	-7882
▁એરો	-7883
▁કચે	-7884
▁કિમ	-7885
▁કેન	-7886
▁કેલ	-7887
▁ગિલ	-7888
▁ગુડ	-7889
▁ઘટે	-7890
▁ચેટ	-7891
▁છાલ	-7892
▁છુપ	-7893
▁ડિલ	-7894
▁ડૂબ	-7895
▁ધમધ	-7896
▁ધૂમ	-7897
▁પાથ	-7898
▁ફૂલ	-7899
▁બુમ	-7900
▁મિટ	-7901
▁રિટ	-7902
▁વિખ	-7903
▁વોર	-7904
▁૧૯૯	-7905
ંગમાં	-7906
ચંદ્ર	-7907
ત્મિક	-7908
નોમાં	-7909
રેટરી	-7910
લ્લું	-7911
સિંહે	-7912
િત્તે	-7913
્રપાન	-7914
▁2015	-7915
▁અંકુ	-7916
▁અખિલ	-7917
▁આકરી	-7918
▁આગમન	-7919
▁આજથી	-7920
▁ઉછેર	-7921
▁ઊંડી	-7922
▁કેટે	-7923
▁કોના	-7924
▁ગણેશ	-7925
▁ચાર્	-7926
▁ચિકન	-7927
▁ડેમો	-7928
▁તળાવ	-7929
▁દેશે	-7930
▁ધંધા	-7931
▁નસીબ	-7932
▁પદ્મ	-7933
▁પરનો	-7934
▁પાયે	-7935
▁બ્લુ	-7936
▁ભીષણ	-7937
▁લડવા	-7938
▁લાયક	-7939
▁સંકલ	-7940
▁હત્ય	-7941
▁હાથે	-7942
ચ્યુઅલ	-7943
પ્રેશન	-7944
િયમમાં	-7945
ેશનમાં	-7946
▁આવતાં	-7947
▁ઉંમરે	-7948
▁એશિયન	-7949
▁કોષ્ટ	-7950
▁ગ્રૂપ	-7951
▁ઘર્ષણ	-7952
▁જયપુર	-7953
▁જવાબો	-7954
▁દરિયો	-7955
▁દેવું	-7956
▁નામનો	-7957
▁પકડવા	-7958
▁ફેલાઈ	-7959
▁ફોટોઝ	-7960
▁ફ્લાઇ	-7961
▁મેક્સ	-7962
▁મેળવો	-7963
▁યહુદા	-7964
▁રહેતો	-7965
▁શત્રુ	-7966
▁સંશોધ	-7967
▁સમયસર	-7968
▁અથડામણ	-7969
▁અનુભવો	-7970
▁આઈસીસી	-7971
▁આવવાની	-7972
▁કરાવવા	-7973
▁કામકાજ	-7974
▁ઘટાડવા	-7975
▁જાણીને	-7976
▁જ્યોતિ	-7977
▁તપાસની	-7978
▁તમામને	-7979
▁દુકાનો	-7980
▁નારાયણ	-7981
▁પત્નીએ	-7982
▁પરીક્ષ	-7983
▁પહોંચે	-7984
▁પિતાની	-7985
▁પૂર્વો	-7986
▁પ્રસાર	-7987
▁બચાવવા	-7988
▁બનાવને	-7989
▁ભેદભાવ	-7990
▁માર્યો	-7991
▁રાખ્યા	-7992
▁વેરિયે	-7993
▁શિક્ષા	-7994
▁સંકેતો	-7995
▁સ્થાયી	-7996
▁સ્થિતી	-7997
▁સ્વપ્ન	-7998
▁હેન્ડલ	-7999
▁કાઉન્ટર	-8000
▁કોવિંદે	-8001
▁ખાવાનું	-8002
▁ગણાવ્યો	-8003
▁ડ્રાઇવર	-8004
▁ત્યાંના	-8005
▁દુશ્મનો	-8006
▁ધર્મમાં	-8007
▁નારાજગી	-8008
▁નિર્દોષ	-8009
▁નોટબંધી	-8010
▁પ્રભારી	-8011
▁ફરજિયાત	-8012
▁ફેન્સને	-8013
▁બ્રાઝિલ	-8014
▁બ્રાન્ડ	-8015
▁મહિનાની	-8016
▁ખેડૂતોના	-8017
▁જોડાયેલી	-8018
▁નાણાંકીય	-8019
▁બજારોમાં	-8020
▁મેળવ્યું	-8021
▁રાજ્યોના	-8022
▁રૂપિયાના	-8023
▁વિમાનમાં	-8024
▁વ્યાખ્યા	-8025
▁શબ્દોમાં	-8026
▁શિવસેનાએ	-8027
▁શૈક્ષણિક	-8028
▁અધ્યક્ષતા	-8029
▁એન્ડ્રોઇડ	-8030
▁કુટુંબમાં	-8031
▁ચલાવવામાં	-8032
▁જવાબદારીઓ	-8033
▁ટ્રાન્સફર	-8034
▁ત્રાસવાદી	-8035
▁નિર્ધારિત	-8036
▁મહિન્દ્રા	-8037
▁મેળવવામાં	-8038
▁રોકાણકારો	-8039
▁વિસ્તારની	-8040
▁સંકળાયેલા	-8041
▁આધ્યાત્મિક	-8042
▁મંત્રાલયના	-8043
▁શાંતિપૂર્ણ	-8044
▁અધ્યક્ષતામાં	-8045
▁પ્રતિનિધિત્વ	-8046
▁પ્રદર્શનકારી	-8047
▁સ્માર્ટફોનમાં	-8048
ct	-8049
ir	-8050
કૉ	-8051
તૂ	-8052
હલ	-8053
’.	-8054
કથા	-8055
કેમ	-8056
ખબર	-8057
જાત	-8058
ટકા	-8059
ન્ઝ	-8060
ફળી	-8061
બિલ	-8062
માણ	-8063
યામ	-8064
રેલ	-8065
વિદ	-8066
સૂર	-8067
ાગત	-8068
્ટન	-8069
▁54	-8070
▁અબ	-8071
▁આન	-8072
▁ઝૂ	-8073
▁ડુ	-8074
▁દમ	-8075
▁મશ	-8076
▁મૉ	-8077
▁શૉ	-8078
▁૩૩	-8079
ણાચલ	-8080
ન્ટન	-8081
પ્પી	-8082
પ્રો	-8083
બીઆઇ	-8084
બ્લે	-8085
મિલી	-8086
યારે	-8087
વ્યૂ	-8088
શ્રે	-8089
સ્પી	-8090
ાળું	-8091
ૌદ્ધ	-8092
▁કબૂ	-8093
▁કમન	-8094
▁ક્લ	-8095
▁જરૃ	-8096
▁ઝાં	-8097
▁ટાં	-8098
▁ડિસ	-8099
▁નોન	-8100
▁મંત	-8101
▁મતે	-8102
▁રિવ	-8103
▁શમી	-8104
કમિંગ	-8105
ક્ષેપ	-8106
ચારિક	-8107
પ્રતિ	-8108
બહેનો	-8109
ભર્યા	-8110
ેશિયા	-8111
્રેગન	-8112
▁આટલા	-8113
▁ઇજાઓ	-8114
▁ઇઝરા	-8115
▁ઉદાસ	-8116
▁એફઆઈ	-8117
▁ઓપનર	-8118
▁કાળી	-8119
▁ખાવા	-8120
▁ચટણી	-8121
▁ચોખા	-8122
▁જહાજ	-8123
▁જેપી	-8124
▁ડેવલ	-8125
▁નવું	-8126
▁નિયા	-8127
▁પંચે	-8128
▁પરમા	-8129
▁પાંદ	-8130
▁પુણે	-8131
▁પેપર	-8132
▁ફોરે	-8133
▁બાબા	-8134
▁ભાગો	-8135
▁મૂવી	-8136
▁મોટુ	-8137
▁લખાણ	-8138
▁સંમત	-8139
▁સેમિ	-8140
▁સેમી	-8141
▁સેલે	-8142
▁સૌરવ	-8143
▁હોઈએ	-8144
કલ્પિક	-8145
બારમાં	-8146
ભર્યું	-8147
રેક્શન	-8148
્રાંતિ	-8149
▁અવકાશ	-8150
▁આઈપીએ	-8151
▁ઈચ્છે	-8152
▁એન્ટર	-8153
▁કન્નડ	-8154
▁કામના	-8155
▁કેમકે	-8156
▁કોઇને	-8157
▁ગ્રુપ	-8158
▁ટાળવા	-8159
▁તેઓનો	-8160
▁દેવાઈ	-8161
▁દ્વાર	-8162
▁ધર્મે	-8163
▁ધર્મો	-8164
▁ધારણા	-8165
▁નંબરે	-8166
▁પડતું	-8167
▁પાછું	-8168
▁પેકેજ	-8169
▁ફેક્ટ	-8170
▁બંધાર	-8171
▁બંનેએ	-8172
▁બનીને	-8173
▁બોમ્બ	-8174
▁મરચાં	-8175
▁મળતું	-8176
▁યોજાઈ	-8177
▁રાજેશ	-8178
▁લંબાઈ	-8179
▁વર્ગી	-8180
▁સારાં	-8181
▁હમણાં	-8182
કાઉન્ટર	-8183
ોનેશિયા	-8184
્યોરિટી	-8185
▁અહીંથી	-8186
▁આપ્યાં	-8187
▁ઉંમરના	-8188
▁કૃત્યો	-8189
▁ચોકલેટ	-8190
▁જનતાને	-8191
▁ટ્રસ્ટ	-8192
▁ડેપ્યુ	-8193
▁તીમોથી	-8194
▁ધામધૂમ	-8195
▁નિવારણ	-8196
▁ન્યૂયો	-8197
▁પડવાની	-8198
▁પર્યટન	-8199
▁પેટ્રો	-8200
▁બાળકની	-8201
▁બેક્ટે	-8202
▁માંગીએ	-8203
▁માત્રા	-8204
▁મારાથી	-8205
▁યાદગાર	-8206
▁યિર્મે	-8207
▁વોટિંગ	-8208
▁વોશિંગ	-8209
▁સાંભળે	-8210
▁સેકન્ડ	-8211
▁સ્વાર્	-8212
▁એક્ટિંગ	-8213
▁કંપનીની	-8214
▁કુમારની	-8215
▁કોહલીની	-8216
▁જવાબમાં	-8217
▁ટ્રેન્ડ	-8218
▁તેમાંના	-8219
▁પરેશાની	-8220
▁પ્રકારે	-8221
▁પ્રકૃતિ	-8222
▁પ્રદૂષણ	-8223
▁પ્રાદેશ	-8224
▁પ્રિન્સ	-8225
▁બાયોપિક	-8226
▁બ્રિટિશ	-8227
▁વર્ષોથી	-8228
▁શ્રીનગર	-8229
▁સાંભળવા	-8230
▁હુમલાખો	-8231
ાર્ટમેન્ટ	-8232
▁અધિકારીએ	-8233
▁અભિપ્રાય	-8234
▁ગુમાવ્યો	-8235
▁ગ્રામજનો	-8236
▁ગ્રેજ્યુ	-8237
▁રવિન્દ્ર	-8238
▁વ્યક્તિએ	-8239
▁સ્થિતિને	-8240
▁હરાવ્યું	-8241
▁ઇલેક્ટ્રો	-8242
▁પહોંચ્યું	-8243
▁મુસાફરોને	-8244
▁રૂપિયાનું	-8245
▁શાકભાજીના	-8246
▁હાઇકોર્ટે	-8247
▁ગર્ભાવસ્થા	-8248
▁બિલ્ડિંગની	-8249
▁વ્યવસ્થાપન	-8250
▁કોલેસ્ટ્રોલ	-8251
▁ટૂર્નામેન્ટ	-8252
▁રેન્કિંગમાં	-8253
-3	-8254
AT	-8255
RC	-8256
ak	-8257
he	-8258
ul	-8259
આપ	-8260
કં	-8261
સફ	-8262
હમ	-8263
ોર	-8264
▁e	-8265
▁i	-8266
▁v	-8267
-16	-8268
har	-8269
ઝની	-8270
ડાઓ	-8271
ડિઓ	-8272
ડીઓ	-8273
દુર	-8274
નીએ	-8275
ફરી	-8276
ભરી	-8277
ભીત	-8278
યહો	-8279
રીઓ	-8280
વાટ	-8281
ાગર	-8282
ાયર	-8283
ૂંક	-8284
ેલો	-8285
ેશો	-8286
▁34	-8287
▁42	-8288
▁56	-8289
▁In	-8290
▁અછ	-8291
▁આઝ	-8292
▁આડ	-8293
▁ઔષ	-8294
▁ડૂ	-8295
▁ફં	-8296
કીને	-8297
ત્તમ	-8298
ન્હો	-8299
પક્ષ	-8300
ફોર્	-8301
બર્ગ	-8302
ર્ચે	-8303
લિટી	-8304
લેવન	-8305
વિધિ	-8306
ૂલ્ય	-8307
▁1.5	-8308
▁આડે	-8309
▁કિર	-8310
▁કેક	-8311
▁કેશ	-8312
▁જશો	-8313
▁જાધ	-8314
▁જિન	-8315
▁જોધ	-8316
▁જોબ	-8317
▁જોશ	-8318
▁ટૉસ	-8319
▁પહા	-8320
▁બોર	-8321
▁મુર	-8322
▁મુલ	-8323
▁યુઝ	-8324
▁લંબ	-8325
▁લેપ	-8326
▁સોલ	-8327
ation	-8328
ction	-8329
કત્તા	-8330
પુત્ર	-8331
પુરના	-8332
પ્રીત	-8333
મેટાં	-8334
યેલું	-8335
લક્ષી	-8336
હરચના	-8337
હાબાદ	-8338
ેશ્વર	-8339
▁આપની	-8340
▁આયુષ	-8341
▁આવાસ	-8342
▁ઉમટી	-8343
▁ઑફિસ	-8344
▁કેલ્	-8345
▁ક્લા	-8346
▁ખાતર	-8347
▁ગૂંચ	-8348
▁ડ્રા	-8349
▁પટના	-8350
▁મથકે	-8351
▁માયા	-8352
▁મારૂ	-8353
▁મિલા	-8354
▁યુકે	-8355
▁યોજી	-8356
▁રાની	-8357
▁લખનઉ	-8358
▁લાઇન	-8359
▁લીલી	-8360
▁વીમા	-8361
▁શખ્સ	-8362
▁શોષણ	-8363
▁સહમત	-8364
▁સાઇડ	-8365
▁સાબર	-8366
▁સીઝન	-8367
સ્થાને	-8368
િયામાં	-8369
▁અઘરું	-8370
▁આદર્શ	-8371
▁આશંકા	-8372
▁ઉપરથી	-8373
▁ઊંચાઈ	-8374
▁ઓળખાય	-8375
▁કવાયત	-8376
▁કસોટી	-8377
▁કહીને	-8378
▁ક્રાઇ	-8379
▁ગોયલે	-8380
▁ચોપડા	-8381
▁જણાવો	-8382
▁જરુરી	-8383
▁જાગૃત	-8384
▁જાતીય	-8385
▁જીવતા	-8386
▁દેશનો	-8387
▁ધ્રુવ	-8388
▁નમૂના	-8389
▁નીકળે	-8390
▁પાછલા	-8391
▁ફાઇના	-8392
▁બાજરી	-8393
▁બુલેટ	-8394
▁બૌદ્ધ	-8395
▁ભયભીત	-8396
▁યજમાન	-8397
▁વિવેક	-8398
▁સરોવર	-8399
▁સિંગલ	-8400
શ્રેષ્ઠ	-8401
▁અંગેના	-8402
▁અગાઉના	-8403
▁અનુભવે	-8404
▁કૌશલ્ય	-8405
▁ક્રમાં	-8406
▁જામનગર	-8407
▁જીલ્લા	-8408
▁તિવારી	-8409
▁દેશનાં	-8410
▁દેશનું	-8411
▁નિમણૂક	-8412
▁પબ્લિક	-8413
▁પોલિસે	-8414
▁પ્રાંત	-8415
▁ફાળવણી	-8416
▁બંનેના	-8417
▁બાળકના	-8418
▁બેંકના	-8419
▁બોમ્બે	-8420
▁બોલાવી	-8421
▁રાધિકા	-8422
▁રિલેશન	-8423
▁લેવાશે	-8424
▁વાપરવા	-8425
▁શક્યું	-8426
▁શરીરને	-8427
▁સુધારે	-8428
▁સેમસંગ	-8429
▁હાથધરી	-8430
▁હેલિકો	-8431
▁અમલીકરણ	-8432
▁કાયદાની	-8433
▁જબરદસ્ત	-8434
▁ટ્રેનની	-8435
▁નીપજ્યા	-8436
▁પક્ષમાં	-8437
▁પાઠવ્યા	-8438
▁પ્રેષિત	-8439
▁મંદિરના	-8440
▁મલેશિયા	-8441
▁મહિલાને	-8442
▁રિમાન્ડ	-8443
▁રેલીમાં	-8444
▁લૉકડાઉન	-8445
▁વચ્ચેનો	-8446
▁વાયરસથી	-8447
▁વિકાસની	-8448
▁સ્પોર્ટ	-8449
▁અમેરિકાએ	-8450
▁અસામાન્ય	-8451
▁એચડીએફસી	-8452
▁ટેલિવિઝન	-8453
▁દર્દીઓની	-8454
▁નીપજ્યાં	-8455
▁પ્રોડ્યૂ	-8456
▁ફરિયાદના	-8457
▁બ્રિટનના	-8458
▁ભાષાઓમાં	-8459
▁રાજપૂતના	-8460
▁શીખવ્યું	-8461
▁સંક્રમિત	-8462
▁સૂત્રોના	-8463
▁હાઈકોર્ટ	-8464
▁અકસ્માતની	-8465
▁અમદાવાદના	-8466
▁કર્ણાટકના	-8467
▁ખેડૂતોમાં	-8468
▁નોંધાયેલા	-8469
▁ફોટોગ્રાફ	-8470
▁બનાવવાનું	-8471
▁માર્ગદર્શ	-8472
▁લક્ષ્યાંક	-8473
▁વ્યૂહરચના	-8474
▁નાણામંત્રી	-8475
▁વ્યક્તિઓને	-8476
▁કાર્યક્રમની	-8477
▁સીસીટીવીમાં	-8478
,7	-8479
મક	-8480
and	-8481
end	-8482
ંદે	-8483
ટને	-8484
ટાઈ	-8485
ણાલ	-8486
દળો	-8487
મોલ	-8488
લનો	-8489
લાપ	-8490
વિન	-8491
ષમા	-8492
સાં	-8493
ાઇટ	-8494
િસો	-8495
▁43	-8496
▁46	-8497
▁59	-8498
▁85	-8499
▁ઉધ	-8500
▁ઘડ	-8501
▁ટબ	-8502
▁પથ	-8503
▁વણ	-8504
એમએસ	-8505
ધારણ	-8506
નેશન	-8507
ફ્રા	-8508
બીના	-8509
ભરના	-8510
મ્બા	-8511
ર્થી	-8512
લિમો	-8513
વાશે	-8514
િયાએ	-8515
ોનું	-8516
▁GST	-8517
▁NCP	-8518
▁અનો	-8519
▁ઉર્	-8520
▁એફે	-8521
▁કપ્	-8522
▁ખોર	-8523
▁ગળે	-8524
▁જૂન	-8525
▁તૃણ	-8526
▁થિય	-8527
▁થીમ	-8528
▁દરે	-8529
▁નફર	-8530
▁બેગ	-8531
▁ભેજ	-8532
▁વાસ	-8533
▁શરમ	-8534
▁સઘન	-8535
▁સહુ	-8536
ણોમાં	-8537
તેમણે	-8538
િયાના	-8539
િવિટી	-8540
▁અસરો	-8541
▁આગને	-8542
▁આયોગ	-8543
▁ઉતરી	-8544
▁ઉપાડ	-8545
▁એકલી	-8546
▁એમ્બ	-8547
▁ઓલિવ	-8548
▁કંટા	-8549
▁કિરણ	-8550
▁ક્લો	-8551
▁ખૂણે	-8552
▁ઘેરી	-8553
▁ટેલિ	-8554
▁ટોપી	-8555
▁ડાબા	-8556
▁પડયા	-8557
▁પદના	-8558
▁પનીર	-8559
▁પીવા	-8560
▁પ્રત	-8561
▁ભરવા	-8562
▁મંદી	-8563
▁મજબૂ	-8564
▁મનીષ	-8565
▁મેજર	-8566
▁રજાઓ	-8567
▁વાટા	-8568
▁વિઝા	-8569
▁શરીફ	-8570
▁સજ્જ	-8571
▁સાંક	-8572
▁સાહસ	-8573
▁સૂચન	-8574
▁સેવક	-8575
ઓમાંથી	-8576
ધિકારી	-8577
બ્રિગે	-8578
્યાંકન	-8579
▁અનલિમ	-8580
▁અનામત	-8581
▁અહેમદ	-8582
▁આનંદી	-8583
▁ઉમેરી	-8584
▁કર્મી	-8585
▁ઘોષણા	-8586
▁ચિહ્ન	-8587
▁ટેનિસ	-8588
▁ડિસ્ક	-8589
▁તાપસી	-8590
▁દત્તા	-8591
▁દેવગણ	-8592
▁દેવગન	-8593
▁નામથી	-8594
▁પરસ્પ	-8595
▁પહેરી	-8596
▁પૂરતા	-8597
▁ફર્યા	-8598
▁ફેસ્ટ	-8599
▁બાજુએ	-8600
▁બિલને	-8601
▁બૉક્સ	-8602
▁ભોપાલ	-8603
▁રંગીન	-8604
▁રહીને	-8605
▁લાખનો	-8606
▁વધ્યા	-8607
▁વરિયા	-8608
▁વાજબી	-8609
▁શાહની	-8610
▁સતર્ક	-8611
▁સપનું	-8612
▁સિંગર	-8613
▁હસ્તી	-8614
▁હોલ્ડ	-8615
ન્સેક્સ	-8616
બોરેટરી	-8617
▁અયોગ્ય	-8618
▁આતંકીઓ	-8619
▁કુશળતા	-8620
▁જવાનોએ	-8621
▁દરજ્જો	-8622
▁દેખાયા	-8623
▁દેવાયો	-8624
▁પ્રબોધ	-8625
▁પ્રોફે	-8626
▁ફેમિલી	-8627
▁બહારના	-8628
▁બાબતને	-8629
▁બીજાને	-8630
▁માનવું	-8631
▁મીટિંગ	-8632
▁રૂપિયો	-8633
▁રેડિયો	-8634
▁વિકસિત	-8635
▁શસ્ત્ર	-8636
▁સમાજના	-8637
▁સહભાગી	-8638
▁સાંભળો	-8639
▁સિંહના	-8640
▁સિનિયર	-8641
▁સેનાની	-8642
▁અપકમિંગ	-8643
▁આવૃત્તિ	-8644
▁કેરળમાં	-8645
▁ચાર્જશી	-8646
▁દર્શાવી	-8647
▁પર્યાવર	-8648
▁પહેરીને	-8649
▁ફિલ્મથી	-8650
▁ફ્રેન્ચ	-8651
▁વિભાજિત	-8652
▁વોલ્ટેજ	-8653
▁સાવચેતી	-8654
▁સુધારવા	-8655
▁સ્ટાર્સ	-8656
▁સ્ટ્રીટ	-8657
▁અદાલતમાં	-8658
▁ઓળખવામાં	-8659
▁ટ્રેનિંગ	-8660
▁ડિસેમ્બર	-8661
▁ડેપ્યુટી	-8662
▁તસવીરમાં	-8663
▁ત્રિપુરા	-8664
▁પેસેન્જર	-8665
▁મર્યાદિત	-8666
▁માર્ગમાં	-8667
▁સત્તામાં	-8668
▁આફ્રિકાના	-8669
▁ઇન્ડિયાના	-8670
▁નિર્દેશિત	-8671
▁પ્રાદેશિક	-8672
▁યહોવાહનું	-8673
▁સંખ્યાબંધ	-8674
▁સમસ્યાનું	-8675
▁અયોધ્યામાં	-8676
▁ઈશ્વરભક્તો	-8677
▁ચેલેન્જર્સ	-8678
▁પેટાચૂંટણી	-8679
▁પ્રદેશોમાં	-8680
▁રિપોર્ટમાં	-8681
▁વ્યક્તિત્વ	-8682
▁પ્રક્રિયામાં	-8683
▁માર્ગદર્શિકા	-8684
▁મધ્યપ્રદેશમાં	-8685
ab	-8686
os	-8687
th	-8688
ઈસ	-8689
ઉસ	-8690
ઓફ	-8691
ડય	-8692
બદ	-8693
સભ	-8694
ome	-8695
ઇન્	-8696
કાવ	-8697
છેદ	-8698
જોડ	-8699
ટિક	-8700
ટિન	-8701
ઠાં	-8702
ઠેર	-8703
દું	-8704
નેશ	-8705
ફોડ	-8706
માટ	-8707
રાદ	-8708
લ્ફ	-8709
સામ	-8710
હલો	-8711
િલે	-8712
▁''	-8713
▁(%	-8714
▁ખળ	-8715
▁જસ	-8716
▁ફૉ	-8717
▁૩૫	-8718
આરસી	-8719
છેડા	-8720
જોની	-8721
દેશી	-8722
પીએમ	-8723
ફેશન	-8724
ફ્ટી	-8725
મીના	-8726
લાની	-8727
ળાની	-8728
વારો	-8729
સાના	-8730
સારી	-8731
િન્સ	-8732
ેક્સ	-8733
▁108	-8734
▁144	-8735
▁CBI	-8736
▁અવા	-8737
▁આજુ	-8738
▁આદમ	-8739
▁ઇંગ	-8740
▁ઇવે	-8741
▁ઉડા	-8742
▁એડિ	-8743
▁ઓઈલ	-8744
▁કોડ	-8745
▁ગંદ	-8746
▁જૈશ	-8747
▁ટેપ	-8748
▁તુર	-8749
▁દઈએ	-8750
▁દાર	-8751
▁પેન	-8752
▁ફેફ	-8753
▁બાત	-8754
▁બિર	-8755
▁માખ	-8756
▁રજી	-8757
▁રાઈ	-8758
▁રિપ	-8759
▁વગા	-8760
▁શામ	-8761
▁શોખ	-8762
▁સગા	-8763
કેદાર	-8764
ફેક્ટ	-8765
મેટિક	-8766
મ્પની	-8767
રિક્ષ	-8768
લ્સને	-8769
▁અંડર	-8770
▁અહમદ	-8771
▁આદરી	-8772
▁આપશો	-8773
▁ઓક્સ	-8774
▁કહેર	-8775
▁કાળો	-8776
▁ક્રિ	-8777
▁ગોગો	-8778
▁ચમચો	-8779
▁જડબા	-8780
▁જ્હો	-8781
▁ટાઈમ	-8782
▁ટાવર	-8783
▁ડીજી	-8784
▁દાંત	-8785
▁દીપક	-8786
▁દુબઈ	-8787
▁ધાણા	-8788
▁નાટક	-8789
▁નારા	-8790
▁પકડા	-8791
▁પર્સ	-8792
▁પૂછે	-8793
▁ફેંક	-8794
▁બદામ	-8795
▁ભલાઈ	-8796
▁ભલું	-8797
▁મહાર	-8798
▁મિઝો	-8799
▁મેરી	-8800
▁મોકો	-8801
▁રક્ષ	-8802
▁વોડા	-8803
▁સમિટ	-8804
▁સાવધ	-8805
▁સિઝન	-8806
▁હુકમ	-8807
ડીઆરએફ	-8808
નિર્ભર	-8809
પ્યુલર	-8810
યાત્રા	-8811
લ્સમાં	-8812
્યુનિક	-8813
▁અતિશય	-8814
▁અત્યા	-8815
▁કાઢવા	-8816
▁કોર્સ	-8817
▁ખર્ચા	-8818
▁ચાહકો	-8819
▁ચૌહાણ	-8820
▁જળવાઈ	-8821
▁જોખમો	-8822
▁ધોનીએ	-8823
▁પરિણી	-8824
▁પશ્ચિ	-8825
▁પસ્તા	-8826
▁પહોચી	-8827
▁પીવું	-8828
▁ફૂટેજ	-8829
▁ફોલ્ડ	-8830
▁બદલાય	-8831
▁બાદથી	-8832
▁ભઠ્ઠી	-8833
▁ભાગની	-8834
▁મગફળી	-8835
▁મરચું	-8836
▁મારાં	-8837
▁વપરાય	-8838
▁વિનાશ	-8839
▁વિલંબ	-8840
▁શેરબજ	-8841
▁સંદીપ	-8842
▁હિંસક	-8843
જીવનમાં	-8844
િફિકેશન	-8845
▁અટકાવી	-8846
▁અનુરાગ	-8847
▁અબ્દુલ	-8848
▁આવકમાં	-8849
▁ઇચ્છતા	-8850
▁એનર્જી	-8851
▁એમેઝોન	-8852
▁કપ્તાન	-8853
▁કિયારા	-8854
▁કેરળના	-8855
▁કોથમીર	-8856
▁કોમેડી	-8857
▁ચકાસણી	-8858
▁જીવનના	-8859
▁ડીઝલના	-8860
▁તારીખો	-8861
▁તુર્કી	-8862
▁નજરમાં	-8863
▁પાંચમી	-8864
▁પુછપરછ	-8865
▁પોઇન્ટ	-8866
▁પ્રસરી	-8867
▁બારણું	-8868
▁માસ્ટર	-8869
▁યોજાશે	-8870
▁રહેલું	-8871
▁સતાવણી	-8872
▁સમારંભ	-8873
▁સુપ્રી	-8874
▁સ્ટ્રો	-8875
▁સ્નાતક	-8876
▁અસાધારણ	-8877
▁આંતરછેદ	-8878
▁ઈન્દિરા	-8879
▁ખેડૂતોએ	-8880
▁ગોળીબાર	-8881
▁છેલ્લાં	-8882
▁જિનપિંગ	-8883
▁ટર્મિનલ	-8884
▁તીવ્રતા	-8885
▁દીક્ષિત	-8886
▁ધન્યવાદ	-8887
▁ધ્યાનથી	-8888
▁પ્લાન્ટ	-8889
▁બજેટમાં	-8890
▁માથામાં	-8891
▁મૃતકોની	-8892
▁રશિયાના	-8893
▁રહેવાનો	-8894
▁લખવામાં	-8895
▁સદનસીબે	-8896
▁સ્ટેન્ડ	-8897
▁હથિયારો	-8898
▁અંતરિક્ષ	-8899
▁કાઢવામાં	-8900
▁ડૉક્ટરની	-8901
▁દિલ્હીથી	-8902
▁નિષ્ણાતો	-8903
▁મુકવામાં	-8904
▁રજનીકાંત	-8905
▁રહેવાનું	-8906
▁સંતાનમાં	-8907
▁સંબંધોને	-8908
▁અનલિમિટેડ	-8909
▁અસરગ્રસ્ત	-8910
▁આતંકવાદીઓ	-8911
▁કાર્યોમાં	-8912
▁કોર્પોરેટ	-8913
▁ક્ષેત્રના	-8914
▁પ્રકારનાં	-8915
▁પ્રતિષ્ઠા	-8916
▁વિચારધારા	-8917
▁સિદ્ધાંતો	-8918
▁ધર્મેન્દ્ર	-8919
▁ફાયરબ્રિગે	-8920
▁વિશ્વભરમાં	-8921
▁વૈજ્ઞાનિકો	-8922
▁સરખામણીમાં	-8923
▁સર્વશ્રેષ્ઠ	-8924
▁સ્વાસ્થ્યનું	-8925
▁રાષ્ટ્રપ્રમુખ	-8926
▁વિદ્યાર્થીઓની	-8927
▁કાર્યક્ષેત્રમાં	-8928
60	-8929
un	-8930
ચય	-8931
તલ	-8932
પમ	-8933
મૅ	-8934
રમ	-8935
લૂ	-8936
સહ	-8937
સૈ	-8938
ૉન	-8939
્ડ	-8940
ity	-8941
ંચી	-8942
ઈને	-8943
કાઇ	-8944
ગિત	-8945
ગીય	-8946
જાસ	-8947
તીશ	-8948
તેઓ	-8949
દને	-8950
નરી	-8951
પોર	-8952
મીત	-8953
રશી	-8954
ર્શ	-8955
લાભ	-8956
લેખ	-8957
ળાટ	-8958
વંત	-8959
વાળ	-8960
શંક	-8961
શ્વ	-8962
સમા	-8963
સરા	-8964
સાસ	-8965
સીય	-8966
હેલ	-8967
િતી	-8968
▁67	-8969
▁to	-8970
▁ઈઝ	-8971
▁ચળ	-8972
▁રખ	-8973
▁ર્	-8974
▁શણ	-8975
▁—⁠	-8976
,500	-8977
કરની	-8978
કરાર	-8979
ગાળા	-8980
ગ્રે	-8981
નાથે	-8982
નાના	-8983
પીએસ	-8984
પ્લો	-8985
રાવી	-8986
રેખા	-8987
રોનો	-8988
ળાના	-8989
સણખો	-8990
િયુષ	-8991
▁...	-8992
▁120	-8993
▁128	-8994
▁એસી	-8995
▁કમો	-8996
▁કરૂ	-8997
▁કાવ	-8998
▁કોર	-8999
▁ખવડ	-9000
▁ટૂર	-9001
▁ડબ્	-9002
▁થાક	-9003
▁નકલ	-9004
▁નરમ	-9005
▁નિઃ	-9006
▁પકા	-9007
▁બાપ	-9008
▁બોટ	-9009
▁ભરત	-9010
▁ભાન	-9011
▁મગજ	-9012
▁મહી	-9013
▁મેહ	-9014
▁રવી	-9015
▁રાઉ	-9016
▁વાગ	-9017
▁સદા	-9018
▁સિત	-9019
ંતરિત	-9020
કૃષ્ણ	-9021
ક્રમે	-9022
ટેસ્ટ	-9023
પુરની	-9024
યુદ્ધ	-9025
સિફિક	-9026
સ્ટેટ	-9027
હ્નવી	-9028
▁અજમા	-9029
▁અભાવ	-9030
▁અમીર	-9031
▁આઈટી	-9032
▁આપેલ	-9033
▁ઉપરો	-9034
▁ઊભું	-9035
▁કચરો	-9036
▁કિલ્	-9037
▁ખોરા	-9038
▁ગંગા	-9039
▁ગિયર	-9040
▁જગાડ	-9041
▁જૂથો	-9042
▁ડાંગ	-9043
▁ડિફે	-9044
▁તોફા	-9045
▁દીધુ	-9046
▁દૂતો	-9047
▁નંદા	-9048
▁નકાર	-9049
▁નાબૂ	-9050
▁પતિએ	-9051
▁પૂછો	-9052
▁પોટે	-9053
▁ફાળો	-9054
▁બંધન	-9055
▁બગડી	-9056
▁બધાએ	-9057
▁બનતી	-9058
▁બીજુ	-9059
▁ભણસા	-9060
▁મલિક	-9061
▁માગી	-9062
▁માપદ	-9063
▁મીરા	-9064
▁મૂકે	-9065
▁રિસ્	-9066
▁વધતો	-9067
▁વેરિ	-9068
▁શુક્	-9069
▁સોની	-9070
પચારિક	-9071
રાત્રી	-9072
ાવવાનો	-9073
▁અમેઠી	-9074
▁અરબાઝ	-9075
▁આગમાં	-9076
▁ઉતારી	-9077
▁કૃત્ય	-9078
▁કોન્ટ	-9079
▁ખર્ચે	-9080
▁ગંદકી	-9081
▁ચૂંટા	-9082
▁ઠાકુર	-9083
▁તુરંત	-9084
▁દરોડા	-9085
▁દિકરી	-9086
▁દીવાલ	-9087
▁દોસ્ત	-9088
▁નદીના	-9089
▁નાંખી	-9090
▁નાંખો	-9091
▁નિવાસ	-9092
▁પાકની	-9093
▁પાકને	-9094
▁પિયુષ	-9095
▁ફોનની	-9096
▁ફ્લિપ	-9097
▁બનવું	-9098
▁બુદ્ધ	-9099
▁યાદવે	-9100
▁રહેલો	-9101
▁લાવશે	-9102
▁વધ્યો	-9103
▁વિડિઓ	-9104
▁સમાવે	-9105
▁સુપ્ર	-9106
▁સુષમા	-9107
▁સૂત્ર	-9108
▁સ્થળા	-9109
▁સ્પેસ	-9110
▁સ્રોત	-9111
▁હોટેલ	-9112
પડ્રેગન	-9113
વનેશ્વર	-9114
▁આકર્ષક	-9115
▁આક્રમક	-9116
▁એફઆઈઆર	-9117
▁એલર્જી	-9118
▁કરવામા	-9119
▁ખુલ્લી	-9120
▁જાળવણી	-9121
▁જિલ્લો	-9122
▁જોગવાઇ	-9123
▁ટ્રોફી	-9124
▁ડ્રગ્સ	-9125
▁તાલુકા	-9126
▁તોડફોડ	-9127
▁દિવાલો	-9128
▁દેવાયા	-9129
▁ધમધમાટ	-9130
▁નાસ્તો	-9131
▁નિર્ભર	-9132
▁પંજાબી	-9133
▁પાણીને	-9134
▁પિતાને	-9135
▁મતદારો	-9136
▁મસ્જિદ	-9137
▁મહેમાન	-9138
▁માધ્યમ	-9139
▁માનનીય	-9140
▁મુંબઈઃ	-9141
▁રહીશું	-9142
▁વાનગીઓ	-9143
▁શોપિંગ	-9144
▁શ્રમિક	-9145
▁સવારથી	-9146
▁સુધીના	-9147
▁સુહાના	-9148
▁સોનાલી	-9149
▁સ્ક્રી	-9150
▁સ્ટારર	-9151
▁અટકાવવા	-9152
▁અર્થમાં	-9153
▁ઈસ્રાએલ	-9154
▁એજન્સીઓ	-9155
▁ગાળામાં	-9156
▁જાહ્નવી	-9157
▁નિયુક્ત	-9158
▁પ્રોપર્	-9159
▁બાઇબલનો	-9160
▁બાળકીને	-9161
▁બ્લાસ્ટ	-9162
▁માઈક્રો	-9163
▁રાજ્યનો	-9164
▁રૂપાણીએ	-9165
▁વરિયાળી	-9166
▁વાહનોની	-9167
▁વિભાગની	-9168
▁વિવાદિત	-9169
▁વિસ્ફોટ	-9170
▁સત્રમાં	-9171
▁સમારેલા	-9172
▁સાથેનું	-9173
▁કોન્સ્ટે	-9174
▁ટ્રમ્પના	-9175
▁દુનિયાને	-9176
▁નિમિત્તે	-9177
▁નિર્ણયથી	-9178
▁નિર્દેશક	-9179
▁નોંધાયું	-9180
▁નોકરીમાં	-9181
▁પર્યાપ્ત	-9182
▁પાસપોર્ટ	-9183
▁ભક્તિમાં	-9184
▁મુદ્દાને	-9185
▁વિકાસમાં	-9186
▁વિચારવું	-9187
▁વેરિયેબલ	-9188
▁શંકાસ્પદ	-9189
▁શાસ્ત્રી	-9190
▁સમાજવાદી	-9191
▁સરકારનું	-9192
▁અભ્યાસમાં	-9193
▁ઈન્ડિયાના	-9194
▁ઈશ્વરભક્ત	-9195
▁ખ્રિસ્તના	-9196
▁ગંભીરતાથી	-9197
▁તૈયારીમાં	-9198
▁દિગ્દર્શન	-9199
▁બેરોજગારી	-9200
▁મૂલ્યાંકન	-9201
▁લેબોરેટરી	-9202
▁સેન્સેક્સ	-9203
▁આશ્ચર્યજનક	-9204
▁દેશવાસીઓને	-9205
▁વિરુદ્ધમાં	-9206
▁સિક્યોરિટી	-9207
▁સ્પર્ધામાં	-9208
▁કર્મચારીઓને	-9209
▁દર્શાવવામાં	-9210
▁મુશ્કેલીમાં	-9211
▁સ્નેપડ્રેગન	-9212
▁હિન્દુસ્તાન	-9213
▁ઇજાગ્રસ્તોને	-9214
▁પરિસ્થિતિમાં	-9215
▁યુનિવર્સિટીમાં	-9216
IM	-9217
RS	-9218
ce	-9219
કૂ	-9220
રજ	-9221
▁ષ	-9222
her	-9223
અંગ	-9224
કતો	-9225
કું	-9226
કૃત	-9227
જરૂ	-9228
જીક	-9229
ઠાણ	-9230
ડાટ	-9231
ણનો	-9232
નાવ	-9233
મરજ	-9234
રેન	-9235
રોગ	-9236
વવો	-9237
વશો	-9238
વિમ	-9239
સલા	-9240
સાલ	-9241
હિટ	-9242
▁62	-9243
▁73	-9244
▁kg	-9245
▁ઑન	-9246
▁કટ	-9247
▁દં	-9248
▁પત	-9249
▁યે	-9250
▁૫૦	-9251
ઇન્ડ	-9252
કાયા	-9253
કેલી	-9254
ક્રે	-9255
ચાલક	-9256
ચ્ચા	-9257
ઝમાં	-9258
ટાલી	-9259
પસંદ	-9260
રફાન	-9261
રીયા	-9262
લાઇટ	-9263
લાસા	-9264
શાળા	-9265
ષ્ણુ	-9266
સાઈટ	-9267
ુઆરી	-9268
▁1-0	-9269
▁125	-9270
▁અરુ	-9271
▁આંત	-9272
▁ઇકો	-9273
▁ઉમર	-9274
▁ઋતુ	-9275
▁કટિ	-9276
▁કમલ	-9277
▁કળા	-9278
▁ખેલ	-9279
▁ગિર	-9280
▁ગુલ	-9281
▁ગોર	-9282
▁ચણા	-9283
▁ચેન	-9284
▁છતા	-9285
▁ટું	-9286
▁ડિવ	-9287
▁દાસ	-9288
▁નબળ	-9289
▁બગી	-9290
▁મોઢ	-9291
▁રત્	-9292
▁રાઇ	-9293
▁લાશ	-9294
▁વતી	-9295
▁વયે	-9296
▁સાન	-9297
▁સૌર	-9298
▁હેમ	-9299
ઉન્ડર	-9300
કાંઠા	-9301
ક્રેટ	-9302
લેન્સ	-9303
શાસિત	-9304
ાયેલો	-9305
ાર્પણ	-9306
િકાના	-9307
્રેસી	-9308
▁અરૂણ	-9309
▁અર્ધ	-9310
▁આપીશ	-9311
▁એકઠા	-9312
▁ઓપરે	-9313
▁ઓળખા	-9314
▁કચ્છ	-9315
▁કયું	-9316
▁કાંઇ	-9317
▁ગણિત	-9318
▁ચૂંટ	-9319
▁છબીઓ	-9320
▁છવાઈ	-9321
▁જંગલ	-9322
▁ટીએમ	-9323
▁ટ્રી	-9324
▁ડોકટ	-9325
▁ડ્યૂ	-9326
▁તરફે	-9327
▁દેવો	-9328
▁નબળા	-9329
▁નવાઝ	-9330
▁ફરવા	-9331
▁ફેમસ	-9332
▁ફોર્	-9333
▁બેઠો	-9334
▁બોટલ	-9335
▁ભાવે	-9336
▁મજાક	-9337
▁મૃતક	-9338
▁રમવા	-9339
▁લેવડ	-9340
▁વાદળ	-9341
▁વિવા	-9342
▁સફાઈ	-9343
▁સાંજ	-9344
▁સુખદ	-9345
▁સોજો	-9346
▁હિના	-9347
▁હિસા	-9348
▁હોંગ	-9349
▁હોદ્	-9350
ક્રિપ્	-9351
ક્ષમતા	-9352
ટુંબિક	-9353
લ્યુશન	-9354
ાળામાં	-9355
્રિજરે	-9356
▁અપક્ષ	-9357
▁અવરોધ	-9358
▁અવસરે	-9359
▁આજીવન	-9360
▁આપ્યુ	-9361
▁આર્મે	-9362
▁ઉદ્યો	-9363
▁ઉશ્કે	-9364
▁એરટેલ	-9365
▁ઓડિશા	-9366
▁કયારે	-9367
▁કહેશે	-9368
▁કાજોલ	-9369
▁કામની	-9370
▁ક્રાઈ	-9371
▁ગયેલી	-9372
▁જન્મે	-9373
▁તબીબો	-9374
▁નિયમન	-9375
▁ફાઇબર	-9376
▁ફાઇલો	-9377
▁ફોર્સ	-9378
▁બીજાં	-9379
▁મિલકત	-9380
▁મેચની	-9381
▁રાકેશ	-9382
▁રાષ્ટ	-9383
▁રોકડા	-9384
▁લક્ષણ	-9385
▁વિશ્ર	-9386
▁શકતું	-9387
▁શોર્ટ	-9388
▁સદીના	-9389
▁સુનિલ	-9390
▁સોસાય	-9391
▁સ્કેલ	-9392
▁હવાલે	-9393
▁હસ્તે	-9394
ચાણવાળા	-9395
ામંત્રી	-9396
▁10,000	-9397
▁અખિલેશ	-9398
▁અનન્યા	-9399
▁અપાયું	-9400
▁આપવાના	-9401
▁ઈલેક્ટ	-9402
▁ઓપનિંગ	-9403
▁કમોસમી	-9404
▁ગેરહાજ	-9405
▁ચર્ચાઓ	-9406
▁જીડીપી	-9407
▁જોઈશું	-9408
▁ડીઝલની	-9409
▁દરિયાઈ	-9410
▁દર્શકો	-9411
▁દર્શાવ	-9412
▁દીકરીઓ	-9413
▁નિરાશા	-9414
▁પક્ષોએ	-9415
▁પટેલના	-9416
▁પડ્યાં	-9417
▁પરસ્પર	-9418
▁પરિશ્ર	-9419
▁પૈસાની	-9420
▁પ્રકરણ	-9421
▁પ્રવાહ	-9422
▁બાબતની	-9423
▁બ્રાઉન	-9424
▁માળખું	-9425
▁મૂકીને	-9426
▁મેગ્ને	-9427
▁મેનેજર	-9428
▁યશાયાહ	-9429
▁યૂઝર્સ	-9430
▁રહેતાં	-9431
▁લાગેલા	-9432
▁વિશ્વક	-9433
▁વ્યકિત	-9434
▁સિંહને	-9435
▁સોનાની	-9436
▁સોમનાથ	-9437
▁હવામાં	-9438
▁હાલાકી	-9439
્યમંત્રી	-9440
▁આજુબાજુ	-9441
▁ઈશ્વરનો	-9442
▁ઉઠાવ્યા	-9443
▁ઉઠાવ્યો	-9444
▁ઉત્પાદક	-9445
▁ઉમેરીને	-9446
▁કરોડમાં	-9447
▁ખરીદ્યો	-9448
▁ગણાવ્યા	-9449
▁ગર્ભવતી	-9450
▁ગોવામાં	-9451
▁ઘટાડીને	-9452
▁જણાવ્યુ	-9453
▁જ્યોર્જ	-9454
▁ટીસ્પૂન	-9455
▁દ્રશ્યો	-9456
▁ધરાવતું	-9457
▁ફિલ્મ્સ	-9458
▁ફેસ્ટિવ	-9459
▁બંગાળની	-9460
▁બતાવ્યો	-9461
▁ભાષાંતર	-9462
▁મધ્યમાં	-9463
▁મિત્રતા	-9464
▁મૃતદેહો	-9465
▁મેચોમાં	-9466
▁મોકલ્યો	-9467
▁રેસ્ટોર	-9468
▁લાકડાની	-9469
▁લીંબુનો	-9470
▁વર્ગમાં	-9471
▁શરૂઆતથી	-9472
▁શિષ્યોએ	-9473
▁સમિતિની	-9474
▁સૂત્રોએ	-9475
▁સ્ટ્રાઈ	-9476
▁સ્વરૂપે	-9477
▁હત્યારા	-9478
▁હરાવીને	-9479
▁ઈબ્રાહીમ	-9480
▁ઉત્સાહિત	-9481
▁કૌટુંબિક	-9482
▁ટ્રમ્પની	-9483
▁ડાયરેક્ટ	-9484
▁તમારામાં	-9485
▁તુલનામાં	-9486
▁નિર્ણયની	-9487
▁પકાવવાની	-9488
▁પરિસ્થિત	-9489
▁યુદ્ધમાં	-9490
▁રાજ્યોની	-9491
▁રૂપિયાનો	-9492
▁વિદેશમાં	-9493
▁વિશ્લેષણ	-9494
▁વૈકલ્પિક	-9495
▁સોફ્ટવેર	-9496
▁અનિચ્છનીય	-9497
▁ચોક્કસપણે	-9498
▁જિલ્લાનું	-9499
▁પથ્થરમારો	-9500
▁ભૂતકાળમાં	-9501
▁આત્મનિર્ભર	-9502
▁એન્કાઉન્ટર	-9503
▁ક્રિકેટમાં	-9504
▁પરમેશ્વરને	-9505
▁પૂર્વોત્તર	-9506
▁પ્રભાવશાળી	-9507
▁પ્રોડ્યુસર	-9508
▁માર્કેટિંગ	-9509
▁રાજનાથસિંહ	-9510
▁સુરક્ષાદળો	-9511
▁કનેક્ટિવિટી	-9512
▁કાર્યકર્તાઓ	-9513
▁કાળજીપૂર્વક	-9514
▁ગર્લફ્રેન્ડ	-9515
▁ટુર્નામેન્ટ	-9516
▁પ્રોજેક્ટ્સ	-9517
▁મુશ્કેલીઓનો	-9518
▁હાઇકોર્ટમાં	-9519
▁હૉસ્પિટલમાં	-9520
▁પૃષ્ઠભૂમિમાં	-9521
▁મુખ્યમંત્રીએ	-9522
,9	-9523
,’	-9524
AP	-9525
FC	-9526
ig	-9527
ગિ	-9528
દળ	-9529
સૌ	-9530
▁y	-9531
CCI	-9532
ist	-9533
ઇંગ	-9534
ઇને	-9535
ગેઝ	-9536
જુક	-9537
ઝરી	-9538
દીએ	-9539
ધનો	-9540
ન્મ	-9541
પાઠ	-9542
બાલ	-9543
બેર	-9544
મંદ	-9545
લોજ	-9546
ળીઓ	-9547
વનિ	-9548
વાત	-9549
સરો	-9550
સાથ	-9551
્યવ	-9552
▁38	-9553
▁47	-9554
▁81	-9555
▁આણ	-9556
▁ઢી	-9557
કરને	-9558
જન્ય	-9559
ધાનો	-9560
પયોગ	-9561
ભાજપ	-9562
ભારે	-9563
મ્પો	-9564
લોના	-9565
વ્યુ	-9566
્યુન	-9567
▁130	-9568
▁2.5	-9569
▁અવે	-9570
▁ઈશા	-9571
▁એલે	-9572
▁ઓથો	-9573
▁કમર	-9574
▁કાચ	-9575
▁ઘાટ	-9576
▁ડીલ	-9577
▁તૂટ	-9578
▁થકી	-9579
▁થવો	-9580
▁દેહ	-9581
▁પાઇ	-9582
▁પાટ	-9583
▁ફતે	-9584
▁બાજ	-9585
▁ભંડ	-9586
▁ભેળ	-9587
▁મજૂ	-9588
▁મણિ	-9589
▁મિસ	-9590
▁રૃા	-9591
▁લૂક	-9592
▁વટા	-9593
▁હરિ	-9594
ંદ્રા	-9595
ગ્રહણ	-9596
તાનું	-9597
નુમાન	-9598
પોન્સ	-9599
બોક્સ	-9600
ર્થ્ય	-9601
લિમ્પ	-9602
શાંતિ	-9603
સ્તું	-9604
િંગની	-9605
્યુટી	-9606
▁આબોહ	-9607
▁ઈલાજ	-9608
▁એક્ઝ	-9609
▁કમાલ	-9610
▁કલાક	-9611
▁કોમન	-9612
▁ચોરસ	-9613
▁જતું	-9614
▁જરુર	-9615
▁જીવે	-9616
▁જ્યુ	-9617
▁ઝઘડો	-9618
▁ટાઇમ	-9619
▁તલાક	-9620
▁તાતા	-9621
▁તૃણમ	-9622
▁દલિત	-9623
▁દેઓલ	-9624
▁નૌકા	-9625
▁પગને	-9626
▁પડયો	-9627
▁પીછો	-9628
▁પીવો	-9629
▁પેનલ	-9630
▁પેલા	-9631
▁પોષક	-9632
▁પ્રચ	-9633
▁પ્લસ	-9634
▁ફાટી	-9635
▁બાર્	-9636
▁બેંચ	-9637
▁બોડી	-9638
▁ભયાન	-9639
▁મિર્	-9640
▁મુફ્	-9641
▁રહયા	-9642
▁રાતે	-9643
▁વલસા	-9644
▁વાંક	-9645
▁વાઘા	-9646
▁વોટર	-9647
▁શખસો	-9648
▁સંધિ	-9649
▁સંયમ	-9650
▁સર્ક	-9651
▁સાંત	-9652
▁સિંચ	-9653
▁હાહા	-9654
▁હીરા	-9655
જ્યારે	-9656
ડીઝલના	-9657
પ્રકાશ	-9658
મૂર્તિ	-9659
▁2019:	-9660
▁અવતાર	-9661
▁આક્રો	-9662
▁આપતાં	-9663
▁આશ્રય	-9664
▁ઉતાવળ	-9665
▁કહ્યા	-9666
▁કેદાર	-9667
▁ક્લાસ	-9668
▁ગરીબી	-9669
▁છાત્ર	-9670
▁જરૂરત	-9671
▁જવાના	-9672
▁જીરાફ	-9673
▁જીરું	-9674
▁ટ્રાય	-9675
▁ડિલિવ	-9676
▁ડેન્ગ	-9677
▁દંપતિ	-9678
▁દયાળુ	-9679
▁દાઊદે	-9680
▁દાયકા	-9681
▁નાજુક	-9682
▁નીતિશ	-9683
▁પતિની	-9684
▁પેડને	-9685
▁બળતરા	-9686
▁બેંકો	-9687
▁ભર્યા	-9688
▁મદદની	-9689
▁મસ્તી	-9690
▁મુરલી	-9691
▁રાજાઓ	-9692
▁લઘુતમ	-9693
▁લેખિત	-9694
▁લેન્ડ	-9695
▁લેવાઈ	-9696
▁વસવાટ	-9697
▁વારસો	-9698
▁શમૂએલ	-9699
▁સર્વિ	-9700
▁સશક્ત	-9701
▁સુભાષ	-9702
▁સૂચવે	-9703
કાંક્ષા	-9704
જાસત્તા	-9705
મરજન્સી	-9706
▁અંતમાં	-9707
▁અગાઉથી	-9708
▁અપૂર્ણ	-9709
▁અલ્પેશ	-9710
▁અહીંના	-9711
▁આંકડાઓ	-9712
▁આપનારા	-9713
▁આરએસએસ	-9714
▁એસએમએસ	-9715
▁કાઢ્યા	-9716
▁ગતિમાન	-9717
▁ગોવિંદ	-9718
▁જગ્યાઓ	-9719
▁જણાવવા	-9720
▁જેડીએસ	-9721
▁ડોલરની	-9722
▁તાલુકો	-9723
▁દુશ્મન	-9724
▁દેખાતી	-9725
▁ધરાવતો	-9726
▁નાગાલે	-9727
▁પકડીને	-9728
▁પાઠવું	-9729
▁પાડ્યા	-9730
▁પિતાના	-9731
▁પ્રવર્	-9732
▁ફૂટબોલ	-9733
▁ભાગ્યે	-9734
▁ભારેથી	-9735
▁મૂક્યા	-9736
▁રૂપરેખ	-9737
▁લગ્નના	-9738
▁લશ્કરી	-9739
▁વધવાની	-9740
▁વર્ષીય	-9741
▁વાડ્રા	-9742
▁વેડિંગ	-9743
▁વ્હાઇટ	-9744
▁સંસદના	-9745
▁સ્થગિત	-9746
અંગ્રેજી	-9747
▁અહેવાલો	-9748
▁આરાધ્યા	-9749
▁ઉતાર્યા	-9750
▁કરાવ્યો	-9751
▁કલેક્શન	-9752
▁કહેવાનો	-9753
▁કોર્ટની	-9754
▁ચૂંટણીઓ	-9755
▁જવાનોને	-9756
▁જાણવાની	-9757
▁દિવસેને	-9758
▁ધિક્કાર	-9759
▁પ્રવાહી	-9760
▁પ્રસન્ન	-9761
▁બનાવીને	-9762
▁બેંકિંગ	-9763
▁ભાગીદાર	-9764
▁ભાજપનાં	-9765
▁મહિનાથી	-9766
▁રોમાંચક	-9767
▁વધારાના	-9768
▁વાયરસની	-9769
▁વાહનોને	-9770
▁વિકાસના	-9771
▁વિટામીન	-9772
▁વોટ્સએપ	-9773
▁શેરોમાં	-9774
▁સીબીઆઈએ	-9775
▁હુમલાને	-9776
▁અગત્યનું	-9777
▁કોન્ટ્રા	-9778
▁ગ્રાઉન્ડ	-9779
▁ટ્રેનમાં	-9780
▁પરિષદમાં	-9781
▁પાત્રમાં	-9782
▁પોપ્યુલર	-9783
▁પ્રેમમાં	-9784
▁પ્રોફેશન	-9785
▁પ્લાનમાં	-9786
▁ફ્લાઇટ્સ	-9787
▁બેંગલુરુ	-9788
▁મારામારી	-9789
▁મુસ્લિમો	-9790
▁યોજાયેલી	-9791
▁રોકાણકાર	-9792
▁વિભાગમાં	-9793
▁સમીક્ષાઓ	-9794
કાશ્મીરમાં	-9795
▁ઘટાડવામાં	-9796
▁નિષ્ક્રિય	-9797
▁પ્રિયંકાએ	-9798
▁પ્રોપર્ટી	-9799
▁ફ્લિપકાર્	-9800
▁મહત્ત્વના	-9801
▁રેફ્રિજરે	-9802
▁સપ્ટેમ્બર	-9803
▁હોસ્પિટલે	-9804
▁ગેરકાયદેસર	-9805
▁પ્રજાસત્તા	-9806
▁રાજ્યસભાના	-9807
▁શ્રીલંકાના	-9808
▁સેલિબ્રિટી	-9809
▁હેલિકોપ્ટર	-9810
▁કુમારસ્વામી	-9811
▁પ્રદર્શનમાં	-9812
▁રાજ્યમંત્રી	-9813
▁પ્રધાનમંત્રીનું	-9814
AI	-9815
ow	-9816
ve	-9817
લૉ	-9818
ાબ	-9819
િફ	-9820
ંબા	-9821
અરે	-9822
કોણ	-9823
ગંજ	-9824
ગોળ	-9825
દીઠ	-9826
ધને	-9827
ન્વ	-9828
પાઈ	-9829
રનો	-9830
રીન	-9831
લેજ	-9832
શની	-9833
સર્	-9834
સેવ	-9835
ાઈટ	-9836
િકે	-9837
ુની	-9838
▁'%	-9839
▁39	-9840
▁74	-9841
▁ઘ્	-9842
▁તટ	-9843
▁તથ	-9844
▁ન્	-9845
▁પચ	-9846
▁૨૬	-9847
▁૬૦	-9848
ઈન્ડ	-9849
કિયા	-9850
ગમાં	-9851
દાની	-9852
નેતા	-9853
ન્ટલ	-9854
પાણી	-9855
બિયા	-9856
બૂબા	-9857
માથી	-9858
મુંબ	-9859
રન્સ	-9860
રુત્	-9861
ર્ડે	-9862
ર્મલ	-9863
વસાય	-9864
શૈલી	-9865
સંગત	-9866
સાણા	-9867
ેલું	-9868
્રાસ	-9869
▁kgm	-9870
▁અધૂ	-9871
▁અબુ	-9872
▁અશુ	-9873
▁આડઅ	-9874
▁ઈવે	-9875
▁ઉકળ	-9876
▁ઓબા	-9877
▁ઓરિ	-9878
▁ખળભ	-9879
▁ગોળ	-9880
▁ઘડી	-9881
▁ચકા	-9882
▁છેડ	-9883
▁જાં	-9884
▁ઝલક	-9885
▁તનુ	-9886
▁થશો	-9887
▁ધ્વ	-9888
▁નેહ	-9889
▁પંક	-9890
▁પશ્	-9891
▁પૂજ	-9892
▁ફરો	-9893
▁બગા	-9894
▁બર્	-9895
▁બોબ	-9896
▁ભગત	-9897
▁માવ	-9898
▁માસ	-9899
▁લાડ	-9900
▁વ્ર	-9901
▁શરણ	-9902
▁શેખ	-9903
▁ષડય	-9904
▁સીઝ	-9905
▁સુગ	-9906
ંદર્ય	-9907
ગણતરી	-9908
જરૂરી	-9909
તોમાં	-9910
ધિકાર	-9911
પુરથી	-9912
લાઈથી	-9913
વવાના	-9914
વિધ્ય	-9915
સ્ટોલ	-9916
્યુલર	-9917
▁અજોડ	-9918
▁અધિન	-9919
▁ઉડતી	-9920
▁એકમો	-9921
▁એટેક	-9922
▁એમએસ	-9923
▁એમનો	-9924
▁એલાન	-9925
▁એવાં	-9926
▁કબીર	-9927
▁કૃતિ	-9928
▁ક્લિ	-9929
▁ગુરૂ	-9930
▁જેડી	-9931
▁ઠરાવ	-9932
▁તાજા	-9933
▁દલીલ	-9934
▁ધારણ	-9935
▁ધિરા	-9936
▁નકલી	-9937
▁નફરત	-9938
▁નહતી	-9939
▁નામં	-9940
▁પડવા	-9941
▁પીળો	-9942
▁પૂણે	-9943
▁પ્લો	-9944
▁બસપા	-9945
▁ભાઈએ	-9946
▁માખણ	-9947
▁મિલી	-9948
▁યથાવ	-9949
▁યુસફ	-9950
▁રમશે	-9951
▁રાજદ	-9952
▁લિયો	-9953
▁લેશો	-9954
▁વિકી	-9955
▁શિશુ	-9956
▁શ્રમ	-9957
▁સંપા	-9958
▁સફાઇ	-9959
▁સમજે	-9960
▁સાબુ	-9961
▁સોદો	-9962
▁હાથી	-9963
▁હિંદ	-9964
ન્સમાં	-9965
પોતાની	-9966
પ્રતિક	-9967
ર્મેશન	-9968
ષ્ટિકો	-9969
▁અદભૂત	-9970
▁અપાશે	-9971
▁આવેલો	-9972
▁ઇસ્લા	-9973
▁ઉછાળો	-9974
▁ઉન્ના	-9975
▁ખુરશી	-9976
▁ગોપાલ	-9977
▁ચાંદી	-9978
▁છઠ્ઠા	-9979
▁જરૃરી	-9980
▁જાવેદ	-9981
▁ટુવાલ	-9982
▁ટેકરી	-9983
▁ડિસ્ટ	-9984
▁તોફાન	-9985
▁નબળાઈ	-9986
▁નિતિન	-9987
▁પામશે	-9988
▁બપોરે	-9989
▁ભયાનક	-9990
▁મહેતા	-9991
▁મૂકવા	-9992
▁મોટાં	-9993
▁યશાયા	-9994
▁યુપીએ	-9995
▁યોજાન	-9996
▁રંગના	-9997
▁લેવાય	-9998
▁લૉન્ચ	-9999
▁વાપસી	-10000
▁સંકલન	-10001
▁સમયનો	-10002
▁સિંહા	-10003
▁સોનું	-10004
▁સ્ટુડ	-10005
▁સ્મરણ	-10006
▁હેલ્પ	-10007
રેન્દ્ર	-10008
▁અગાઉની	-10009
▁અવગણના	-10010
▁આઇસીસી	-10011
▁ઈન્ડિઝ	-10012
▁ઉપાસના	-10013
▁કિનારે	-10014
▁ગુન્હો	-10015
▁ગેટ્ટી	-10016
▁ગોલ્ડન	-10017
▁ઘરોમાં	-10018
▁ચુક્યો	-10019
▁ટ્રાન્	-10020
▁તેણીને	-10021
▁દિવ્યા	-10022
▁દૃષ્ટા	-10023
▁દોસ્તી	-10024
▁ધર્મના	-10025
▁પુરવાર	-10026
▁પૂછયું	-10027
▁પેનમાં	-10028
▁બંગાળી	-10029
▁બીજાની	-10030
▁બુમરાહ	-10031
▁બેનરજી	-10032
▁બોલ્યો	-10033
▁માતાની	-10034
▁મારુતિ	-10035
▁મિર્ઝા	-10036
▁મુફ્તી	-10037
▁રમતગમત	-10038
▁રિક્ષા	-10039
▁લેપટોપ	-10040
▁વિપરીત	-10041
▁સપ્લાય	-10042
▁સહિતની	-10043
▁સાબિતી	-10044
▁સુધીનો	-10045
▁સ્પિનર	-10046
▁સ્પીકર	-10047
ષ્ટ્રપતિ	-10048
▁ઉદ્યોગો	-10049
▁કાબુમાં	-10050
▁કીબોર્ડ	-10051
▁કુમારને	-10052
▁કોરીંથી	-10053
▁કોહલીને	-10054
▁ખસેડાયો	-10055
▁ગ્રામ્ય	-10056
▁જાપાનના	-10057
▁તરીકેની	-10058
▁ધંધામાં	-10059
▁નિવેદનો	-10060
▁પત્રમાં	-10061
▁પરિવારો	-10062
▁પસ્તાવો	-10063
▁પ્રમોશન	-10064
▁બ્રિગેડ	-10065
▁ભરવામાં	-10066
▁મતગણતરી	-10067
▁મેળવ્યા	-10068
▁વિસ્તરણ	-10069
▁વોડાફોન	-10070
▁વ્યાયામ	-10071
▁શર્માને	-10072
▁સાબરમતી	-10073
▁સુપરહિટ	-10074
▁સુલેમાન	-10075
▁સૌંદર્ય	-10076
▁સ્ટેશનો	-10077
▁સ્થિરતા	-10078
▁આતંકીઓને	-10079
▁ઉદ્દેશ્ય	-10080
▁કરાવ્યું	-10081
▁કેમેરાની	-10082
▁ઘટનાસ્થળ	-10083
▁ડિપ્રેશન	-10084
▁ડ્રેસમાં	-10085
▁તાજેતરના	-10086
▁ત્યારપછી	-10087
▁નિયમોનું	-10088
▁નિવૃત્તિ	-10089
▁પહોંચાડી	-10090
▁પોટેશિયમ	-10091
▁પ્રદેશની	-10092
▁મોટરસાયક	-10093
▁રૂપિયાથી	-10094
▁લિસ્ટમાં	-10095
▁વિવાદમાં	-10096
▁શેટ્ટીની	-10097
▁સહેલાઈથી	-10098
▁સામર્થ્ય	-10099
▁ઈતિહાસમાં	-10100
▁ઈસ્રાએલીઓ	-10101
▁એન્ડ્રોઈડ	-10102
▁કિલોગ્રામ	-10103
▁પરિવારોને	-10104
▁પરિસ્થિતી	-10105
▁ફેબ્રુઆરી	-10106
▁બ્રિગેડની	-10107
▁હરિયાણાના	-10108
▁અધિકારીઓની	-10109
▁આફ્રિકામાં	-10110
▁કોરોનાવાયર	-10111
▁બોલાવવામાં	-10112
▁મનમોહનસિંહ	-10113
▁વિશ્વયુદ્ધ	-10114
▁સીઆરપીએફના	-10115
▁હોસ્પિટલના	-10116
▁અઠવાડિયામાં	-10117
▁નિયંત્રણમાં	-10118
▁પ્રેરિતોનાં	-10119
▁વિદેશમંત્રી	-10120
▁સ્ટેડિયમમાં	-10121
▁ઉપરાષ્ટ્રપતિ	-10122
▁કાર્યક્રમનું	-10123
▁મહારાષ્ટ્રની	-10124
-4	-10125
MC	-10126
ht	-10127
ro	-10128
se	-10129
ંય	-10130
ચમ	-10131
ડૂ	-10132
પત	-10133
ભી	-10134
ુર	-10135
▁ે	-10136
▁૦	-10137
ંશી	-10138
આઈએ	-10139
ઓમી	-10140
કમા	-10141
ક્વ	-10142
ણથી	-10143
તિત	-10144
પાં	-10145
ફના	-10146
ફુલ	-10147
બરો	-10148
બેડ	-10149
રાય	-10150
લોટ	-10151
લ્ક	-10152
વાડ	-10153
શુઆ	-10154
શૂટ	-10155
સભર	-10156
હવે	-10157
હીન	-10158
િજન	-10159
િનો	-10160
ુરુ	-10161
▁72	-10162
▁HD	-10163
▁ઇમ	-10164
▁ઈશ	-10165
▁ઠો	-10166
▁પ્	-10167
▁રથ	-10168
▁લહ	-10169
▁સૃ	-10170
▁સૉ	-10171
...?	-10172
કડું	-10173
કાને	-10174
ચારો	-10175
જનિક	-10176
ડન્ટ	-10177
ન્દર	-10178
રીતે	-10179
લાવી	-10180
લીંગ	-10181
સનું	-10182
િંદા	-10183
્યૂબ	-10184
▁197	-10185
▁350	-10186
▁800	-10187
▁એસે	-10188
▁ઓફી	-10189
▁કપલ	-10190
▁કાટ	-10191
▁કોષ	-10192
▁ગુર	-10193
▁ચીઝ	-10194
▁ચૂપ	-10195
▁ડોક	-10196
▁તિર	-10197
▁પરો	-10198
▁પેજ	-10199
▁ફટા	-10200
▁બંદ	-10201
▁બેટ	-10202
▁બોધ	-10203
▁મક્	-10204
▁મતો	-10205
▁મસૂ	-10206
▁મોજ	-10207
▁યૂઝ	-10208
▁રઘુ	-10209
▁રતન	-10210
▁રૂટ	-10211
▁વહન	-10212
▁સીલ	-10213
▁હસન	-10214
▁હસી	-10215
▁હ્ર	-10216
arend	-10217
ચ્ચાર	-10218
ચ્છેદ	-10219
જિપ્ત	-10220
ડ્યું	-10221
ત્રીય	-10222
મામાં	-10223
રોનું	-10224
લાઇકા	-10225
લિવૂડ	-10226
વાર્ય	-10227
વિધાન	-10228
ષ્ટિક	-10229
િકારક	-10230
િયાની	-10231
ેશનની	-10232
▁modi	-10233
▁અડધા	-10234
▁અવલો	-10235
▁આંસુ	-10236
▁આજની	-10237
▁એકલો	-10238
▁એનાં	-10239
▁કચરા	-10240
▁કાચા	-10241
▁કેદી	-10242
▁ચંદી	-10243
▁ચાંપ	-10244
▁ચોથો	-10245
▁છત્ર	-10246
▁જમણા	-10247
▁જૂઠા	-10248
▁ઝેરી	-10249
▁ટેન્	-10250
▁ઠંડુ	-10251
▁ડિનર	-10252
▁થનાર	-10253
▁દળના	-10254
▁દેવગ	-10255
▁નાઇટ	-10256
▁નિકળ	-10257
▁નોટો	-10258
▁પગની	-10259
▁પાપી	-10260
▁પિંક	-10261
▁પીળી	-10262
▁પીવી	-10263
▁પેરા	-10264
▁ફૂટે	-10265
▁બાઈક	-10266
▁બાપુ	-10267
▁મુખર	-10268
▁મેડી	-10269
▁રનવે	-10270
▁રસોઈ	-10271
▁રાતો	-10272
▁રિંગ	-10273
▁લગતા	-10274
▁લેતી	-10275
▁વડીલ	-10276
▁વયના	-10277
▁વરૂણ	-10278
▁વાગે	-10279
▁વિનો	-10280
▁શ્યા	-10281
▁સંડો	-10282
▁સંભવ	-10283
▁સગાં	-10284
▁સબંધ	-10285
▁સર્ટ	-10286
▁સહેજ	-10287
▁સાઇટ	-10288
▁સિલિ	-10289
▁સ્કે	-10290
▁સ્કો	-10291
▁સ્તુ	-10292
▁હોટે	-10293
ન્દ્રે	-10294
યહોવાહ	-10295
▁અજ્ઞા	-10296
▁અનુપમ	-10297
▁અબ્રા	-10298
▁આવેદન	-10299
▁ઇન્ફો	-10300
▁ઈનકાર	-10301
▁એસોસિ	-10302
▁ઓર્ગે	-10303
▁કંઈપણ	-10304
▁ક્રૂર	-10305
▁ગમતું	-10306
▁ઘટીને	-10307
▁છઠ્ઠી	-10308
▁જયંતિ	-10309
▁જર્મન	-10310
▁જવાહર	-10311
▁જાતની	-10312
▁જેનું	-10313
▁જોઇને	-10314
▁જોખમી	-10315
▁ટકાની	-10316
▁ટાઇગર	-10317
▁ટોચની	-10318
▁થોડીક	-10319
▁દેવને	-10320
▁નીતિઓ	-10321
▁નોર્થ	-10322
▁પડતાં	-10323
▁પતિને	-10324
▁પહેરે	-10325
▁પ્રણા	-10326
▁પ્રાણ	-10327
▁પ્લેન	-10328
▁ફ્રંટ	-10329
▁બગીચા	-10330
▁બજારો	-10331
▁બદલવા	-10332
▁બનેલો	-10333
▁બેડમિ	-10334
▁બેન્ડ	-10335
▁બોલતા	-10336
▁બોલ્ડ	-10337
▁ભયંકર	-10338
▁ભાગ્ય	-10339
▁ભાષાઓ	-10340
▁મળેલા	-10341
▁મળ્યુ	-10342
▁મૂળના	-10343
▁મ્યાન	-10344
▁રિતેશ	-10345
▁લખીને	-10346
▁લહાવો	-10347
▁લાશને	-10348
▁વર્તા	-10349
▁વલસાડ	-10350
▁શરુઆત	-10351
▁શિષ્ય	-10352
▁સર્જી	-10353
▁હિબ્ર	-10354
arendra	-10355
પ્રધાને	-10356
ર્લેન્ડ	-10357
શિવસેના	-10358
▁અધ્યાય	-10359
▁અબ્બાસ	-10360
▁અહેસાસ	-10361
▁ઉત્સુક	-10362
▁ઉદઘાટન	-10363
▁કરેલું	-10364
▁કારણકે	-10365
▁ખર્ચાળ	-10366
▁ખુશખબર	-10367
▁ગ્રોવર	-10368
▁ગ્લેમર	-10369
▁ઘ્વારા	-10370
▁ચાલતું	-10371
▁જૂનાગઢ	-10372
▁ડ્યુઅલ	-10373
▁તેઓમાં	-10374
▁દારૂની	-10375
▁દ્રશ્ય	-10376
▁ધોનીની	-10377
▁નમ્રતા	-10378
▁નવસારી	-10379
▁પગલાંઓ	-10380
▁પર્સનલ	-10381
▁પહેરવા	-10382
▁પીવાના	-10383
▁પુનર્ન	-10384
▁પ્રચંડ	-10385
▁પ્રોટો	-10386
▁ફીચર્સ	-10387
▁બનાવના	-10388
▁બાજુના	-10389
▁બેઠેલી	-10390
▁મંજુરી	-10391
▁મલાઇકા	-10392
▁માઉન્ટ	-10393
▁માતાનો	-10394
▁મારીને	-10395
▁મૈત્રી	-10396
▁મોટર્સ	-10397
▁યથાવત્	-10398
▁યાદવને	-10399
▁રહેલાં	-10400
▁રિસેપ્	-10401
▁રેસીપી	-10402
▁રોબર્ટ	-10403
▁લોકાર્	-10404
▁વહેંચી	-10405
▁વિકેટે	-10406
▁વિશેની	-10407
▁વૉકિંગ	-10408
▁શુટિંગ	-10409
▁સંપન્ન	-10410
કોંગ્રેસ	-10411
▁ઉત્સાહી	-10412
▁ઉપરોક્ત	-10413
▁કરાયેલી	-10414
▁કલેક્ટર	-10415
▁ચેન્નાઈ	-10416
▁ચોંકાવન	-10417
▁છુટકારો	-10418
▁ડિફેન્સ	-10419
▁તેવામાં	-10420
▁દવાખાને	-10421
▁દૃષ્ટિએ	-10422
▁નીકળ્યો	-10423
▁નેતાઓને	-10424
▁પરફોર્મ	-10425
▁પાણીનું	-10426
▁પેડનેકર	-10427
▁પ્રબોધક	-10428
▁પ્રશાંત	-10429
▁બંનેમાં	-10430
▁બાબતોને	-10431
▁બેલેન્સ	-10432
▁ભક્તોને	-10433
▁મંત્રીઓ	-10434
▁માળખાગત	-10435
▁મોકલ્યા	-10436
▁યોજનાનો	-10437
▁વાયરસને	-10438
▁વિચારવા	-10439
▁વિષયમાં	-10440
▁વેબસાઈટ	-10441
▁વૈવિધ્ય	-10442
▁શેતાનની	-10443
▁સત્યમાં	-10444
▁સભ્યોની	-10445
▁સલમાનની	-10446
▁હટાવ્યા	-10447
▁હત્યાના	-10448
▁હાહાકાર	-10449
▁અનિવાર્ય	-10450
▁અનુચ્છેદ	-10451
▁આરામદાયક	-10452
▁ઉજવવામાં	-10453
▁એનડીઆરએફ	-10454
▁કંપનીમાં	-10455
▁કોલકત્તા	-10456
▁કોલેજમાં	-10457
▁ચિદમ્બરમ	-10458
▁જાહેરમાં	-10459
▁ડેસ્કટોપ	-10460
▁દર્શાવવા	-10461
▁નાખવામાં	-10462
▁નિરીક્ષણ	-10463
▁પાર્ટીને	-10464
▁પ્રીમિયમ	-10465
▁પ્રોફેસર	-10466
▁બેંગ્લોર	-10467
▁મિત્રોને	-10468
▁લોકતંત્ર	-10469
▁વર્ગીકરણ	-10470
▁વર્લ્ડકપ	-10471
▁વ્યાપારી	-10472
▁સેટિંગ્સ	-10473
▁સ્વીકારે	-10474
▁હાજરીમાં	-10475
▁અકસ્માતના	-10476
▁આઈપીએલમાં	-10477
▁ઇન્ટરવ્યૂ	-10478
▁કેન્દ્રની	-10479
▁કોંગ્રેસી	-10480
▁નાગાલેન્ડ	-10481
▁પરમેશ્વરે	-10482
▁પ્રોડ્યુસ	-10483
▁બોલીવુડની	-10484
▁મોટરસાયકલ	-10485
▁રિસ્પોન્સ	-10486
▁વિદ્યાર્થ	-10487
▁વોશિંગ્ટન	-10488
▁સંમેલનમાં	-10489
▁સાર્વજનિક	-10490
▁હસ્તક્ષેપ	-10491
▁અક્ષયકુમાર	-10492
▁આદિત્યનાથે	-10493
▁કોન્સ્ટેબલ	-10494
▁પાર્કિંગની	-10495
▁પ્રમોશનમાં	-10496
▁મેગ્નેશિયમ	-10497
▁પાકિસ્તાનનો	-10498
▁પ્રક્રિયાને	-10499
▁પ્રેસિડેન્ટ	-10500
▁રક્ષામંત્રી	-10501
▁એન્જિનિયરિંગ	-10502
▁પ્રાર્થનામાં	-10503
▁યુનિવર્સિટીના	-10504
16	-10505
?”	-10506
DR	-10507
IC	-10508
ge	-10509
આન	-10510
ઈઓ	-10511
ઝલ	-10512
નસ	-10513
પિ	-10514
બત	-10515
લય	-10516
વટ	-10517
િબ	-10518
્ઝ	-10519
આંક	-10520
ઓયુ	-10521
કીટ	-10522
કેફ	-10523
કોઈ	-10524
ગ્સ	-10525
દાં	-10526
ધરા	-10527
ફિટ	-10528
બને	-10529
મામ	-10530
રીય	-10531
વૉક	-10532
શાલ	-10533
સું	-10534
સેફ	-10535
ામો	-10536
ામ્	-10537
િટે	-10538
ૂંફ	-10539
્યમ	-10540
▁78	-10541
▁79	-10542
▁99	-10543
▁IN	-10544
▁ઇસ	-10545
▁ઉક	-10546
▁ઓઇ	-10547
▁ઘસ	-10548
▁ચપ	-10549
▁દશ	-10550
અર્સ	-10551
ઇલેટ	-10552
કર્ષ	-10553
ગારો	-10554
ગુરુ	-10555
ચમાં	-10556
ઝુકી	-10557
ટેલી	-10558
ડાનો	-10559
ડેકર	-10560
ણાને	-10561
ણીને	-10562
તરની	-10563
દાનો	-10564
નાથી	-10565
નાયા	-10566
લાને	-10567
વિજય	-10568
સાઇડ	-10569
સેવા	-10570
સ્ટા	-10571
▁700	-10572
▁અલા	-10573
▁આગો	-10574
▁આચર	-10575
▁ઇંચ	-10576
▁ઉદય	-10577
▁ઓબે	-10578
▁કૉલ	-10579
▁ગાઈ	-10580
▁ટોક	-10581
▁ઠરા	-10582
▁ડેવ	-10583
▁ધસી	-10584
▁ધુમ	-10585
▁નાથ	-10586
▁નાસ	-10587
▁પાત	-10588
▁પાદ	-10589
▁ફેન	-10590
▁બધો	-10591
▁બહો	-10592
▁યુએ	-10593
▁સંન	-10594
▁સૂપ	-10595
▁હશો	-10596
▁હાફ	-10597
▁હિમ	-10598
▁હૉટ	-10599
કૃતિક	-10600
દાનું	-10601
પત્રો	-10602
પોઝિટ	-10603
માંતર	-10604
માવતી	-10605
લ્સની	-10606
સાનું	-10607
્યૂટર	-10608
▁2000	-10609
▁2013	-10610
▁Home	-10611
▁અમૃત	-10612
▁આઇટી	-10613
▁આખરી	-10614
▁આજનો	-10615
▁આધીન	-10616
▁આમને	-10617
▁ઈમાન	-10618
▁એકાદ	-10619
▁કઠોર	-10620
▁કબજો	-10621
▁કબૂલ	-10622
▁ખોલી	-10623
▁ગમશે	-10624
▁ઘરના	-10625
▁ચીજો	-10626
▁ચૂકા	-10627
▁ચેપી	-10628
▁જયાં	-10629
▁જીતુ	-10630
▁જીવા	-10631
▁જેકી	-10632
▁ડાબે	-10633
▁તારણ	-10634
▁દળોએ	-10635
▁દેશભ	-10636
▁ધરાશ	-10637
▁નવાં	-10638
▁નષ્ટ	-10639
▁નેચર	-10640
▁પરિણ	-10641
▁પેલે	-10642
▁બ્યૂ	-10643
▁બ્લૂ	-10644
▁મધુર	-10645
▁મરજી	-10646
▁મિલ્	-10647
▁મુસલ	-10648
▁મેમો	-10649
▁મેયર	-10650
▁રસાય	-10651
▁રાવત	-10652
▁રોગચ	-10653
▁લાગૂ	-10654
▁લાલુ	-10655
▁લાવો	-10656
▁વર્થ	-10657
▁વલ્લ	-10658
▁વેચા	-10659
▁વેલે	-10660
▁શિવા	-10661
▁શીખે	-10662
▁શેમ્	-10663
▁સહીત	-10664
▁સેને	-10665
▁હૂંફ	-10666
▁હોતા	-10667
ગ્રાફી	-10668
યોગ્રા	-10669
▁આકર્ષ	-10670
▁ઉત્સવ	-10671
▁એકનું	-10672
▁ઓપ્શન	-10673
▁કશ્મી	-10674
▁કેલરી	-10675
▁ખેડવા	-10676
▁ગેહલો	-10677
▁ચાહતા	-10678
▁જગતના	-10679
▁જેઓને	-10680
▁તારું	-10681
▁થયેલો	-10682
▁દવાખા	-10683
▁નાયડુ	-10684
▁નિકાલ	-10685
▁નૈતિક	-10686
▁પડેલા	-10687
▁પવારે	-10688
▁પૂરતો	-10689
▁ફાઇનલ	-10690
▁ફાર્મ	-10691
▁બનનાર	-10692
▁બાહ્ય	-10693
▁ભત્રી	-10694
▁ભાંગી	-10695
▁મનાવી	-10696
▁માગું	-10697
▁માથું	-10698
▁યહૂદિ	-10699
▁રંગની	-10700
▁રિટેલ	-10701
▁રેસ્ક	-10702
▁રોટલી	-10703
▁લાગતી	-10704
▁લોખંડ	-10705
▁વર્તુ	-10706
▁વાંચન	-10707
▁વાલીઓ	-10708
▁શુષ્ક	-10709
▁સંજીવ	-10710
▁સફરજન	-10711
▁સરપંચ	-10712
▁સેન્સ	-10713
▁સ્ટેજ	-10714
▁સ્થાપ	-10715
▁હડતાળ	-10716
▁હાઈવે	-10717
રાદિત્ય	-10718
▁અધિકૃત	-10719
▁અમૂલ્ય	-10720
▁અસમર્થ	-10721
▁ઉન્નાવ	-10722
▁એસબીઆઈ	-10723
▁ઑનલાઇન	-10724
▁ઓલિમ્પ	-10725
▁કીર્તિ	-10726
▁કેબિને	-10727
▁ખુલાસા	-10728
▁ચંદીગઢ	-10729
▁છોકરીઓ	-10730
▁જગાડવો	-10731
▁ડિઝાઈન	-10732
▁થવામાં	-10733
▁થિયેટર	-10734
▁દિવસનો	-10735
▁દેખાતા	-10736
▁નદીમાં	-10737
▁પરિચિત	-10738
▁પાડ્યો	-10739
▁પુરવઠા	-10740
▁પ્રોટે	-10741
▁ફંક્શન	-10742
▁ફેલાયો	-10743
▁બનવાનો	-10744
▁માણસના	-10745
▁માણસને	-10746
▁માતાને	-10747
▁માનવતા	-10748
▁મેઘાલય	-10749
▁યુનિયન	-10750
▁યુવરાજ	-10751
▁લગ્નનો	-10752
▁લેનારા	-10753
▁લેવાયા	-10754
▁વાંચવા	-10755
▁વિમાનો	-10756
▁વ્હાઈટ	-10757
▁શિવરાજ	-10758
▁સત્યને	-10759
▁સમજાવી	-10760
▁સસ્તું	-10761
▁સુઝુકી	-10762
▁સુત્રો	-10763
▁સોનાના	-10764
▁સ્મારક	-10765
▁હોદ્દા	-10766
શાસ્ત્રી	-10767
▁અગ્રણીઓ	-10768
▁અનેકવાર	-10769
▁આરોપીઓએ	-10770
▁કમનસીબે	-10771
▁કરિયરની	-10772
▁કાયદાનો	-10773
▁કેસોમાં	-10774
▁ક્રિસ્ટ	-10775
▁ગુનેગાર	-10776
▁જડબાતોડ	-10777
▁જોવાનું	-10778
▁ટામેટાં	-10779
▁દીકરાને	-10780
▁પત્નીની	-10781
▁પશ્ચિમી	-10782
▁પહોંચતા	-10783
▁પાડ્યું	-10784
▁પાયોનિય	-10785
▁પીવાનું	-10786
▁પ્રસારણ	-10787
▁ફિલ્મનુ	-10788
▁ફોટોશૂટ	-10789
▁બચ્ચનની	-10790
▁બનાવવું	-10791
▁બાઇબલની	-10792
▁મહિનાના	-10793
▁મહોત્સવ	-10794
▁રસ્તાની	-10795
▁રોકાણની	-10796
▁લાભદાયી	-10797
▁શર્માના	-10798
▁શ્રીમતી	-10799
▁સંન્યાસ	-10800
▁સંબંધને	-10801
▁સંભાળશે	-10802
▁સરખામણી	-10803
▁સરનામું	-10804
▁સુરતમાં	-10805
▁સ્તનપાન	-10806
ફ્રાસ્ટ્ર	-10807
▁અનુક્રમે	-10808
▁આવશ્યકતા	-10809
▁ઇન્વેસ્ટ	-10810
▁એકબીજાના	-10811
▁કરાવવાની	-10812
▁કેલ્શિયમ	-10813
▁ચાર્જશીટ	-10814
▁છૂટાછેડા	-10815
▁ધમાકેદાર	-10816
▁ધામધૂમથી	-10817
▁પારદર્શક	-10818
▁પાર્કમાં	-10819
▁પ્રથમવાર	-10820
▁પ્રાપ્તિ	-10821
▁બિનજરૂરી	-10822
▁મેન્યુઅલ	-10823
▁યરૂશાલેમ	-10824
▁યોજવામાં	-10825
▁રાખવાનું	-10826
▁રાજ્યોને	-10827
▁લોકાર્પણ	-10828
▁વિપક્ષના	-10829
▁વ્યાવસાય	-10830
▁સરકારનાં	-10831
▁સ્થળાંતર	-10832
▁સ્વચ્છતા	-10833
▁હાઇકોર્ટ	-10834
▁હાનિકારક	-10835
▁હોલ્ડિંગ	-10836
▁ઇન્ડિયાની	-10837
▁કાશ્મીરની	-10838
▁ડાયાબિટીસ	-10839
▁પુનર્નિયમ	-10840
▁પ્રવક્તાએ	-10841
▁પ્રોડ્યૂસ	-10842
▁ફાળવવામાં	-10843
▁ભુવનેશ્વર	-10844
▁મુદ્દામાલ	-10845
▁મોટાભાગની	-10846
▁રાજકોટમાં	-10847
▁વિટામિન્સ	-10848
▁વ્યવસાયિક	-10849
▁અત્યારસુધી	-10850
▁બ્લાસ્ટમાં	-10851
▁રાજ્યસભાની	-10852
▁લોકપ્રિયતા	-10853
▁સમયગાળામાં	-10854
▁હાઈકોર્ટના	-10855
▁આતંકવાદીઓને	-10856
▁કાર્યક્રમને	-10857
▁પ્રજાસત્તાક	-10858
▁રજિસ્ટ્રેશન	-10859
▁રાષ્ટ્રપતિએ	-10860
▁વર્લ્ડકપમાં	-10861
▁સ્પર્ધાત્મક	-10862
▁ઇન્સ્ટિટ્યૂટ	-10863
▁ઉત્તરપ્રદેશના	-10864
▁ઓસ્ટ્રેલિયાને	-10865
▁જ્યોતિરાદિત્ય	-10866
11	-10867
17	-10868
AM	-10869
EO	-10870
MS	-10871
NU	-10872
OS	-10873
ck	-10874
ly	-10875
pe	-10876
um	-10877
ખલ	-10878
જલ	-10879
ધૂ	-10880
બૉ	-10881
ોટ	-10882
.20	-10883
ંજી	-10884
ંટો	-10885
ંતે	-10886
ઓએસ	-10887
કિય	-10888
ક્ચ	-10889
ક્ય	-10890
ગિલ	-10891
ગું	-10892
ચંદ	-10893
જીબ	-10894
ટીવ	-10895
ડાઉ	-10896
ડાએ	-10897
તરફ	-10898
તેમ	-10899
નાસ	-10900
પત્	-10901
પને	-10902
બાઇ	-10903
મ્ય	-10904
રાએ	-10905
રીક	-10906
લિજ	-10907
લીલ	-10908
ળાઈ	-10909
શિક	-10910
શેષ	-10911
શોભ	-10912
હાં	-10913
હોર	-10914
ાઇડ	-10915
ામુ	-10916
ારક	-10917
િયસ	-10918
▁63	-10919
▁GB	-10920
▁IS	-10921
▁ઇં	-10922
▁કઠ	-10923
▁કડ	-10924
▁કઢ	-10925
▁ગજ	-10926
▁છત	-10927
▁નડ	-10928
▁ફગ	-10929
▁મૃ	-10930
▁વુ	-10931
▁સઈ	-10932
."""	-10933
ંકડો	-10934
ંગિક	-10935
આઈટી	-10936
ઇમાં	-10937
એક્સ	-10938
કક્ષ	-10939
કીપર	-10940
ડિયન	-10941
ણોને	-10942
તાશા	-10943
દિયા	-10944
દેશક	-10945
ન્વી	-10946
પર્સ	-10947
ફિલ્	-10948
ફ્ફર	-10949
બાના	-10950
રનું	-10951
લગ્ન	-10952
લાઈટ	-10953
લીયા	-10954
વરેજ	-10955
વર્ટ	-10956
વીએમ	-10957
ષ્ટી	-10958
સિંગ	-10959
ાવેલ	-10960
િત્ત	-10961
ૃત્ત	-10962
ેટના	-10963
▁180	-10964
▁CAA	-10965
▁અંજ	-10966
▁અડગ	-10967
▁આદત	-10968
▁ઉડી	-10969
▁એટી	-10970
▁એપલ	-10971
▁એબી	-10972
▁કલ્	-10973
▁કેચ	-10974
▁ખનિ	-10975
▁ખુલ	-10976
▁ચરણ	-10977
▁ચોર	-10978
▁છાવ	-10979
▁ડરી	-10980
▁તમિ	-10981
▁ધડા	-10982
▁નમન	-10983
▁નીલ	-10984
▁પરમ	-10985
▁પરે	-10986
▁પીઓ	-10987
▁ફુલ	-10988
▁બચો	-10989
▁બાલ	-10990
▁બુલ	-10991
▁રનૌ	-10992
▁લખા	-10993
▁લહે	-10994
▁લાદ	-10995
▁લીમ	-10996
▁શિખ	-10997
▁સોન	-10998
▁સ્‍	-10999
▁હંગ	-11000
▁હાય	-11001
▁હોં	-11002
જીમાં	-11003
ણિજ્ય	-11004
તીમાં	-11005
ન્ટેડ	-11006
બલ્યુ	-11007
ભાવિક	-11008
માર્ક	-11009
વિવાદ	-11010
વ્યાં	-11011
સીમાં	-11012
હમ્મદ	-11013
ાંકિત	-11014
ાવવું	-11015
▁અજીત	-11016
▁અઝહર	-11017
▁આનું	-11018
▁આપતો	-11019
▁ઇન્સ	-11020
▁ઇન્‍	-11021
▁ઇસ્ટ	-11022
▁ઉદાર	-11023
▁ઓલરા	-11024
▁કન્સ	-11025
▁કરજો	-11026
▁કરવુ	-11027
▁કારી	-11028
▁કેલિ	-11029
▁ક્વિ	-11030
▁ખાસ્	-11031
▁ગાંઠ	-11032
▁ગાયબ	-11033
▁ચૌહા	-11034
▁જઇને	-11035
▁જુના	-11036
▁જોઉં	-11037
▁ઝીણી	-11038
▁ટાળી	-11039
▁ડૂબી	-11040
▁તબિય	-11041
▁દાવા	-11042
▁ધાતુ	-11043
▁ધીમી	-11044
▁નબળી	-11045
▁નાઈટ	-11046
▁નાતો	-11047
▁નિશા	-11048
▁પીરસ	-11049
▁પૂનમ	-11050
▁પૂરક	-11051
▁ફટકો	-11052
▁ફસાઈ	-11053
▁ફૂલો	-11054
▁બોલો	-11055
▁મંગળ	-11056
▁મકાઈ	-11057
▁મનની	-11058
▁મર્જ	-11059
▁મળેલ	-11060
▁માટી	-11061
▁મિરર	-11062
▁યોહા	-11063
▁રમતા	-11064
▁રાજન	-11065
▁રાવલ	-11066
▁રાહુ	-11067
▁રેપો	-11068
▁રોમા	-11069
▁લિંક	-11070
▁વરસી	-11071
▁વાલી	-11072
▁વેરા	-11073
▁શાની	-11074
▁શુગર	-11075
▁શોધો	-11076
▁સગર્	-11077
▁સગાઈ	-11078
▁સચ્ચ	-11079
▁સાસુ	-11080
▁સીઈઓ	-11081
▁સીપી	-11082
▁હળવો	-11083
▁હેરો	-11084
▁હોટલ	-11085
ક્વિટી	-11086
નાઈટેડ	-11087
નિર્મા	-11088
પાલિકા	-11089
ફેક્શન	-11090
રાત્રિ	-11091
ાવવાના	-11092
▁અટકળો	-11093
▁અપલોડ	-11094
▁ઉકળવા	-11095
▁ઉપાયો	-11096
▁એપિસો	-11097
▁ઓગસ્ટ	-11098
▁ઓર્ડર	-11099
▁કમબેક	-11100
▁કરુણા	-11101
▁કહાની	-11102
▁કારનો	-11103
▁કેવાં	-11104
▁ક્લિન	-11105
▁ખટ્ટર	-11106
▁ગ્રંથ	-11107
▁ઘટાડે	-11108
▁છોડવા	-11109
▁જેમની	-11110
▁જેમ્સ	-11111
▁જેવાં	-11112
▁જોવું	-11113
▁ટકાના	-11114
▁ટ્રોલ	-11115
▁ઠાકોર	-11116
▁દલીલો	-11117
▁દિલીપ	-11118
▁ધનલાભ	-11119
▁ધિરાણ	-11120
▁નાબૂદ	-11121
▁નામાં	-11122
▁નિર્ભ	-11123
▁પાયલટ	-11124
▁ફિલ્ડ	-11125
▁બોબડે	-11126
▁બ્રાઉ	-11127
▁બ્રેડ	-11128
▁ભરેલા	-11129
▁ભાવુક	-11130
▁મક્કમ	-11131
▁મળતાં	-11132
▁મહાનુ	-11133
▁માણવા	-11134
▁માસિક	-11135
▁રનમાં	-11136
▁રશિયન	-11137
▁રેન્જ	-11138
▁લખ્યા	-11139
▁લગાવો	-11140
▁લાગતો	-11141
▁વાકેફ	-11142
▁વાતથી	-11143
▁વાળને	-11144
▁વિલિય	-11145
▁વેન્ટ	-11146
▁શકાતી	-11147
▁શણગાર	-11148
▁શહીદો	-11149
▁શાહના	-11150
▁શિલાન	-11151
▁શ્વેત	-11152
▁સંભળા	-11153
▁સર્વા	-11154
▁સુશોભ	-11155
▁સૂચિત	-11156
▁સેવકો	-11157
▁સ્કાય	-11158
▁સ્કુલ	-11159
▁સ્ટડી	-11160
▁સ્ટીવ	-11161
▁સ્ટોક	-11162
▁સ્વરૂ	-11163
▁હિસાબ	-11164
▁હોસ્ટ	-11165
િસ્ટન્ટ	-11166
્યુલન્સ	-11167
▁આકર્ષણ	-11168
▁આક્રોશ	-11169
▁આપીશું	-11170
▁આબોહવા	-11171
▁આસિયાન	-11172
▁ઉત્તરી	-11173
▁ઑપરેશન	-11174
▁કરવેરા	-11175
▁કરાયેલ	-11176
▁કેપિટલ	-11177
▁ખળભળાટ	-11178
▁ખાવાથી	-11179
▁ચુંટણી	-11180
▁જાળવવા	-11181
▁જોડાવા	-11182
▁જોડાશે	-11183
▁ટેકનિક	-11184
▁ટોઇલેટ	-11185
▁દત્તની	-11186
▁દિવસીય	-11187
▁દેખાવો	-11188
▁નાખીને	-11189
▁નાખ્યા	-11190
▁નિધનથી	-11191
▁નોર્મલ	-11192
▁પરમાણુ	-11193
▁પુત્રો	-11194
▁પુરવઠો	-11195
▁પ્રતીક	-11196
▁પ્રદીપ	-11197
▁ફ્રાંસ	-11198
▁બચ્ચને	-11199
▁બનેલું	-11200
▁બાકીની	-11201
▁બાળકોએ	-11202
▁બેન્કે	-11203
▁ભર્યું	-11204
▁મંડળના	-11205
▁મનપસંદ	-11206
▁માણસની	-11207
▁માન્યા	-11208
▁મુદ્રા	-11209
▁રાત્રિ	-11210
▁રેડ્ડી	-11211
▁રેલીને	-11212
▁લેવાથી	-11213
▁લેવાના	-11214
▁લોન્ડર	-11215
▁વાંચોઃ	-11216
▁વાઘાણી	-11217
▁વિભાજન	-11218
▁વિષ્ણુ	-11219
▁વ્યર્થ	-11220
▁શરીરની	-11221
▁સંક્ષિ	-11222
▁સંબોધી	-11223
▁સામેના	-11224
▁સિદ્દી	-11225
▁સુકાની	-11226
▁સેક્શન	-11227
▁સ્તુતિ	-11228
▁હિબ્રૂ	-11229
▁હોંગકો	-11230
ક્રિપ્શન	-11231
▁અગત્યની	-11232
▁અતિભારે	-11233
▁અધિનિયમ	-11234
▁આરોપોને	-11235
▁આર્મેચર	-11236
▁કમાન્ડર	-11237
▁કોગ્રેસ	-11238
▁કોર્ટનો	-11239
▁ખેતરમાં	-11240
▁ગરીબોને	-11241
▁ગુનામાં	-11242
▁ગ્રાન્ડ	-11243
▁જસપ્રીત	-11244
▁તનુશ્રી	-11245
▁તમારાથી	-11246
▁દિવસોથી	-11247
▁નાખ્યું	-11248
▁નામંજૂર	-11249
▁પ્રધાને	-11250
▁પ્રિન્ટ	-11251
▁પ્રોસેસ	-11252
▁બન્નેના	-11253
▁બેંકમાં	-11254
▁બ્રોન્ઝ	-11255
▁મેળવીને	-11256
▁યુવતીના	-11257
▁યુવતીની	-11258
▁યુવતીને	-11259
▁રાખીશું	-11260
▁લાવવાની	-11261
▁લેટેસ્ટ	-11262
▁વફાદારી	-11263
▁વસ્ત્રો	-11264
▁વિજયભાઈ	-11265
▁વિભાગને	-11266
▁વિભિન્ન	-11267
▁વિરૂધ્ધ	-11268
▁વિવિધતા	-11269
▁વેપારીઓ	-11270
▁શક્યતાઓ	-11271
▁શીખવાની	-11272
▁ષડયંત્ર	-11273
▁સંવિધાન	-11274
▁સભાઓમાં	-11275
▁સવાલોના	-11276
▁સાથોસાથ	-11277
▁સીતારમણ	-11278
▁સ્પેશ્ય	-11279
▁હોટલમાં	-11280
્યુનિકેશન	-11281
▁ઇન્ડેક્સ	-11282
▁કંપનીઓને	-11283
▁કોરોનાથી	-11284
▁ચુકાદાને	-11285
▁ચૂંટણીને	-11286
▁દિગ્વિજય	-11287
▁પંજાબમાં	-11288
▁પાદુકોણે	-11289
▁પાયોનિયર	-11290
▁પૂછવામાં	-11291
▁પ્રમાણિક	-11292
▁પ્રીમિયર	-11293
▁ફિલ્ડિંગ	-11294
▁ફિલ્મફેર	-11295
▁બદલવામાં	-11296
▁બનાવવાના	-11297
▁ભાઈબહેનો	-11298
▁મહિલાઓના	-11299
▁માધ્યમિક	-11300
▁મુખ્યાલય	-11301
▁મ્યુઝિયમ	-11302
▁રાજમાર્ગ	-11303
▁રાષ્ટ્રો	-11304
▁લગ્નજીવન	-11305
▁લોકસભાના	-11306
▁વિચારીને	-11307
▁શાળાઓમાં	-11308
▁સાક્ષીઓએ	-11309
▁અકસ્માતને	-11310
▁કમ્પ્યૂટર	-11311
▁ક્રિકેટના	-11312
▁ગૃહપ્રધાન	-11313
▁ગોઠવવામાં	-11314
▁ડેમોક્રેટ	-11315
▁નીચાણવાળા	-11316
▁રાઉન્ડમાં	-11317
▁વધારવામાં	-11318
▁વિસ્તારને	-11319
▁શિલાન્યાસ	-11320
▁સંગ્રહાલય	-11321
▁સમર્થનમાં	-11322
▁સમસ્યાઓનો	-11323
▁સુરક્ષાની	-11324
▁સ્પોર્ટ્સ	-11325
▁સ્વાભાવિક	-11326
▁ઉત્પાદનમાં	-11327
▁જન્મદિવસની	-11328
▁ન્યાયાધીશો	-11329
▁પુલવામામાં	-11330
▁પ્રોડક્ટ્સ	-11331
▁ફાયરિંગમાં	-11332
▁માર્કેટકેપ	-11333
▁મુશ્કેલીનો	-11334
▁રાજ્યભરમાં	-11335
▁ઇન્ડોનેશિયા	-11336
▁એપાર્ટમેન્ટ	-11337
▁કાર્યક્ષમતા	-11338
▁ખ્રિસ્તીઓને	-11339
▁છત્તીસગઢમાં	-11340
▁પ્રોત્સાહિત	-11341
▁બિલ્ડિંગમાં	-11342
▁ઉત્તરાખંડમાં	-11343
▁મધ્યપ્રદેશના	-11344
▁વિદ્યાર્થીની	-11345
▁ઓસ્ટ્રેલિયામાં	-11346
▁પ્રધાનમંત્રીના	-11347
-5	-11348
IA	-11349
SC	-11350
TC	-11351
ia	-11352
ok	-11353
st	-11354
ur	-11355
આમ	-11356
ઘી	-11357
થલ	-11358
દૃ	-11359
ષભ	-11360
’,	-11361
▁#	-11362
▁$	-11363
"",	-11364
-17	-11365
Com	-11366
hot	-11367
કસ્	-11368
ખું	-11369
ખૂબ	-11370
ઝીર	-11371
ટાન	-11372
ટેન	-11373
તાપ	-11374
નાડ	-11375
નીક	-11376
ન્હ	-11377
ભાત	-11378
ભેદ	-11379
મેડ	-11380
મેર	-11381
રેપ	-11382
રોલ	-11383
લીટ	-11384
લ્થ	-11385
શેલ	-11386
સુર	-11387
હને	-11388
હનો	-11389
ાળુ	-11390
ાવિ	-11391
ાસા	-11392
િમય	-11393
્ટે	-11394
્વી	-11395
▁CC	-11396
▁SC	-11397
▁de	-11398
▁અા	-11399
▁આચ	-11400
▁આહ	-11401
▁ઇશ	-11402
▁ઉલ	-11403
▁ઔર	-11404
▁કળ	-11405
▁ગગ	-11406
▁ઝુ	-11407
▁ઠપ	-11408
▁નખ	-11409
▁પૅ	-11410
▁બટ	-11411
▁લથ	-11412
""."	-11413
...!	-11414
કાંડ	-11415
કીંગ	-11416
ઘાટો	-11417
ટરની	-11418
ડિયમ	-11419
તસવી	-11420
દાના	-11421
નામા	-11422
નોની	-11423
પુરમ	-11424
ફાઇલ	-11425
ફેલી	-11426
બહેન	-11427
ભૂતિ	-11428
મેટો	-11429
રાને	-11430
વર્ણ	-11431
ષ્ણા	-11432
સાને	-11433
સિંઘ	-11434
સીઆઇ	-11435
સ્ફર	-11436
હિતા	-11437
િતાબ	-11438
▁""%	-11439
▁105	-11440
▁106	-11441
▁600	-11442
▁JNU	-11443
▁ઈંચ	-11444
▁ઑટો	-11445
▁ઓરે	-11446
▁કવર	-11447
▁કૅથ	-11448
▁ખજા	-11449
▁ખભા	-11450
▁ખીલ	-11451
▁ગૂગ	-11452
▁ઘટક	-11453
▁ડાઇ	-11454
▁ધૂળ	-11455
▁ફસા	-11456
▁ફેક	-11457
▁ભરૂ	-11458
▁મસી	-11459
▁માધ	-11460
▁મીઠ	-11461
▁રિફ	-11462
▁રીસ	-11463
▁લિં	-11464
▁લોડ	-11465
▁શાર	-11466
▁સના	-11467
▁સીઇ	-11468
▁હચમ	-11469
કારની	-11470
ગેઝિન	-11471
ગેટિવ	-11472
ઝફ્ફર	-11473
ત્રિમ	-11474
ભિચાર	-11475
રાજ્ય	-11476
લૅન્ડ	-11477
વિચાર	-11478
વિસ્ત	-11479
સિસ્ટ	-11480
હાસ્ય	-11481
્યાદા	-11482
▁BCCI	-11483
▁આણંદ	-11484
▁આવડત	-11485
▁આસાર	-11486
▁ઇલાજ	-11487
▁ઉતાવ	-11488
▁ઉન્ન	-11489
▁એકજૂ	-11490
▁એકપણ	-11491
▁એમડી	-11492
▁એમપી	-11493
▁એરફો	-11494
▁એસપી	-11495
▁ઓર્ડ	-11496
▁કડવા	-11497
▁કતાર	-11498
▁કન્ટ	-11499
▁કપડા	-11500
▁કમાન	-11501
▁કશ્ય	-11502
▁કોઈક	-11503
▁ક્વૉ	-11504
▁ખૂણા	-11505
▁ઘેટા	-11506
▁છોડો	-11507
▁જર્ન	-11508
▁ટકાઉ	-11509
▁ટીઝર	-11510
▁ઠેકા	-11511
▁તાલી	-11512
▁ત્રા	-11513
▁દ્રા	-11514
▁ધમાલ	-11515
▁પલટી	-11516
▁પારો	-11517
▁બકરા	-11518
▁બચવા	-11519
▁બનીએ	-11520
▁બીજે	-11521
▁બેદી	-11522
▁મનાય	-11523
▁મહાગ	-11524
▁માગો	-11525
▁માધુ	-11526
▁માનો	-11527
▁મીઠી	-11528
▁યાજક	-11529
▁લખવા	-11530
▁લાંબ	-11531
▁વળતો	-11532
▁વીતી	-11533
▁વેંક	-11534
▁વેચી	-11535
▁વેતન	-11536
▁શિબિ	-11537
▁સમજુ	-11538
▁સરખા	-11539
▁સલામ	-11540
▁સાવર	-11541
▁સીટી	-11542
▁સુધર	-11543
▁સુમે	-11544
▁સૂકા	-11545
▁સ્વે	-11546
▁હક્ક	-11547
▁હરકત	-11548
▁હાઇડ	-11549
▁હોકી	-11550
ંત્રિત	-11551
કરણમાં	-11552
પોતાના	-11553
લેક્શન	-11554
સાહસિક	-11555
િફિકેટ	-11556
▁અંકુશ	-11557
▁અનન્ય	-11558
▁અભિયા	-11559
▁આંદોલ	-11560
▁આઇફોન	-11561
▁ઇટાલી	-11562
▁ઇન્કમ	-11563
▁ઉત્કૃ	-11564
▁ઉપવાસ	-11565
▁ઊંચું	-11566
▁એનાયત	-11567
▁કબ્જે	-11568
▁કરેલો	-11569
▁કવિતા	-11570
▁કાકડી	-11571
▁કિસાન	-11572
▁કોગળા	-11573
▁ખરીદન	-11574
▁ખામીઓ	-11575
▁ગામની	-11576
▁ગોગોઈ	-11577
▁ગોઠવણ	-11578
▁ઘૂંટણ	-11579
▁ચલાવો	-11580
▁ચાલું	-11581
▁જંગલી	-11582
▁જગતનો	-11583
▁જવાથી	-11584
▁જવાયા	-11585
▁જાણું	-11586
▁જુગાર	-11587
▁જોતાં	-11588
▁ટકાવી	-11589
▁ટાઇટલ	-11590
▁થવાને	-11591
▁દિનેશ	-11592
▁દુઃખદ	-11593
▁દેખાઇ	-11594
▁ધનવાન	-11595
▁નવાઝુ	-11596
▁નાખવા	-11597
▁નિર્ગ	-11598
▁પરિમા	-11599
▁પાડશે	-11600
▁પૂરની	-11601
▁પ્લોટ	-11602
▁ફેંકી	-11603
▁બોલવા	-11604
▁બ્લોક	-11605
▁મરાઠા	-11606
▁મરિયમ	-11607
▁મલ્ટી	-11608
▁માગતો	-11609
▁માર્ટ	-11610
▁મોંઘા	-11611
▁મોકલા	-11612
▁મોકલે	-11613
▁મોતના	-11614
▁રણદીપ	-11615
▁રાખજો	-11616
▁રીલીઝ	-11617
▁રેડમી	-11618
▁લીધાં	-11619
▁લેનાર	-11620
▁વર્તે	-11621
▁વળ્યા	-11622
▁વહેલા	-11623
▁વાદળો	-11624
▁વાયદો	-11625
▁વિખેર	-11626
▁વિજળી	-11627
▁વિદાય	-11628
▁શાળાઓ	-11629
▁શ્રેય	-11630
▁સંચાર	-11631
▁સસ્તા	-11632
▁સાકાર	-11633
▁સારૂં	-11634
▁સિક્ક	-11635
▁સ્કીમ	-11636
▁સ્ટોવ	-11637
▁સ્પોટ	-11638
કાંક્ષી	-11639
પેન્દ્ર	-11640
મેન્ટિક	-11641
વિજ્ઞાન	-11642
▁50,000	-11643
▁અજ્ઞાત	-11644
▁અનાવરણ	-11645
▁અનુરૂપ	-11646
▁અનુવાદ	-11647
▁આયોજીત	-11648
▁આરબીઆઈ	-11649
▁ઇજિપ્ત	-11650
▁ઈચ્છતા	-11651
▁એક્સિસ	-11652
▁એજન્ડા	-11653
▁ગમ્યું	-11654
▁ગાળાના	-11655
▁ગેરફાય	-11656
▁ગોવાના	-11657
▁ચલાવતી	-11658
▁જીંદગી	-11659
▁જીવવું	-11660
▁તબક્કો	-11661
▁તહેનાત	-11662
▁તોફાની	-11663
▁દરેકની	-11664
▁નાખ્યો	-11665
▁પંક્તિ	-11666
▁પેટમાં	-11667
▁પ્રતિબ	-11668
▁પ્રભાસ	-11669
▁પ્રશ્ર	-11670
▁ફાયદાઓ	-11671
▁ફિલ્મી	-11672
▁ફ્લાઈટ	-11673
▁બદલીને	-11674
▁બનાવવી	-11675
▁બહાદુર	-11676
▁બીએસએફ	-11677
▁બેંગલો	-11678
▁બોર્ડે	-11679
▁બોલવું	-11680
▁બ્રહ્મ	-11681
▁બ્રિટન	-11682
▁મથકમાં	-11683
▁મળવાનો	-11684
▁મહારાજ	-11685
▁મિડિયા	-11686
▁મેચોની	-11687
▁યહોશુઆ	-11688
▁યુવકની	-11689
▁લીગમાં	-11690
▁વધ્યું	-11691
▁વોલ્યુ	-11692
▁શેતાને	-11693
▁શ્વેતા	-11694
▁સંચાલક	-11695
▁સંસાધન	-11696
▁સમકક્ષ	-11697
▁સમજવું	-11698
▁સવાલનો	-11699
▁સાધારણ	-11700
▁સિક્કા	-11701
▁સોલંકી	-11702
▁સૌજન્ય	-11703
▁સ્વિટ્	-11704
▁હૃદયની	-11705
▁હેક્ટર	-11706
ગ્રાઉન્ડ	-11707
ફાઇનલમાં	-11708
ફાઈનલમાં	-11709
ફોર્નિયા	-11710
▁આપણામાં	-11711
▁આવવાનું	-11712
▁ઉંમરમાં	-11713
▁ઓથોરિટી	-11714
▁કટિબદ્ધ	-11715
▁ખુલ્લું	-11716
▁ગાંધીજી	-11717
▁ગાંધીનો	-11718
▁ગ્લેમરસ	-11719
▁જ્યારથી	-11720
▁ડિલિવરી	-11721
▁ત્રીજું	-11722
▁નેતાઓની	-11723
▁પાંચમાં	-11724
▁પૌષ્ટિક	-11725
▁પ્રધાનો	-11726
▁બનાવનાર	-11727
▁બોર્ડના	-11728
▁ભાગરૂપે	-11729
▁મંત્રણા	-11730
▁મહામહિમ	-11731
▁મહિલાનો	-11732
▁મહેસાણા	-11733
▁માંગ્યો	-11734
▁માણસોને	-11735
▁મેટ્રિક	-11736
▁યોજનાને	-11737
▁રમાયેલી	-11738
▁રાતોરાત	-11739
▁વધારાનો	-11740
▁વિશેષતા	-11741
▁વૃક્ષની	-11742
▁સંક્રમણ	-11743
▁સામાજીક	-11744
▁સુધીનું	-11745
▁હુમલાના	-11746
▁narendra	-11747
▁ઇન્ડિયાએ	-11748
▁કારોબારી	-11749
▁કેદારનાથ	-11750
▁ગેલેક્સી	-11751
▁જિલ્લાની	-11752
▁જોડવામાં	-11753
▁ટ્રેડિંગ	-11754
▁તેમનામાં	-11755
▁તેલંગાણા	-11756
▁દરિયામાં	-11757
▁દર્દીઓના	-11758
▁દૃષ્ટાંત	-11759
▁ધુમ્રપાન	-11760
▁નવરાત્રી	-11761
▁નિર્ણાયક	-11762
▁પ્રોટોકો	-11763
▁પ્રોબ્લે	-11764
▁મિશ્રણને	-11765
▁મેળવવાનો	-11766
▁મોંઘવારી	-11767
▁વેપારમાં	-11768
▁શિવકુમાર	-11769
▁સંભાવનાઓ	-11770
▁સાંભળ્યા	-11771
▁સિદ્દીકી	-11772
▁હિંસામાં	-11773
▁ઉલ્લેખનીય	-11774
▁ખ્રિસ્તને	-11775
▁ચક્રવર્તી	-11776
▁ચીજવસ્તુઓ	-11777
▁તસવીરોમાં	-11778
▁તાપમાનમાં	-11779
▁દિગ્દર્શક	-11780
▁દુનિયાનું	-11781
▁પ્રદર્શિત	-11782
▁બેડમિન્ટન	-11783
▁મૃત્યુઆંક	-11784
▁રોમેન્ટિક	-11785
▁વાર્તાલાપ	-11786
▁શ્રદ્ધાળુ	-11787
મુખ્યમંત્રી	-11788
▁ગ્રેજ્યુએટ	-11789
▁ડિસ્કાઉન્ટ	-11790
▁ડેવલપમેન્ટ	-11791
▁પરીક્ષામાં	-11792
▁ફ્લિપકાર્ટ	-11793
▁બોયફ્રેન્ડ	-11794
▁વ્યાવસાયિક	-11795
▁સર્ટિફિકેટ	-11796
▁સાંભળવામાં	-11797
▁અસ્તિત્વમાં	-11798
▁ન્યુઝીલેન્ડ	-11799
▁પ્રત્યાર્પણ	-11800
▁વહીવટીતંત્ર	-11801
▁પહોંચાડવામાં	-11802
!”	-11803
15	-11804
24	-11805
51	-11806
IL	-11807
MR	-11808
PE	-11809
ts	-11810
ંઠ	-11811
ઓપ	-11812
ખડ	-11813
ડન	-11814
ઢે	-11815
દક	-11816
ફુ	-11817
લત	-11818
હદ	-11819
૨૦	-11820
”.	-11821
ંગત	-11822
ઈસુ	-11823
કાએ	-11824
કિસ	-11825
ખાપ	-11826
ગર્	-11827
ચકો	-11828
ઝને	-11829
ટીસ	-11830
ધીર	-11831
નવા	-11832
નોર	-11833
પરી	-11834
પ્લ	-11835
બુલ	-11836
ર્દ	-11837
લેણ	-11838
વણો	-11839
સિય	-11840
સીમ	-11841
સ્ડ	-11842
િમા	-11843
ૂતિ	-11844
ૈના	-11845
્રૂ	-11846
▁68	-11847
▁69	-11848
▁CR	-11849
▁ED	-11850
▁st	-11851
▁ઊજ	-11852
▁ચહ	-11853
▁જર	-11854
▁મય	-11855
▁યર	-11856
▁યૌ	-11857
▁રડ	-11858
▁વઘ	-11859
ress	-11860
ંખ્ય	-11861
અમેર	-11862
એસપી	-11863
ક્સો	-11864
ગાંવ	-11865
ગ્યે	-11866
ચર્ચ	-11867
જીબી	-11868
ઝિંગ	-11869
ટિયા	-11870
ટેબલ	-11871
ટ્ટે	-11872
દિલ્	-11873
નાનો	-11874
ન્વય	-11875
પાવી	-11876
પૂર્	-11877
બદલી	-11878
બલ્સ	-11879
બાયો	-11880
ભૂષણ	-11881
માના	-11882
મુખી	-11883
મૈયા	-11884
રનાથ	-11885
રાતો	-11886
લાયક	-11887
લિયન	-11888
લ્ટા	-11889
વર્ક	-11890
વાદન	-11891
વેલી	-11892
વેશન	-11893
સનીય	-11894
સામે	-11895
િમંડ	-11896
િવ્ય	-11897
ીકૃત	-11898
ેલાં	-11899
્યુબ	-11900
્‍યા	-11901
▁194	-11902
▁con	-11903
▁અંશ	-11904
▁અછત	-11905
▁અઢી	-11906
▁આઘા	-11907
▁આઝમ	-11908
▁ઈમે	-11909
▁એલિ	-11910
▁ઓછુ	-11911
▁કટા	-11912
▁કમ્	-11913
▁કોટ	-11914
▁ખની	-11915
▁ગલી	-11916
▁ગીર	-11917
▁ચડી	-11918
▁ચમક	-11919
▁ઝોન	-11920
▁ડેન	-11921
▁ડોન	-11922
▁તિલ	-11923
▁થાઇ	-11924
▁દાઉ	-11925
▁દોઢ	-11926
▁ધર્	-11927
▁ધોઇ	-11928
▁નંગ	-11929
▁નાઇ	-11930
▁પંત	-11931
▁પલા	-11932
▁પાઈ	-11933
▁ફરે	-11934
▁ફુટ	-11935
▁બધુ	-11936
▁બરો	-11937
▁બહિ	-11938
▁મકર	-11939
▁માય	-11940
▁મેર	-11941
▁યૂન	-11942
▁રખા	-11943
▁રેક	-11944
▁રેગ	-11945
▁રોમ	-11946
▁લીક	-11947
▁વતન	-11948
▁વસૂ	-11949
▁વિઝ	-11950
▁વેઠ	-11951
▁વોલ	-11952
▁શરત	-11953
▁શાઊ	-11954
▁સળગ	-11955
▁સીન	-11956
▁હમે	-11957
▁હરણ	-11958
▁હિલ	-11959
▁૧૯૧	-11960
▁૨૦૧	-11961
જનોને	-11962
જોમાં	-11963
નિક્સ	-11964
નીતિક	-11965
ન્સની	-11966
ન્સને	-11967
પટ્ટી	-11968
પત્ની	-11969
બ્રમણ	-11970
મુક્ત	-11971
શિયાર	-11972
સ્પર્	-11973
િડન્ટ	-11974
િલિયન	-11975
્યમાં	-11976
▁HDFC	-11977
▁અખંડ	-11978
▁અન્ન	-11979
▁અપાય	-11980
▁અફસો	-11981
▁અભૂત	-11982
▁અસલી	-11983
▁આઇસો	-11984
▁આઈડી	-11985
▁આકસ્	-11986
▁આરજે	-11987
▁ઉતરે	-11988
▁ઊંચો	-11989
▁એન્‍	-11990
▁એસડી	-11991
▁કઠોળ	-11992
▁કપની	-11993
▁કર્ત	-11994
▁કલમો	-11995
▁કાપડ	-11996
▁કેએલ	-11997
▁ક્રૂ	-11998
▁ગતિએ	-11999
▁ગરદન	-12000
▁ગીતા	-12001
▁ગોળા	-12002
▁ચાકર	-12003
▁ચેનલ	-12004
▁છેકે	-12005
▁જામી	-12006
▁જાસૂ	-12007
▁જ્ઞા	-12008
▁ટાર્	-12009
▁ડાબી	-12010
▁ડિટે	-12011
▁તકતી	-12012
▁તત્વ	-12013
▁તરફી	-12014
▁તિરા	-12015
▁થાકી	-12016
▁થેસ્	-12017
▁દળની	-12018
▁દાણા	-12019
▁દાદી	-12020
▁ધંધો	-12021
▁ધરાઈ	-12022
▁ધારી	-12023
▁નક્સ	-12024
▁પતંગ	-12025
▁પાટે	-12026
▁પીયૂ	-12027
▁પૂછી	-12028
▁પેટી	-12029
▁ફરતે	-12030
▁ફિચર	-12031
▁બંદર	-12032
▁બોની	-12033
▁બ્રી	-12034
▁ભક્ત	-12035
▁ભાવો	-12036
▁મસૂદ	-12037
▁મિલન	-12038
▁મીઠા	-12039
▁મેચો	-12040
▁મૌની	-12041
▁રસોઇ	-12042
▁લખનૌ	-12043
▁લોંચ	-12044
▁વધું	-12045
▁વસૂલ	-12046
▁વીમો	-12047
▁શરદી	-12048
▁શીખો	-12049
▁શીલા	-12050
▁શ્લો	-12051
▁સચોટ	-12052
▁સરખી	-12053
▁સિબ્	-12054
▁સ્લે	-12055
▁હેરા	-12056
ગરીમાં	-12057
ડબલ્યુ	-12058
ન્ટાઇન	-12059
ન્શિયલ	-12060
પેટમાં	-12061
માર્ગે	-12062
લેન્ડર	-12063
શિક્ષક	-12064
સાયણિક	-12065
હાત્મક	-12066
િકામાં	-12067
▁અપાવી	-12068
▁અસમાન	-12069
▁આપોઆપ	-12070
▁આપ્ટે	-12071
▁આયર્ન	-12072
▁ઇકોનો	-12073
▁ઇમારત	-12074
▁ઇલેવન	-12075
▁ઈસ્લા	-12076
▁ઉઠ્યા	-12077
▁ઉપદેશ	-12078
▁એજ્યુ	-12079
▁એફેસી	-12080
▁એમનું	-12081
▁ઓડિયો	-12082
▁કમલના	-12083
▁કરતાર	-12084
▁કરાચી	-12085
▁કહેતો	-12086
▁કાસ્ટ	-12087
▁કેળવી	-12088
▁કેસના	-12089
▁ખાતું	-12090
▁ગાયું	-12091
▁ગેસના	-12092
▁ગ્રાફ	-12093
▁ચામડી	-12094
▁છીનવી	-12095
▁જેમના	-12096
▁જોવાઈ	-12097
▁જોહરે	-12098
▁જ્હોન	-12099
▁ટ્રીટ	-12100
▁ડેવલો	-12101
▁તેલંગ	-12102
▁થનારી	-12103
▁થયાના	-12104
▁થોડાં	-12105
▁દવાની	-12106
▁દેવાઇ	-12107
▁નતાશા	-12108
▁નાનાં	-12109
▁પટ્ટી	-12110
▁પાસાં	-12111
▁પેરિસ	-12112
▁પેશાબ	-12113
▁પોકાર	-12114
▁પ્રકા	-12115
▁પ્રબળ	-12116
▁પ્રસા	-12117
▁પ્લીઝ	-12118
▁ફર્ના	-12119
▁ફાંસી	-12120
▁ફ્રાય	-12121
▁બળવાન	-12122
▁બિલના	-12123
▁મંડળી	-12124
▁મર્ડર	-12125
▁માંગુ	-12126
▁માનીએ	-12127
▁મોડું	-12128
▁રમાશે	-12129
▁વખતની	-12130
▁વધુની	-12131
▁વર્મા	-12132
▁વલ્લભ	-12133
▁વિનોદ	-12134
▁વિરામ	-12135
▁વેરિય	-12136
▁વ્યકત	-12137
▁વ્હીલ	-12138
▁શકયતા	-12139
▁શિસ્ત	-12140
▁શીખીએ	-12141
▁સહાનુ	-12142
▁સાયબર	-12143
▁સિક્સ	-12144
▁સિન્ડ	-12145
▁સેલ્સ	-12146
▁હારનો	-12147
▁હાર્ડ	-12148
lection	-12149
જનાત્મક	-12150
મેન્ટના	-12151
મ્બરમાં	-12152
રુત્થાન	-12153
વેન્દ્ર	-12154
▁અંગ્રે	-12155
▁અનુસરો	-12156
▁અનૈતિક	-12157
▁અમરનાથ	-12158
▁અરજીને	-12159
▁અસ્થિર	-12160
▁આગોતરા	-12161
▁આજ્ઞાઓ	-12162
▁આરોપીએ	-12163
▁આવવાના	-12164
▁ઇચ્છાઓ	-12165
▁ઇન્કાર	-12166
▁એક્ઝિટ	-12167
▁એક્સેસ	-12168
▁એનઆરસી	-12169
▁એસ્ટેટ	-12170
▁કપૂરને	-12171
▁કાનપુર	-12172
▁કિનારા	-12173
▁કોલિંગ	-12174
▁કોષ્ટક	-12175
▁ખાતેની	-12176
▁ઘૂસણખો	-12177
▁ચલાવવા	-12178
▁ચાઇનીઝ	-12179
▁ચાલીને	-12180
▁ચાલ્યો	-12181
▁ચોકીબુ	-12182
▁જાગૃતિ	-12183
▁જીવલેણ	-12184
▁જોધપુર	-12185
▁જોહરની	-12186
▁ટામેટા	-12187
▁ટોળાને	-12188
▁ટ્રિપલ	-12189
▁ઠાકરેએ	-12190
▁તૃણમૂલ	-12191
▁તેલમાં	-12192
▁દરવાજો	-12193
▁દિવસને	-12194
▁દેશમુખ	-12195
▁નામનું	-12196
▁નિયામક	-12197
▁પર્વતો	-12198
▁પાંદડા	-12199
▁પીડીપી	-12200
▁પૂર્વક	-12201
▁પ્રવચન	-12202
▁ફાઉન્ડ	-12203
▁ફોસ્ફર	-12204
▁ફ્લક્સ	-12205
▁બતાવવા	-12206
▁બર્થડે	-12207
▁બેકિંગ	-12208
▁ભ્રષ્ટ	-12209
▁મંડળની	-12210
▁મદ્રાસ	-12211
▁માથાનો	-12212
▁માપદંડ	-12213
▁મૃતકના	-12214
▁રહેતું	-12215
▁લાગેલી	-12216
▁લાવ્યા	-12217
▁વાગ્યે	-12218
▁વાતમાં	-12219
▁શબ્દનો	-12220
▁શોધમાં	-12221
▁સંગઠને	-12222
▁સંબંધે	-12223
▁સમન્વય	-12224
▁સાનિયા	-12225
▁સિદ્ધુ	-12226
▁સેંકડો	-12227
▁સેમ્પલ	-12228
▁હાલનાં	-12229
▁Gujarat	-12230
▁અનુભવું	-12231
▁અબ્રાહમ	-12232
▁અરુણાચલ	-12233
▁આકર્ષિત	-12234
▁આકસ્મિક	-12235
▁આસામમાં	-12236
▁કલાકમાં	-12237
▁ક્રાંતિ	-12238
▁ક્રિસમસ	-12239
▁ઘરમાંથી	-12240
▁ચૂંટાયા	-12241
▁જીત્યું	-12242
▁જીવનનું	-12243
▁જોખમમાં	-12244
▁ટાર્ગેટ	-12245
▁તહેવારો	-12246
▁ત્યાંની	-12247
▁દ્રાક્ષ	-12248
▁ધરાશાયી	-12249
▁નિરાકરણ	-12250
▁નિષ્ણાત	-12251
▁નેગેટિવ	-12252
▁પહોંચવા	-12253
▁પાર્ટીઓ	-12254
▁પ્રવાસન	-12255
▁બનવાનું	-12256
▁બાળકનું	-12257
▁ભૂકંપના	-12258
▁મતવિસ્ત	-12259
▁મહેબૂબા	-12260
▁મારામાં	-12261
▁માર્ટિન	-12262
▁રવિશંકર	-12263
▁રાખવાનો	-12264
▁રોજિંદા	-12265
▁લડાઈમાં	-12266
▁વાણિજ્ય	-12267
▁વાયરલેસ	-12268
▁વિકાસને	-12269
▁વિશ્વને	-12270
▁શાંતિથી	-12271
▁સંતુષ્ટ	-12272
▁સમજાવવા	-12273
▁સોસાયટી	-12274
▁સૌભાગ્ય	-12275
▁સ્ક્રિન	-12276
▁સ્વરાજે	-12277
▁સ્વરૂપો	-12278
▁હત્યાની	-12279
▁હોલિવૂડ	-12280
▁અંદાજમાં	-12281
▁અનિશ્ચિત	-12282
▁અમદાવાદઃ	-12283
▁ઈનિંગમાં	-12284
▁ઈન્ડિયાએ	-12285
▁ઈન્સ્ટિટ	-12286
▁ઉત્કૃષ્ટ	-12287
▁કંપનીઓના	-12288
▁કાશ્મીરી	-12289
▁કુટુંબના	-12290
▁ખ્રિસ્તે	-12291
▁ગેરફાયદા	-12292
▁ટ્રિલિયન	-12293
▁તરફેણમાં	-12294
▁દર્શકોને	-12295
▁દાયકામાં	-12296
▁નિષ્કર્ષ	-12297
▁પરીક્ષણો	-12298
▁પૃથ્વીના	-12299
▁ફટકાર્યા	-12300
▁બાળકોનું	-12301
▁માછીમારી	-12302
▁મ્યાનમાર	-12303
▁વાટાઘાટો	-12304
▁વિકાસશીલ	-12305
▁સર્વાધિક	-12306
▁સીતારમણે	-12307
▁સુવાર્તા	-12308
▁સૈનિકોને	-12309
▁સ્ક્રિપ્	-12310
▁સ્પેશ્યલ	-12311
▁અભૂતપૂર્વ	-12312
▁આસિસ્ટન્ટ	-12313
▁ઉદ્યોગપતિ	-12314
▁કૌભાંડમાં	-12315
▁ખ્રિસ્તની	-12316
▁ઝારખંડમાં	-12317
▁ટુકડાઓમાં	-12318
▁તંદુરસ્તી	-12319
▁પુસ્તકમાં	-12320
▁પ્રાકૃતિક	-12321
▁યહોવાહમાં	-12322
▁સમારંભમાં	-12323
▁સહાનુભૂતિ	-12324
▁આદાનપ્રદાન	-12325
▁ઇલેક્ટ્રિક	-12326
▁કામગીરીમાં	-12327
▁ગોળીબારમાં	-12328
▁પ્રતિબંધિત	-12329
▁મંત્રીમંડળ	-12330
▁મ્યુચ્યુઅલ	-12331
▁રાજીનામાની	-12332
▁વડાપ્રધાને	-12333
▁વ્યૂહાત્મક	-12334
▁એમ્બ્યુલન્સ	-12335
▁ટ્રાન્સમિશન	-12336
▁ન્યાયમૂર્તિ	-12337
▁હૈદરાબાદમાં	-12338
▁ઉદ્યોગસાહસિક	-12339
▁ઓસ્ટ્રેલિયાએ	-12340
▁મુખ્યમંત્રીઓ	-12341
▁કોંગ્રેસમાંથી	-12342
14	-12343
18	-12344
68	-12345
70	-12346
BC	-12347
IT	-12348
ME	-12349
NC	-12350
TV	-12351
ma	-12352
ઉલ	-12353
ગૃ	-12354
જત	-12355
થર	-12356
દત	-12357
ધે	-12358
બધ	-12359
ભવ	-12360
મલ	-12361
યડ	-12362
લલ	-12363
િઓ	-12364
િદ	-12365
ૂથ	-12366
૫૦	-12367
▁x	-12368
.25	-12369
ain	-12370
eat	-12371
ers	-12372
ure	-12373
ઈંગ	-12374
એસએ	-12375
કથી	-12376
ગડે	-12377
ગરમ	-12378
ચડી	-12379
જવા	-12380
જિન	-12381
જૂન	-12382
જોત	-12383
જોય	-12384
ઝકી	-12385
ઝાન	-12386
નિશ	-12387
પિન	-12388
પ્ટ	-12389
બધા	-12390
બરૂ	-12391
માઈ	-12392
મૂળ	-12393
રૂં	-12394
ર્ત	-12395
લાએ	-12396
લોન	-12397
સાણ	-12398
સીન	-12399
સૈન	-12400
ાવટ	-12401
િને	-12402
▁66	-12403
▁95	-12404
▁FI	-12405
▁આળ	-12406
▁કન	-12407
▁ઝિ	-12408
▁ઢગ	-12409
▁પછ	-12410
▁બલ	-12411
▁વડ	-12412
▁હૂ	-12413
▁૪૮	-12414
▁₹2	-12415
CICI	-12416
આપણે	-12417
એસઆઈ	-12418
ક્રા	-12419
ક્સે	-12420
ગાંઠ	-12421
ગારે	-12422
ચલિત	-12423
ચાલી	-12424
ઝિયા	-12425
ટર્સ	-12426
ટેલા	-12427
ટેશન	-12428
ડાવી	-12429
તિને	-12430
તેને	-12431
દિલી	-12432
દ્યા	-12433
ન્નુ	-12434
પ્રિ	-12435
ફ્લો	-12436
બમાં	-12437
બીસી	-12438
માલા	-12439
મેંટ	-12440
મ્યા	-12441
ર્મિ	-12442
વાયુ	-12443
સરથી	-12444
સરની	-12445
સિટી	-12446
સીએસ	-12447
સ્થી	-12448
િંગર	-12449
્યોર	-12450
્રાજ	-12451
્રોમ	-12452
્સના	-12453
▁અડચ	-12454
▁અમી	-12455
▁અરી	-12456
▁અવર	-12457
▁આમા	-12458
▁આશિ	-12459
▁ઇમ્	-12460
▁ઈડી	-12461
▁ઉઘા	-12462
▁એકમ	-12463
▁એકર	-12464
▁કાઈ	-12465
▁કુર	-12466
▁ખાં	-12467
▁ગંગ	-12468
▁જના	-12469
▁જિત	-12470
▁ઝાપ	-12471
▁ઝેર	-12472
▁ટેલ	-12473
▁ડામ	-12474
▁ડેમ	-12475
▁તબા	-12476
▁તળે	-12477
▁દહે	-12478
▁દૂત	-12479
▁નકા	-12480
▁નવલ	-12481
▁નિખ	-12482
▁પદો	-12483
▁પલટ	-12484
▁પીપ	-12485
▁ફિલ	-12486
▁ફીડ	-12487
▁બાફ	-12488
▁ભાત	-12489
▁ભુમ	-12490
▁મેલ	-12491
▁યંગ	-12492
▁રાઘ	-12493
▁લખો	-12494
▁લડત	-12495
▁વંચ	-12496
▁વરસ	-12497
▁વેડ	-12498
▁શિક	-12499
▁સક્	-12500
▁સદ્	-12501
▁સયા	-12502
▁હેટ	-12503
કાનું	-12504
જિયાત	-12505
જિસ્ટ	-12506
ટલમાં	-12507
ન્સના	-12508
પુર્ણ	-12509
બેડકર	-12510
બ્દિક	-12511
લલિતા	-12512
વણમાં	-12513
વાસ્ત	-12514
સ્ટાઇ	-12515
િટિશન	-12516
િયર્સ	-12517
▁1000	-12518
▁2004	-12519
▁CRPF	-12520
▁અંતઃ	-12521
▁અજીબ	-12522
▁આઇપી	-12523
▁આર્ક	-12524
▁ઈડીએ	-12525
▁ઉમદા	-12526
▁ઓફીસ	-12527
▁કરંટ	-12528
▁કામે	-12529
▁કોમો	-12530
▁ક્લે	-12531
▁ખૂબજ	-12532
▁ગોરખ	-12533
▁ગ્રહ	-12534
▁ચપટી	-12535
▁ચાવી	-12536
▁છૂટી	-12537
▁જબરજ	-12538
▁જાગી	-12539
▁જાપા	-12540
▁જોશે	-12541
▁જોશો	-12542
▁ઝડપે	-12543
▁ઝોયા	-12544
▁ટાઇલ	-12545
▁ટીઆર	-12546
▁ડોમે	-12547
▁તાજી	-12548
▁તેનુ	-12549
▁થઇને	-12550
▁દર્દ	-12551
▁નાખે	-12552
▁નિકો	-12553
▁નોકર	-12554
▁પદની	-12555
▁પહોચ	-12556
▁પાકો	-12557
▁પાટન	-12558
▁પિસ્	-12559
▁પેરે	-12560
▁પ્રૉ	-12561
▁ફરતા	-12562
▁ફેંસ	-12563
▁બસના	-12564
▁બસની	-12565
▁બાબુ	-12566
▁બાલન	-12567
▁ભણાવ	-12568
▁ભૂરા	-12569
▁મલ્ટ	-12570
▁મશરૂ	-12571
▁રહું	-12572
▁રાજે	-12573
▁રાઠો	-12574
▁વસંત	-12575
▁વાગી	-12576
▁વિરૃ	-12577
▁સગવડ	-12578
▁સબસિ	-12579
▁સાચુ	-12580
▁સીએએ	-12581
▁સુખા	-12582
▁સૌનો	-12583
▁હેરી	-12584
▁હોશી	-12585
ંત્રિક	-12586
કર્મીઓ	-12587
કોમર્સ	-12588
દિલ્હી	-12589
દ્વારા	-12590
ન્ડર્ડ	-12591
મેન્ટે	-12592
વાયેલી	-12593
સંખ્યા	-12594
્રોનિક	-12595
▁ICICI	-12596
▁અંજામ	-12597
▁અખબાર	-12598
▁અત્રે	-12599
▁અપરાધ	-12600
▁અશ્વિ	-12601
▁આપતું	-12602
▁આસ્થા	-12603
▁ઈકોનો	-12604
▁ઉજવાય	-12605
▁ઓબેરો	-12606
▁ઓળખવા	-12607
▁કરાયુ	-12608
▁કામને	-12609
▁કેપિટ	-12610
▁કેસનો	-12611
▁ક્યૂટ	-12612
▁ક્રેશ	-12613
▁ખંડપી	-12614
▁ખરીદો	-12615
▁ખસેડી	-12616
▁ખિતાબ	-12617
▁ખુશીઓ	-12618
▁ગુજરી	-12619
▁ગેસ્ટ	-12620
▁ગ્રેટ	-12621
▁ગ્રોથ	-12622
▁ઘરેથી	-12623
▁ઘોષિત	-12624
▁ચાર્ટ	-12625
▁ચાલતો	-12626
▁ચૂકવી	-12627
▁છગ્ગા	-12628
▁જાગતા	-12629
▁જાણતો	-12630
▁ઝાંખી	-12631
▁ટીપ્સ	-12632
▁ટોળાં	-12633
▁ઠંડું	-12634
▁ડાર્ક	-12635
▁ડેબિટ	-12636
▁થનારા	-12637
▁દરમાં	-12638
▁નક્કર	-12639
▁નામને	-12640
▁ન્યૂન	-12641
▁પારખી	-12642
▁પીયૂષ	-12643
▁પુષ્પ	-12644
▁પૂછતા	-12645
▁પૂરાં	-12646
▁પ્યાર	-12647
▁ફિંગર	-12648
▁ફિક્સ	-12649
▁બરબાદ	-12650
▁બહેને	-12651
▁ભરેલી	-12652
▁ભાઈઓએ	-12653
▁ભિન્ન	-12654
▁ભોગવી	-12655
▁માતાએ	-12656
▁મિનિટ	-12657
▁મિસાઈ	-12658
▁મેકઅપ	-12659
▁રસાયણ	-12660
▁રાંચી	-12661
▁રિવાજ	-12662
▁રૂપથી	-12663
▁લાકડી	-12664
▁વટાણા	-12665
▁વધવું	-12666
▁વાઇરસ	-12667
▁શીર્ષ	-12668
▁શૂન્ય	-12669
▁શેર્સ	-12670
▁સંમતિ	-12671
▁સદસ્ય	-12672
▁સુચના	-12673
▁સ્ટેચ	-12674
Comment	-12675
પોર્ટના	-12676
મર્યાદા	-12677
▁અનુરોધ	-12678
▁અભિવ્ય	-12679
▁અસંતોષ	-12680
▁આંખમાં	-12681
▁આઈસીઆઈ	-12682
▁આદેશને	-12683
▁આસારામ	-12684
▁ઈન્કાર	-12685
▁એડમિશન	-12686
▁કટાક્ષ	-12687
▁કરાવશે	-12688
▁કાઉન્ટ	-12689
▁કારણથી	-12690
▁કાર્બન	-12691
▁કિરદાર	-12692
▁કેટલીય	-12693
▁કેનેડા	-12694
▁કોમર્સ	-12695
▁ખરીદવા	-12696
▁ખેડુતો	-12697
▁ચુકાદા	-12698
▁ચૂકવવા	-12699
▁ચોગ્ગા	-12700
▁છોડ્યા	-12701
▁જાણીતો	-12702
▁જાતિના	-12703
▁જેટલીએ	-12704
▁જોવાની	-12705
▁ઝોનમાં	-12706
▁ટેન્શન	-12707
▁ઠેરઠેર	-12708
▁ડ્રામા	-12709
▁તકનીકી	-12710
▁તાકીદે	-12711
▁તેટલું	-12712
▁દરેકના	-12713
▁દુર્ગા	-12714
▁દુર્લભ	-12715
▁દેવનું	-12716
▁દોસ્તો	-12717
▁નૌસેના	-12718
▁પટેલને	-12719
▁પાછળની	-12720
▁પાડીને	-12721
▁પાડોશી	-12722
▁પિક્સલ	-12723
▁પુષ્ટી	-12724
▁પોર્ટલ	-12725
▁પ્રશંસ	-12726
▁ફટાકડા	-12727
▁ફુવારો	-12728
▁બનાવથી	-12729
▁બુકિંગ	-12730
▁બેઠકથી	-12731
▁બોર્ડર	-12732
▁બ્રાઝી	-12733
▁ભવનમાં	-12734
▁મંતવ્ય	-12735
▁મકાનની	-12736
▁મજબૂતી	-12737
▁મમ્મીએ	-12738
▁મહત્વા	-12739
▁મહિનાઓ	-12740
▁માંગું	-12741
▁માધુરી	-12742
▁માનવીય	-12743
▁મુક્યો	-12744
▁મોકલવા	-12745
▁યોદ્ધા	-12746
▁રણનીતિ	-12747
▁રાંધવા	-12748
▁રાજાની	-12749
▁રાહુલે	-12750
▁રેશિયો	-12751
▁લોકડાઉ	-12752
▁વચગાળા	-12753
▁વડીલોએ	-12754
▁વિનિમય	-12755
▁વિલિયમ	-12756
▁શીખવું	-12757
▁સંતુલન	-12758
▁સચ્ચાઈ	-12759
▁સેવાના	-12760
▁સ્ટ્રે	-12761
▁સ્તબ્ધ	-12762
▁સ્થાનો	-12763
▁સ્નાયુ	-12764
કાર્યમાં	-12765
▁અભિવાદન	-12766
▁આયુર્વે	-12767
▁આવકવેરા	-12768
▁ઇન્ટરનલ	-12769
▁એકત્રિત	-12770
▁ઓફિસમાં	-12771
▁ઔપચારિક	-12772
▁કર્તવ્ય	-12773
▁કૃત્રિમ	-12774
▁ચર્ચાનો	-12775
▁ચાંદીના	-12776
▁જયલલિતા	-12777
▁જીતનારી	-12778
▁ટેલિફોન	-12779
▁તંગદિલી	-12780
▁તેનામાં	-12781
▁દર્દીને	-12782
▁દાનીયેલ	-12783
▁દિવસનું	-12784
▁દીપિકાએ	-12785
▁દેખાતું	-12786
▁નવેમ્બર	-12787
▁નિવૃત્ત	-12788
▁નીકળ્યા	-12789
▁પરિમાણો	-12790
▁પરિશ્રમ	-12791
▁પહેલાની	-12792
▁પુત્રને	-12793
▁પ્રેમને	-12794
▁ફાંસીની	-12795
▁ફિલ્મમે	-12796
▁બાઉલમાં	-12797
▁બાબતોની	-12798
▁બાળકીના	-12799
▁બાળકોનો	-12800
▁બેન્કના	-12801
▁ભત્રીજા	-12802
▁ભાષણમાં	-12803
▁મધ્યસ્થ	-12804
▁મળવાનું	-12805
▁માંડીને	-12806
▁મામલાને	-12807
▁મિનિસ્ટ	-12808
▁મુઝફ્ફર	-12809
▁યુદ્ધની	-12810
▁યોજનાની	-12811
▁રહેવાના	-12812
▁રાખવાથી	-12813
▁લાઇબ્રે	-12814
▁લાઇસન્સ	-12815
▁લાભદાયક	-12816
▁વધવાનું	-12817
▁વાંચીને	-12818
▁વિચારતા	-12819
▁વિજયભાઇ	-12820
▁વિન્ડોઝ	-12821
▁વિમાનને	-12822
▁શક્તિથી	-12823
▁શબ્દોથી	-12824
▁શરૂઆતના	-12825
▁શાબ્દિક	-12826
▁સંતુલિત	-12827
▁સમિતિના	-12828
▁સર્જાયા	-12829
▁સર્જિકલ	-12830
▁સામ્રાજ	-12831
▁સિક્કિમ	-12832
▁સુધારણા	-12833
▁સેલેબ્સ	-12834
▁સ્ટ્રેસ	-12835
▁સ્ટ્રોક	-12836
▁સ્વાર્થ	-12837
▁હુમલાનો	-12838
▁હેલ્થકે	-12839
▁હેલ્મેટ	-12840
▁અત્યાચાર	-12841
▁આનંદીબેન	-12842
▁આમંત્રિત	-12843
▁આરોગ્યની	-12844
▁ઇન્સ્ટોલ	-12845
▁ઉપસ્થિતિ	-12846
▁એનાલિસ્ટ	-12847
▁એશ્વર્યા	-12848
▁એસોસિએશન	-12849
▁ઓડિશામાં	-12850
▁કંપનીઓની	-12851
▁કુટુંબની	-12852
▁ક્વાર્ટર	-12853
▁ચિંતામાં	-12854
▁જણાવાયું	-12855
▁પાર્ટીશન	-12856
▁પૂરેપૂરી	-12857
▁પ્રતિબિં	-12858
▁ફાઈનલમાં	-12859
▁ફિલ્મનાં	-12860
▁ફોર્મમાં	-12861
▁બીજેપીને	-12862
▁ભવિષ્યની	-12863
▁મહાનુભાવ	-12864
▁મેળવવાની	-12865
▁મોટાભાગે	-12866
▁રસ્તામાં	-12867
▁રાજ્યનાં	-12868
▁રાસાયણિક	-12869
▁રિપબ્લિક	-12870
▁વિચારોથી	-12871
▁વેન્ટિલે	-12872
▁શિક્ષણને	-12873
▁સિસ્ટમને	-12874
▁સ્ટ્રાઈક	-12875
▁અકસ્માતનો	-12876
▁એજ્યુકેશન	-12877
▁ગિયરબોક્સ	-12878
▁ગેરમાર્ગે	-12879
▁જાનહાનિના	-12880
▁નિરાશાજનક	-12881
▁પેટ્રોલના	-12882
▁પ્રકાશમાં	-12883
▁બાંધવામાં	-12884
▁બિઝનેસમાં	-12885
▁યિર્મેયાહ	-12886
▁રોગપ્રતિક	-12887
▁લોન્ડરિંગ	-12888
▁વિસ્તારથી	-12889
▁સંકળાયેલી	-12890
▁સમજાવ્યું	-12891
▁સારવારમાં	-12892
▁ઇંગ્લેન્ડે	-12893
▁કોરિયોગ્રા	-12894
▁ચૂંટણીઓમાં	-12895
▁ત્રાસવાદીઓ	-12896
▁ધારાસભ્યોએ	-12897
▁નવાઝુદ્દીન	-12898
▁પુનરુત્થાન	-12899
▁મંત્રાલયની	-12900
▁મોટરસાયકલો	-12901
▁રાજનીતિમાં	-12902
▁વિસ્ફોટમાં	-12903
▁સર્જનાત્મક	-12904
▁સ્ટાન્ડર્ડ	-12905
▁સ્વાસ્થ્યઃ	-12906
▁અર્થતંત્રને	-12907
▁ક્વાર્ટરમાં	-12908
▁પ્રતિભાશાળી	-12909
▁પ્રોજેક્ટની	-12910
▁બેકગ્રાઉન્ડ	-12911
▁રેફ્રિજરેટર	-12912
▁સ્વાસ્થ્યને	-12913
▁કાર્યવાહીમાં	-12914
▁કેન્દ્રશાસિત	-12915
▁ટ્રાન્સપોર્ટ	-12916
▁ટ્રાન્સફોર્મ	-12917
▁પ્રતિનિધિમંડ	-12918
▁વિદ્યાર્થિની	-12919
▁ઉપમુખ્યમંત્રી	-12920
▁ઓસ્ટ્રેલિયાની	-12921
▁કાર્યક્રમોનું	-12922
-8	-12923
1)	-12924
DA	-12925
ED	-12926
SS	-12927
TP	-12928
ap	-12929
li	-12930
og	-12931
ut	-12932
અન	-12933
ઓન	-12934
ખમ	-12935
ફટ	-12936
બસ	-12937
રબ	-12938
વચ	-12939
ીઓ	-12940
ેય	-12941
્ધ	-12942
‍ય	-12943
▁j	-12944
,""	-12945
BSI	-12946
ood	-12947
ંકો	-12948
ંગ્	-12949
અનુ	-12950
આજે	-12951
ગધી	-12952
ગુજ	-12953
ટાઉ	-12954
ણિત	-12955
દિપ	-12956
દીન	-12957
પડી	-12958
પદે	-12959
પીટ	-12960
પેશ	-12961
પોલ	-12962
બકા	-12963
બરા	-12964
બાજ	-12965
બાન	-12966
બાપ	-12967
ભ્ર	-12968
મકી	-12969
રીશ	-12970
લાઓ	-12971
લીએ	-12972
વંશ	-12973
ષાર	-12974
સંપ	-12975
સીઝ	-12976
હિબ	-12977
હીએ	-12978
ામક	-12979
ામણ	-12980
ાયુ	-12981
ેરી	-12982
ોડી	-12983
▁()	-12984
▁1⁄	-12985
▁53	-12986
▁58	-12987
▁61	-12988
▁Am	-12989
▁UN	-12990
▁ઉણ	-12991
▁એઈ	-12992
▁ઓહ	-12993
▁તડ	-12994
▁ફફ	-12995
▁યસ	-12996
▁રફ	-12997
▁લૅ	-12998
ંદરે	-12999
ચારા	-13000
જાતિ	-13001
ટાની	-13002
ડિટી	-13003
તમંદ	-13004
તારા	-13005
ત્વો	-13006
થ્થી	-13007
દરેક	-13008
દેવે	-13009
ધ્ધિ	-13010
નેરી	-13011
ન્ટો	-13012
ન્ની	-13013
પાયા	-13014
પીને	-13015
બહાર	-13016
યોજન	-13017
રીયલ	-13018
ર્નર	-13019
લાંગ	-13020
લિની	-13021
લ્સે	-13022
વાસો	-13023
શ્નર	-13024
સાલો	-13025
હાઉસ	-13026
િકરણ	-13027
્સનો	-13028
૪માં	-13029
૫માં	-13030
▁1/4	-13031
▁અભય	-13032
▁આબે	-13033
▁ઉગા	-13034
▁ઊતર	-13035
▁એવુ	-13036
▁કણક	-13037
▁કમી	-13038
▁કિટ	-13039
▁કૂદ	-13040
▁કેફ	-13041
▁કોપ	-13042
▁ગોદ	-13043
▁ઘરો	-13044
▁ચંદ	-13045
▁ચાઈ	-13046
▁છાં	-13047
▁જિઓ	-13048
▁ટોમ	-13049
▁થાં	-13050
▁દખલ	-13051
▁ધણી	-13052
▁નાટ	-13053
▁પદા	-13054
▁ફેડ	-13055
▁બચે	-13056
▁બલ્	-13057
▁બાગ	-13058
▁બેલ	-13059
▁યૌન	-13060
▁રિએ	-13061
▁રેસ	-13062
▁લઉં	-13063
▁વરા	-13064
▁વેટ	-13065
▁સમૂ	-13066
▁સાપ	-13067
▁હરભ	-13068
▁૧૯૩	-13069
કમાટી	-13070
ક્ટના	-13071
જામાં	-13072
ઝનમાં	-13073
ટિક્સ	-13074
ટુંબી	-13075
ટેલિજ	-13076
તમારા	-13077
નીમાં	-13078
નોનું	-13079
ન્ટિક	-13080
ન્ડીઝ	-13081
ન્વિત	-13082
બીમાં	-13083
મોશનલ	-13084
રપ્પા	-13085
ર્ગીય	-13086
લાયતી	-13087
વર્ષા	-13088
વિષ્ટ	-13089
સામાન	-13090
સ્ટીટ	-13091
િયાને	-13092
્રાઇક	-13093
▁1500	-13094
▁2006	-13095
▁અંદા	-13096
▁અણનમ	-13097
▁અલ્ટ	-13098
▁અસ્વ	-13099
▁આકરો	-13100
▁આટલો	-13101
▁આદર્	-13102
▁આલોક	-13103
▁આસાન	-13104
▁ઈમાર	-13105
▁ઉમેશ	-13106
▁એંગલ	-13107
▁એકને	-13108
▁એમએમ	-13109
▁કમજો	-13110
▁કરૂણ	-13111
▁કહીશ	-13112
▁કાપો	-13113
▁કાશી	-13114
▁કોટક	-13115
▁કોલો	-13116
▁ખતરા	-13117
▁ગણના	-13118
▁ચળવળ	-13119
▁જાઉં	-13120
▁જાદુ	-13121
▁જીતે	-13122
▁જીરુ	-13123
▁જુલમ	-13124
▁જોનસ	-13125
▁ઝઘડા	-13126
▁ટર્ન	-13127
▁ડમ્પ	-13128
▁ડીસી	-13129
▁ડેરા	-13130
▁ઢાંક	-13131
▁તાબડ	-13132
▁તૈમુ	-13133
▁દબંગ	-13134
▁દિપક	-13135
▁દુખા	-13136
▁ધરવા	-13137
▁ધ્વજ	-13138
▁નર્સ	-13139
▁નહતા	-13140
▁નહતો	-13141
▁નીચા	-13142
▁નીતા	-13143
▁નીવડ	-13144
▁નેહા	-13145
▁પઠાણ	-13146
▁પીએસ	-13147
▁પુતિ	-13148
▁પેન્	-13149
▁બનતો	-13150
▁બાઉલ	-13151
▁બેચે	-13152
▁બેઠી	-13153
▁બેથે	-13154
▁બેની	-13155
▁બોબી	-13156
▁મત્સ	-13157
▁માણે	-13158
▁માથે	-13159
▁મીખા	-13160
▁મેલા	-13161
▁મોતી	-13162
▁યુગલ	-13163
▁રચવા	-13164
▁રમાઈ	-13165
▁રમેશ	-13166
▁રાધન	-13167
▁લગાડ	-13168
▁લાંચ	-13169
▁લાઇવ	-13170
▁લેખો	-13171
▁લોકલ	-13172
▁વસતી	-13173
▁વાંસ	-13174
▁વાઇસ	-13175
▁વારો	-13176
▁વિદ્	-13177
▁વિયે	-13178
▁વેરો	-13179
▁શાર્	-13180
▁સંકો	-13181
▁સલીમ	-13182
▁સુકા	-13183
▁સુલભ	-13184
▁સેટે	-13185
▁સેનન	-13186
▁સેરે	-13187
▁સૌની	-13188
▁સ્ક્	-13189
▁હિરો	-13190
ujarat	-13191
કોટમાં	-13192
ત્રિના	-13193
દાસ્પદ	-13194
નોવેશન	-13195
બિલિટી	-13196
મેશ્વર	-13197
ર્નિંગ	-13198
વર્ધને	-13199
િટિક્સ	-13200
▁અકબંધ	-13201
▁અક્ષર	-13202
▁અપાયો	-13203
▁અફસોસ	-13204
▁અભ્યા	-13205
▁અલ્લા	-13206
▁આવવું	-13207
▁ઈરફાન	-13208
▁ઉકેલો	-13209
▁એકેડે	-13210
▁એરલાઇ	-13211
▁એરિયા	-13212
▁કટ્ટર	-13213
▁કરાતા	-13214
▁કસ્ટમ	-13215
▁કિશોર	-13216
▁કૂતરા	-13217
▁કેદની	-13218
▁ક્રોધ	-13219
▁ખોલવા	-13220
▁ગુનાઓ	-13221
▁ગુલામ	-13222
▁ઘટાડી	-13223
▁ઘરનું	-13224
▁ઘવાયા	-13225
▁ઘાસના	-13226
▁ચોંકી	-13227
▁જવાબી	-13228
▁જિજ્ઞ	-13229
▁જોડાય	-13230
▁જોરશો	-13231
▁ડ્રીમ	-13232
▁તકરાર	-13233
▁તમારુ	-13234
▁તારણો	-13235
▁તુષાર	-13236
▁દબાવો	-13237
▁દિકરા	-13238
▁દેવનો	-13239
▁ધર્મા	-13240
▁નવજોત	-13241
▁નીતીશ	-13242
▁પાડયો	-13243
▁પાર્ટ	-13244
▁પાસું	-13245
▁ફર્નિ	-13246
▁ફ્લેશ	-13247
▁બધાનો	-13248
▁બહોળી	-13249
▁બાકાત	-13250
▁બિમાર	-13251
▁ભાગલા	-13252
▁મતભેદ	-13253
▁મસાલો	-13254
▁મહાસં	-13255
▁મહિનો	-13256
▁માણસે	-13257
▁મારવા	-13258
▁મોરચે	-13259
▁મોસ્ટ	-13260
▁રસ્તે	-13261
▁રિતિક	-13262
▁લડ્યા	-13263
▁વખતના	-13264
▁વધુને	-13265
▁વળીને	-13266
▁શ્યામ	-13267
▁સંઘના	-13268
▁સનરાઇ	-13269
▁સમયને	-13270
▁સહેવા	-13271
▁સુગંધ	-13272
▁સુશીલ	-13273
▁સ્કેટ	-13274
▁સ્તંભ	-13275
▁હાથથી	-13276
▁હૃતિક	-13277
▁હેગડે	-13278
▁હેતુઓ	-13279
▁હ્રદય	-13280
અમેરિકા	-13281
મેન્ટ્સ	-13282
▁20,000	-13283
▁અગ્નિશ	-13284
▁અનુસરે	-13285
▁અન્યથા	-13286
▁અપનાવી	-13287
▁અર્જૂન	-13288
▁અવલોકન	-13289
▁અશુદ્ધ	-13290
▁અસંખ્ય	-13291
▁આઈપીએલ	-13292
▁આઉટપુટ	-13293
▁આવામાં	-13294
▁આસમાને	-13295
▁ઈસુનું	-13296
▁એક્ઝિક	-13297
▁એન્જોય	-13298
▁એપિસોડ	-13299
▁એસોસિય	-13300
▁કપૂરનો	-13301
▁કમલનાથ	-13302
▁કમાન્ડ	-13303
▁કૅથલિક	-13304
▁કોઈનું	-13305
▁ક્રાઇમ	-13306
▁ક્રાઈમ	-13307
▁ખુશીથી	-13308
▁ખેંચતા	-13309
▁ગઇકાલે	-13310
▁ગોઠવણી	-13311
▁ઘાસમાં	-13312
▁ચર્ચના	-13313
▁ચાલકને	-13314
▁ચિંતાઓ	-13315
▁ચેન્નઇ	-13316
▁છૂટ્યા	-13317
▁જાણતું	-13318
▁ડ્યુટી	-13319
▁તમામની	-13320
▁તેઓનાં	-13321
▁ત્રિવે	-13322
▁દિવંગત	-13323
▁દેવાની	-13324
▁ધ્યેયો	-13325
▁નવલકથા	-13326
▁નિફ્ટી	-13327
▁પક્ષની	-13328
▁પડોશીઓ	-13329
▁પરિજનો	-13330
▁પરીવાર	-13331
▁પશ્વિમ	-13332
▁પાટનગર	-13333
▁પુરૂષો	-13334
▁પૂર્વી	-13335
▁પોર્ટુ	-13336
▁બધામાં	-13337
▁બન્યાં	-13338
▁બપોરના	-13339
▁બાદશાહ	-13340
▁બાફેલી	-13341
▁બાબેલો	-13342
▁બાળકનો	-13343
▁બ્રિટી	-13344
▁ભાઈઓને	-13345
▁ભાવનગર	-13346
▁ભાષાની	-13347
▁માંજરે	-13348
▁માલદીવ	-13349
▁મિટિંગ	-13350
▁મુખરજી	-13351
▁મુલાયમ	-13352
▁મેક્રો	-13353
▁મેડીકલ	-13354
▁મેળવશે	-13355
▁મોતનું	-13356
▁યાદવના	-13357
▁યુક્રે	-13358
▁યુનિટી	-13359
▁યુવકને	-13360
▁યુવતીએ	-13361
▁રાજદૂત	-13362
▁રિકવરી	-13363
▁લૉકડાઉ	-13364
▁લોહીના	-13365
▁શકાતું	-13366
▁શેમ્પૂ	-13367
▁સપ્તાહ	-13368
▁સમજાવે	-13369
▁સર્જાઇ	-13370
▁સાધ્વી	-13371
▁સિંચાઈ	-13372
▁સુંગધી	-13373
▁સુધારી	-13374
▁સુવર્ણ	-13375
▁સુસંગત	-13376
▁સૃષ્ટિ	-13377
▁સેનાને	-13378
▁સેવિંગ	-13379
▁સ્ટાઇલ	-13380
▁સ્પર્શ	-13381
▁હંગામો	-13382
▁હકીકતો	-13383
▁હનુમાન	-13384
▁હરીફાઈ	-13385
▁હાડકાં	-13386
મેન્ટમાં	-13387
સ્ટ્રેશન	-13388
▁gujarat	-13389
▁આરોપમાં	-13390
▁ઇક્વિટી	-13391
▁ઓસ્ટ્રે	-13392
▁કંપનીને	-13393
▁કનેક્શન	-13394
▁કમકમાટી	-13395
▁કાયદાના	-13396
▁કાયદાને	-13397
▁કાર્ડથી	-13398
▁કાર્યકર	-13399
▁કુટુંબી	-13400
▁કોરિડોર	-13401
▁ક્રમમાં	-13402
▁ખર્ચમાં	-13403
▁ખોલવાની	-13404
▁ગંભીરતા	-13405
▁ગેંગરેપ	-13406
▁ચતુર્થી	-13407
▁ચિંતાનો	-13408
▁ચેન્નાઇ	-13409
▁જન્મેલા	-13410
▁જાપાનની	-13411
▁ટકાવારી	-13412
▁થોડીવાર	-13413
▁દાંપત્ય	-13414
▁નિમણૂંક	-13415
▁નિર્ગમન	-13416
▁નિર્ભયા	-13417
▁નોંધાતા	-13418
▁પક્ષોને	-13419
▁પાનવાળી	-13420
▁પુત્રની	-13421
▁પ્રચલિત	-13422
▁પ્રજ્ઞા	-13423
▁પ્રદેશો	-13424
▁પ્રશાસન	-13425
▁પ્રેમનો	-13426
▁ફેલાવવા	-13427
▁ફોટોમાં	-13428
▁ફોસ્ફરસ	-13429
▁બાળપણથી	-13430
▁બેટ્સમે	-13431
▁બ્લેન્ડ	-13432
▁ભાજપનું	-13433
▁મહિલાના	-13434
▁માધ્યમો	-13435
▁માયાવતી	-13436
▁માર્ગથી	-13437
▁મુફ્તીએ	-13438
▁યહોવાનો	-13439
▁યુરોપના	-13440
▁યુવાનને	-13441
▁યોહાનને	-13442
▁રાજયમાં	-13443
▁રૂપરેખા	-13444
▁લગાવીને	-13445
▁લાયસન્સ	-13446
▁વર્કફ્ર	-13447
▁વિખ્યાત	-13448
▁વિચારસર	-13449
▁વિરોધીઓ	-13450
▁વિલાયતી	-13451
▁વિશ્વનો	-13452
▁શખ્સોને	-13453
▁સંવર્ધન	-13454
▁સંસાધનો	-13455
▁સભ્યોને	-13456
▁સમજાયું	-13457
▁સમર્થકો	-13458
▁સાંસદોએ	-13459
▁સાઇડવૉક	-13460
▁સુપ્રિમ	-13461
▁અનુષ્કાએ	-13462
▁આંકડાકીય	-13463
▁ઇનિંગમાં	-13464
▁એનસીપીના	-13465
▁ઓટોમેટિક	-13466
▁કરતારપુર	-13467
▁કાપવામાં	-13468
▁કાયદામાં	-13469
▁કેલેન્ડર	-13470
▁કોરોનાનો	-13471
▁ગઠબંધનની	-13472
▁ગુનેગારો	-13473
▁ઘટનાક્રમ	-13474
▁જગ્યામાં	-13475
▁જીવનશૈલી	-13476
▁ડેન્ગ્યુ	-13477
▁દિવ્યાંગ	-13478
▁નિવેદનને	-13479
▁નોંધ્યું	-13480
▁પડકાર્યો	-13481
▁પદ્માવતી	-13482
▁પરિવારનો	-13483
▁પ્રગતિની	-13484
▁પ્રભુત્વ	-13485
▁પ્રાઇવેટ	-13486
▁પ્રેગ્ને	-13487
▁પ્લાનિંગ	-13488
▁ફટકાર્યો	-13489
▁ફેસ્ટિવલ	-13490
▁બંધારણીય	-13491
▁મહિલાનું	-13492
▁મુસલમાનો	-13493
▁મોકલવાની	-13494
▁યુનાઈટેડ	-13495
▁રોજગારની	-13496
▁વચ્ચેનું	-13497
▁વધારવાની	-13498
▁વાવાઝોડા	-13499
▁વિલિયમ્સ	-13500
▁વિશ્વવિદ	-13501
▁વ્યવહારુ	-13502
▁શરણાર્થી	-13503
▁સંગીતકાર	-13504
▁સમસ્યાને	-13505
▁સમાવિષ્ટ	-13506
▁સમુદાયના	-13507
▁સાંભળ્યો	-13508
▁સુખાકારી	-13509
▁સુલેમાને	-13510
▁સ્થાનિકો	-13511
▁ઓલરાઉન્ડર	-13512
▁ન્યૂયોર્ક	-13513
▁પદાધિકારી	-13514
▁પહોંચાડવા	-13515
▁ફાઉન્ડેશન	-13516
▁બિઝનેસમેન	-13517
▁રાષ્ટ્રને	-13518
▁રેસ્ટોરાં	-13519
▁લક્ષણોમાં	-13520
▁લદ્દાખમાં	-13521
▁વાઈન્ડિંગ	-13522
▁વ્યવસ્થિત	-13523
▁સત્તાવાળા	-13524
▁સભાશિક્ષક	-13525
▁સર્વેક્ષણ	-13526
▁સ્ત્રીઓને	-13527
▁અભ્યાસક્રમ	-13528
▁આઈસીઆઈસીઆઈ	-13529
▁એનડીઆરએફની	-13530
▁કિલોમીટરની	-13531
▁કેટેગરીમાં	-13532
▁ચોંકાવનારા	-13533
▁ટ્રીટમેન્ટ	-13534
▁પર્યાવરણને	-13535
▁પ્રાર્થનાઓ	-13536
▁ફોટોગ્રાફી	-13537
▁બોલિવુડમાં	-13538
▁માર્ગદર્શક	-13539
▁વર્તમાનમાં	-13540
▁વ્યવસાયમાં	-13541
▁અર્થશાસ્ત્ર	-13542
▁ઈસ્રાએલીઓને	-13543
▁કોન્ટ્રાક્ટ	-13544
▁કોરોનાવાયરસ	-13545
▁ગાંધીનગરમાં	-13546
▁પરિસ્થિતિને	-13547
▁રાજનાથસિંહે	-13548
▁વિકસાવવામાં	-13549
▁શાસ્ત્રવચનો	-13550
▁શ્રદ્ધાંજલી	-13551
▁સ્વાસ્થ્યની	-13552
▁કારકિર્દીમાં	-13553
▁કાશ્મીરમાંથી	-13554
▁ક્રિકેટમાંથી	-13555
▁ન્યૂયોર્કમાં	-13556
▁રોગપ્રતિકારક	-13557
▁વિદ્યાર્થીઓના	-13558
▁અફઘાનિસ્તાનમાં	-13559
▁પ્રધાનમંત્રીની	-13560
'.	-13561
12	-13562
13	-13563
40	-13564
66	-13565
:-	-13566
AN	-13567
CB	-13568
HO	-13569
IS	-13570
PG	-13571
io	-13572
mA	-13573
qu	-13574
ww	-13575
અમ	-13576
એબ	-13577
કચ	-13578
થુ	-13579
પૃ	-13580
મહ	-13581
વહ	-13582
ૃા	-13583
▁*	-13584
▁+	-13585
▁h	-13586
▁r	-13587
-18	-13588
DRF	-13589
est	-13590
ort	-13591
ંજક	-13592
આઇએ	-13593
કલા	-13594
કોડ	-13595
કોપ	-13596
ખરી	-13597
ખરે	-13598
ખાં	-13599
ગિક	-13600
ચેત	-13601
જેમ	-13602
ઝાર	-13603
ડમી	-13604
ડાઇ	-13605
ણીઓ	-13606
ણ્ય	-13607
તીઓ	-13608
દગી	-13609
નથી	-13610
પાડ	-13611
પોઝ	-13612
બહુ	-13613
બાગ	-13614
બિન	-13615
ભેર	-13616
યને	-13617
લાશ	-13618
લિઝ	-13619
વચન	-13620
વરો	-13621
વિટ	-13622
વીન	-13623
વેવ	-13624
સન્	-13625
સાફ	-13626
સેન	-13627
હામ	-13628
હિક	-13629
ાઇઝ	-13630
િનિ	-13631
ુતિ	-13632
૦ની	-13633
▁57	-13634
▁:-	-13635
▁BS	-13636
▁MP	-13637
▁MS	-13638
▁re	-13639
▁ઇટ	-13640
▁ઈં	-13641
▁ઉઝ	-13642
▁ઘન	-13643
▁ઝર	-13644
▁ધપ	-13645
▁ધ્	-13646
▁નૉ	-13647
▁ફૅ	-13648
▁રક	-13649
▁વટ	-13650
▁૪૬	-13651
▁૯૦	-13652
ંટની	-13653
ઓફિસ	-13654
ક્લે	-13655
ગ્રહ	-13656
ઘાતી	-13657
ચકિત	-13658
જાવી	-13659
જીનો	-13660
ણીની	-13661
તનામ	-13662
તારી	-13663
તેના	-13664
થ્યા	-13665
દૂતો	-13666
દ્રો	-13667
ધર્મ	-13668
નન્સ	-13669
નાયક	-13670
નીને	-13671
પશ્ચ	-13672
પાયે	-13673
પુરી	-13674
પેટા	-13675
બાને	-13676
બીએસ	-13677
ભાષા	-13678
મુખો	-13679
રસના	-13680
ર્ગઠ	-13681
ળવું	-13682
ળીયા	-13683
વાજો	-13684
વાનુ	-13685
વેલા	-13686
શીથી	-13687
શ્મિ	-13688
સભ્ય	-13689
સાઇઝ	-13690
સાઈડ	-13691
સીનો	-13692
સુરત	-13693
સ્થળ	-13694
હાર્	-13695
હાવા	-13696
ારીત	-13697
ુંબર	-13698
ૂહિક	-13699
્યની	-13700
્યૂલ	-13701
્વના	-13702
્સને	-13703
▁195	-13704
▁8.1	-13705
▁for	-13706
▁iOS	-13707
▁the	-13708
▁અકા	-13709
▁અની	-13710
▁અરિ	-13711
▁આલો	-13712
▁ઉઠા	-13713
▁એરે	-13714
▁એલન	-13715
▁એવિ	-13716
▁ઑફિ	-13717
▁કબર	-13718
▁ખડક	-13719
▁ખાધ	-13720
▁ખાલ	-13721
▁ખૂન	-13722
▁ખેત	-13723
▁ચઢ્	-13724
▁જીભ	-13725
▁ટાવ	-13726
▁ટિ્	-13727
▁ઠાલ	-13728
▁ડંખ	-13729
▁ડેડ	-13730
▁ઢાં	-13731
▁તડા	-13732
▁થઈએ	-13733
▁પણે	-13734
▁ફુડ	-13735
▁બીક	-13736
▁બીલ	-13737
▁મજે	-13738
▁મઝા	-13739
▁મદન	-13740
▁મૂડ	-13741
▁મૅચ	-13742
▁મેદ	-13743
▁રમૂ	-13744
▁રોઝ	-13745
▁લક્	-13746
▁લતા	-13747
▁લિવ	-13748
▁લોહ	-13749
▁વોક	-13750
▁સિલ	-13751
▁સુલ	-13752
▁સોગ	-13753
▁હંસ	-13754
▁હદે	-13755
▁હરો	-13756
▁૧૯૪	-13757
ઈશ્વર	-13758
કક્ષા	-13759
કારોએ	-13760
કાર્ડ	-13761
કોનું	-13762
ક્ષીએ	-13763
ક્ષ્મ	-13764
ગોલિક	-13765
ચેન્જ	-13766
ડિયાદ	-13767
તન્યા	-13768
તમારી	-13769
થામાં	-13770
દ્વાર	-13771
ધાનું	-13772
ધાભાસ	-13773
ધિકરણ	-13774
નારને	-13775
ન્સિક	-13776
પેક્ષ	-13777
પ્રભુ	-13778
ફોર્ડ	-13779
ભર્યો	-13780
યેલના	-13781
લાયચી	-13782
લ્સના	-13783
વાહિક	-13784
સ્તિક	-13785
ાલિયન	-13786
િયાનો	-13787
િવારે	-13788
▁2012	-13789
▁CCTV	-13790
▁IBSI	-13791
▁અકબર	-13792
▁અઘરી	-13793
▁આચાર	-13794
▁ઇરાન	-13795
▁ઉચિત	-13796
▁ઉજ્જ	-13797
▁ઉતરા	-13798
▁ઊંઘી	-13799
▁ઊંડો	-13800
▁ઊતરી	-13801
▁એકની	-13802
▁એડવા	-13803
▁એનસી	-13804
▁એરવે	-13805
▁કરુણ	-13806
▁કાઢે	-13807
▁કોંક	-13808
▁કોઇએ	-13809
▁કોચર	-13810
▁કોનો	-13811
▁કોબી	-13812
▁ક્યુ	-13813
▁ખેતર	-13814
▁ગુફા	-13815
▁ગૃહિ	-13816
▁ચંદા	-13817
▁ચમકી	-13818
▁ચાંદ	-13819
▁ચુડા	-13820
▁જંગી	-13821
▁જવાય	-13822
▁જાધવ	-13823
▁જીરૂ	-13824
▁જૂનો	-13825
▁ટાઉન	-13826
▁ટોળે	-13827
▁ઠંડક	-13828
▁ઠાકો	-13829
▁ડિઝા	-13830
▁ડિસઓ	-13831
▁ડેકર	-13832
▁તંગી	-13833
▁તિરુ	-13834
▁તેજસ	-13835
▁થાંભ	-13836
▁દેખી	-13837
▁ધવને	-13838
▁ધ્રૂ	-13839
▁પંકજ	-13840
▁પાંખ	-13841
▁પીએન	-13842
▁પીટર	-13843
▁પુરો	-13844
▁પૂંછ	-13845
▁પૂજન	-13846
▁પ્લગ	-13847
▁ફાવે	-13848
▁ફોકસ	-13849
▁ફ્રિ	-13850
▁ફ્લૂ	-13851
▁બમણી	-13852
▁બેબી	-13853
▁બ્યુ	-13854
▁મયંક	-13855
▁મળવી	-13856
▁માઇન	-13857
▁માફક	-13858
▁માહી	-13859
▁મિસર	-13860
▁મેથી	-13861
▁મોનિ	-13862
▁યુએન	-13863
▁રજકો	-13864
▁રાઇડ	-13865
▁રાધા	-13866
▁રેશમ	-13867
▁રૈના	-13868
▁રોમન	-13869
▁લટકા	-13870
▁લડાઇ	-13871
▁લીડર	-13872
▁લ્યુ	-13873
▁વળવા	-13874
▁વસાહ	-13875
▁વહાણ	-13876
▁વાળો	-13877
▁વિખે	-13878
▁વિનય	-13879
▁વેની	-13880
▁શાના	-13881
▁શાહી	-13882
▁સેનિ	-13883
▁સોલર	-13884
▁હેમા	-13885
eather	-13886
આરસીટી	-13887
ગુજરાત	-13888
ણાવાડા	-13889
ત્તાંત	-13890
દુલ્લા	-13891
ન્ટાઈન	-13892
ન્સિંગ	-13893
પ્રદાય	-13894
વૃત્તિ	-13895
વ્યાપી	-13896
શિપમાં	-13897
સ્કારો	-13898
હાન્વી	-13899
ારામાં	-13900
▁2,000	-13901
▁3,000	-13902
▁અંતરા	-13903
▁અતિથિ	-13904
▁અફવાઓ	-13905
▁અવશેષ	-13906
▁અસ્થિ	-13907
▁આજદિન	-13908
▁ઇનપુટ	-13909
▁ઇબ્રા	-13910
▁ઇમેઇલ	-13911
▁ઉદાસી	-13912
▁ઉપાડી	-13913
▁એક્સ્	-13914
▁ઓરિસ્	-13915
▁કચેરી	-13916
▁કરિયર	-13917
▁કલર્સ	-13918
▁કારમી	-13919
▁કાળવૃ	-13920
▁કિડની	-13921
▁કેસને	-13922
▁કોસ્ટ	-13923
▁ઘટાડા	-13924
▁ચીનનો	-13925
▁જઈશું	-13926
▁જીતની	-13927
▁જોઈતી	-13928
▁જોનાસ	-13929
▁ટાંકી	-13930
▁ટુકડો	-13931
▁ટોર્ક	-13932
▁ડ્રોન	-13933
▁ઢોંગી	-13934
▁તપાસી	-13935
▁તાજગી	-13936
▁તેટલી	-13937
▁ત્યાગ	-13938
▁દમદાર	-13939
▁નવજાત	-13940
▁નાગરી	-13941
▁નીચલા	-13942
▁નીચું	-13943
▁નેચરલ	-13944
▁પછીની	-13945
▁પટ્ટા	-13946
▁પથારી	-13947
▁પન્નુ	-13948
▁પરિચય	-13949
▁પરિબળ	-13950
▁પાડતા	-13951
▁પીતરે	-13952
▁પુરાત	-13953
▁ફાઈટર	-13954
▁ફૂંકા	-13955
▁ફેરવી	-13956
▁ફેલાય	-13957
▁ફોનના	-13958
▁બંધબે	-13959
▁બચવું	-13960
▁બટાકા	-13961
▁બટાટા	-13962
▁બેંકે	-13963
▁બેવડી	-13964
▁બ્રોડ	-13965
▁ભરીને	-13966
▁ભાઈની	-13967
▁ભાઈને	-13968
▁ભેગું	-13969
▁મજબૂર	-13970
▁માગતી	-13971
▁મિઝોર	-13972
▁મિશેલ	-13973
▁મુસીબ	-13974
▁મોંઘી	-13975
▁મોકલો	-13976
▁યુવકે	-13977
▁યોજાઇ	-13978
▁યોર્ક	-13979
▁રાખું	-13980
▁લઈશું	-13981
▁લખેલા	-13982
▁લખ્યુ	-13983
▁લાગતા	-13984
▁વંચિત	-13985
▁વર્ઝન	-13986
▁વાઈરસ	-13987
▁વુહાન	-13988
▁શાઓમી	-13989
▁શીખવી	-13990
▁શુક્ર	-13991
▁સંપર્	-13992
▁સયાજી	-13993
▁સસ્તી	-13994
▁સહમતિ	-13995
▁સાતમા	-13996
▁સાવંત	-13997
▁સિડની	-13998
▁સીટથી	-13999
▁સીમિત	-14000
▁સેટઅપ	-14001
▁સેન્ડ	-14002
▁સોર્સ	-14003
▁સ્મિત	-14004
▁હરભજન	-14005
▁હાસ્ય	-14006
▁હુસૈન	-14007
▁હોશીઆ	-14008
મંત્રીએ	-14009
મોહમ્મદ	-14010
્રોલમાં	-14011
▁અદ્ભૂત	-14012
▁અપરાધી	-14013
▁અપવાદો	-14014
▁અભિન્ન	-14015
▁આક્રમણ	-14016
▁આડઅસરો	-14017
▁આધારીત	-14018
▁આનંદથી	-14019
▁આનંદની	-14020
▁આપત્તિ	-14021
▁આપવાથી	-14022
▁આવવાનો	-14023
▁આવેલાં	-14024
▁ઇન્ડિઝ	-14025
▁ઉદ્ધાર	-14026
▁ઉશ્કેર	-14027
▁એકંદરે	-14028
▁એકીકૃત	-14029
▁એવિએશન	-14030
▁ઓબેરોય	-14031
▁કચુંબર	-14032
▁કરવાનુ	-14033
▁કહેતાં	-14034
▁કાપીને	-14035
▁કાયદાઓ	-14036
▁કારગિલ	-14037
▁કૃષ્ણા	-14038
▁ખાદ્યા	-14039
▁ખુલીને	-14040
▁ખુશીનો	-14041
▁ગૃહમાં	-14042
▁ઘટનાથી	-14043
▁ઘરેલું	-14044
▁ચાલવું	-14045
▁છોકરાઓ	-14046
▁જયશંકર	-14047
▁જોડીને	-14048
▁ટાળવું	-14049
▁ટીવીની	-14050
▁ટેક્સી	-14051
▁ટેન્કર	-14052
▁ડાન્સર	-14053
▁ડિપ્લો	-14054
▁તડામાર	-14055
▁તબીબોએ	-14056
▁તોડ્યો	-14057
▁દિલમાં	-14058
▁દુઃખની	-14059
▁દેશોને	-14060
▁દ્રવિડ	-14061
▁ધોનીના	-14062
▁નશામાં	-14063
▁નહોતાં	-14064
▁નિરંતર	-14065
▁પત્નીઓ	-14066
▁પર્રિક	-14067
▁પાંચમા	-14068
▁પેઇન્ટ	-14069
▁ફેલાવો	-14070
▁બતાવતા	-14071
▁બન્નેએ	-14072
▁બહારની	-14073
▁બાંધવા	-14074
▁બાબતનો	-14075
▁બિલમાં	-14076
▁બેંગ્લ	-14077
▁બેઠકની	-14078
▁ભરેલું	-14079
▁મજેદાર	-14080
▁માતાના	-14081
▁મુજબની	-14082
▁મૂંઝવણ	-14083
▁મૂડમાં	-14084
▁મોદીજી	-14085
▁યહુદીઓ	-14086
▁યાદવની	-14087
▁યુગમાં	-14088
▁રમવાની	-14089
▁રહેનાર	-14090
▁રામપાલ	-14091
▁લાંબું	-14092
▁લોકોથી	-14093
▁વાયનાડ	-14094
▁વાળમાં	-14095
▁વિજ્ઞા	-14096
▁વિતાવી	-14097
▁વિદ્યુ	-14098
▁વિવાદો	-14099
▁વીતેલા	-14100
▁વ્યાપી	-14101
▁શીખવવા	-14102
▁શીખ્યો	-14103
▁સંહિતા	-14104
▁સગર્ભા	-14105
▁સમાંતર	-14106
▁સમારોહ	-14107
▁સર્જાય	-14108
▁સહનશીલ	-14109
▁સાંજના	-14110
▁સુધરશે	-14111
▁સોનેરી	-14112
▁હોદ્દો	-14113
▁હોસ્પી	-14114
ઝોલ્યુશન	-14115
િયુરપ્પા	-14116
▁અસ્થાયી	-14117
▁આંખોમાં	-14118
▁આઘાતમાં	-14119
▁આત્માને	-14120
▁આનંદમાં	-14121
▁આહારમાં	-14122
▁ઇન્દિરા	-14123
▁કમિશ્નર	-14124
▁કરાવ્યા	-14125
▁કિસ્સાઓ	-14126
▁કેટેગરી	-14127
▁કોલેજના	-14128
▁ક્રિયાઓ	-14129
▁ગોવિંદા	-14130
▁છેલ્લું	-14131
▁નેતન્યા	-14132
▁ન્યાયિક	-14133
▁પરિપત્ર	-14134
▁પસંદગીઓ	-14135
▁પહોંચશે	-14136
▁પાડવાની	-14137
▁પિતાનું	-14138
▁પ્રમુખો	-14139
▁પ્રવચનો	-14140
▁ફડણવીસે	-14141
▁ફોરેસ્ટ	-14142
▁બદલવાની	-14143
▁બન્નેને	-14144
▁બાબતોના	-14145
▁બીજેપીએ	-14146
▁બેનરજીએ	-14147
▁બોર્ડની	-14148
▁બ્રિટીશ	-14149
▁બ્રેકઅપ	-14150
▁ભૌગોલિક	-14151
▁મચાવ્યો	-14152
▁મહિલાઓએ	-14153
▁માટેનાં	-14154
▁માતાનું	-14155
▁મૃતકોના	-14156
▁મ્યુનિસ	-14157
▁રજિસ્ટર	-14158
▁લાભકારી	-14159
▁વર્તવું	-14160
▁શરીરનું	-14161
▁શરૂઆતની	-14162
▁શુભારંભ	-14163
▁શેતાનને	-14164
▁શ્રીરામ	-14165
▁સંગ્રહો	-14166
▁સંબંધીઓ	-14167
▁સંબોધશે	-14168
▁સમુદાયો	-14169
▁સાંભળતા	-14170
▁સામૂહિક	-14171
▁સુંદરતા	-14172
▁સૈનિકોએ	-14173
▁સ્વિટ્ઝ	-14174
▁હાઉસિંગ	-14175
▁હ્યુસ્ટ	-14176
કાશ્મીરની	-14177
▁election	-14178
▁અકસ્માતે	-14179
▁આઈપીસીની	-14180
▁આકાંક્ષા	-14181
▁આતુરતાથી	-14182
▁ઇમરજન્સી	-14183
▁ઈશ્વરનાં	-14184
▁ઉપલબ્ધતા	-14185
▁કાર્યભાર	-14186
▁કાર્યોની	-14187
▁ગાંગુલીએ	-14188
▁ગાંધીનું	-14189
▁જનસંખ્યા	-14190
▁જવાહરલાલ	-14191
▁ડિઝાસ્ટર	-14192
▁ડોક્ટરોએ	-14193
▁દોરવામાં	-14194
▁ધૂમ્રપાન	-14195
▁નિયુક્તિ	-14196
▁પૂરેપૂરો	-14197
▁પૃથ્વીની	-14198
▁પ્રકાશનો	-14199
▁ફિલ્મોની	-14200
▁ફોલોઅર્સ	-14201
▁બીજેપીના	-14202
▁બેનર્જીએ	-14203
▁બેન્દ્રે	-14204
▁બેરોજગાર	-14205
▁બોલાચાલી	-14206
▁બોલાવ્યા	-14207
▁મંગળવારે	-14208
▁માંજરેકર	-14209
▁મારવામાં	-14210
▁માલસામાન	-14211
▁મૂલ્યવાન	-14212
▁મોટાપાયે	-14213
▁યોજનામાં	-14214
▁યોજાયેલા	-14215
▁રવીન્દ્ર	-14216
▁લાગવાનું	-14217
▁લેવાયેલા	-14218
▁વસ્તુઓને	-14219
▁વાંચ્યું	-14220
▁વ્યભિચાર	-14221
▁શરૂઆતનું	-14222
▁શાહરૂખની	-14223
▁શીખવાનું	-14224
▁શૌચાલયની	-14225
▁સરખામણીએ	-14226
▁સિંગાપુર	-14227
▁સીબીઆઈની	-14228
▁સીરિઝમાં	-14229
▁સ્ત્રીને	-14230
▁સ્વર્ગીય	-14231
▁અભિષિક્તો	-14232
▁ઇન્ડિયાને	-14233
▁ઇવેન્ટમાં	-14234
▁ઈન્ડિયન્સ	-14235
▁ઈસ્રાએલના	-14236
▁ઉત્પાદનને	-14237
▁ઉમેદવારોએ	-14238
▁કેન્દ્રીત	-14239
▁ક્ષેત્રને	-14240
▁જિતેન્દ્ર	-14241
▁ડાયરેક્શન	-14242
▁તાત્કાલીક	-14243
▁નાગરિકત્વ	-14244
▁નાગરિકોના	-14245
▁નોંધાવ્યો	-14246
▁પ્રયાસમાં	-14247
▁પ્રયાસોને	-14248
▁પ્રોફેશનલ	-14249
▁ફિંગરપ્રિ	-14250
▁ભારપૂર્વક	-14251
▁મૃતદેહોને	-14252
▁યાત્રામાં	-14253
▁રાજીનામાં	-14254
▁રાજેન્દ્ર	-14255
▁વાપરવામાં	-14256
▁વિકેટકીપર	-14257
▁વિરોધાભાસ	-14258
▁વેપારીઓને	-14259
▁શ્રીવાસ્ત	-14260
▁સનરાઇઝર્સ	-14261
▁સાક્ષીઓની	-14262
▁સાક્ષીઓને	-14263
▁હર્ષવર્ધન	-14264
▁હિન્દીમાં	-14265
▁હોસ્પિટલો	-14266
▁આગેવાનીમાં	-14267
▁કોમ્પ્યુટર	-14268
▁પરિવારજનોએ	-14269
▁પ્રતિનિધિઓ	-14270
▁પ્રતિષ્ઠિત	-14271
▁પ્રેસિડન્ટ	-14272
▁પ્રોટેક્શન	-14273
▁બાલાકોટમાં	-14274
▁બેક્ટેરિયલ	-14275
▁લક્ષ્યાંકો	-14276
▁વહેંચવામાં	-14277
▁વિવાદાસ્પદ	-14278
▁વિશ્વકપમાં	-14279
▁વ્યક્તિઓના	-14280
▁વ્યક્તિઓની	-14281
▁શણગારવામાં	-14282
▁શ્રીદેવીના	-14283
▁શ્રીલંકાની	-14284
▁હર્ષવર્ધને	-14285
▁ઇન્ડસ્ટ્રીઝ	-14286
▁કાળવૃત્તાંત	-14287
▁કોંગ્રેસનું	-14288
▁ટેકનોલોજીના	-14289
▁ટેકનોલોજીનો	-14290
▁ડેમોક્રેટિક	-14291
▁પોલીસકર્મીઓ	-14292
▁પ્રમાણપત્રો	-14293
▁મૈત્રીપૂર્ણ	-14294
▁યરૂશાલેમમાં	-14295
▁કેલિફોર્નિયા	-14296
▁પ્રોજેક્ટમાં	-14297
▁બાંગ્લાદેશની	-14298
▁સૌરાષ્ટ્રમાં	-14299
▁એન્કાઉન્ટરમાં	-14300
▁પ્રદર્શનકારીઓ	-14301
▁રેસ્ટોરન્ટમાં	-14302
▁વિશ્વવિદ્યાલય	-14303
▁ટૂર્નામેન્ટમાં	-14304
▁પ્રધાનમંત્રીને	-14305
%%	-14306
-6	-14307
74	-14308
83	-14309
DP	-14310
LA	-14311
PI	-14312
RO	-14313
TE	-14314
em	-14315
if	-14316
mb	-14317
mm	-14318
od	-14319
op	-14320
ps	-14321
ru	-14322
si	-14323
sp	-14324
ઇએ	-14325
ઘમ	-14326
ઘો	-14327
જક	-14328
પટ	-14329
ફન	-14330
ફિ	-14331
ષી	-14332
ુઓ	-14333
ૂફ	-14334
ૌર	-14335
૧૬	-14336
▁Y	-14337
▁।	-14338
▁•	-14339
-21	-14340
ent	-14341
ill	-14342
mAh	-14343
oll	-14344
our	-14345
આંગ	-14346
ઓવર	-14347
કિન	-14348
ખોર	-14349
ગલી	-14350
ઘુમ	-14351
ચાં	-14352
ચું	-14353
જાન	-14354
ટરે	-14355
ણાટ	-14356
તોલ	-14357
દિલ	-14358
ધીય	-14359
નાન	-14360
ન્ત	-14361
પાર	-14362
બિક	-14363
બેઝ	-14364
બેટ	-14365
ભાન	-14366
મથક	-14367
મરા	-14368
માઇ	-14369
મુદ	-14370
મોટ	-14371
યના	-14372
યિક	-14373
રતા	-14374
રિફ	-14375
રેડ	-14376
રોન	-14377
ર્બ	-14378
શનુ	-14379
શીએ	-14380
સતા	-14381
સીઓ	-14382
સુખ	-14383
હવા	-14384
હાદ	-14385
હિલ	-14386
ાંસ	-14387
ાગી	-14388
ાણી	-14389
િકી	-14390
ુરા	-14391
્સે	-14392
▁1:	-14393
▁94	-14394
▁AT	-14395
▁as	-14396
▁me	-14397
▁ઓઈ	-14398
▁ઓક	-14399
▁છપ	-14400
▁જૉ	-14401
▁ઝગ	-14402
▁તન	-14403
▁બઢ	-14404
▁મણ	-14405
▁લસ	-14406
▁લૈ	-14407
▁હદ	-14408
▁૩૬	-14409
▁૪૪	-14410
ંગનો	-14411
ંપની	-14412
એમાં	-14413
કનું	-14414
કર્મ	-14415
કાતા	-14416
કોર્	-14417
ચાલન	-14418
ચોરી	-14419
ચ્છી	-14420
જબરી	-14421
ટનાં	-14422
ટીટી	-14423
ટીને	-14424
ડીઆઈ	-14425
ણાંક	-14426
દારા	-14427
દારે	-14428
નીંગ	-14429
ન્નૂ	-14430
ન્સન	-14431
ન્‍ટ	-14432
પાઠી	-14433
પીની	-14434
પ્લા	-14435
ફોડી	-14436
બંબા	-14437
બોડી	-14438
મીની	-14439
મેરા	-14440
મોટી	-14441
યાયી	-14442
રોધો	-14443
ર્નો	-14444
લીના	-14445
લેરી	-14446
લ્ટર	-14447
શાને	-14448
ષ્ઠા	-14449
સાગર	-14450
હોણા	-14451
ાવતી	-14452
િકેટ	-14453
િત્સ	-14454
િવર્	-14455
ૈચ્છ	-14456
્યતન	-14457
૧માં	-14458
૮માં	-14459
૯માં	-14460
▁1.7	-14461
▁104	-14462
▁CEO	-14463
▁અરૂ	-14464
▁અહિ	-14465
▁આફત	-14466
▁ઉંઘ	-14467
▁ઉપજ	-14468
▁ઊઠી	-14469
▁એમ્	-14470
▁ઓક્	-14471
▁કડા	-14472
▁કાદ	-14473
▁કાસ	-14474
▁ખાબ	-14475
▁ગીચ	-14476
▁ચઢી	-14477
▁છીન	-14478
▁જેક	-14479
▁ઝાય	-14480
▁ટંડ	-14481
▁ટાય	-14482
▁ટેબ	-14483
▁ડિપ	-14484
▁તણા	-14485
▁તબ્	-14486
▁તીડ	-14487
▁થરૂ	-14488
▁દશા	-14489
▁દિપ	-14490
▁નિહ	-14491
▁નોડ	-14492
▁પંથ	-14493
▁ભભૂ	-14494
▁મર્	-14495
▁મૂએ	-14496
▁મોન	-14497
▁યેદ	-14498
▁રાન	-14499
▁રૉય	-14500
▁લંચ	-14501
▁લકી	-14502
▁લખે	-14503
▁લેબ	-14504
▁લોભ	-14505
▁વસે	-14506
▁વાટ	-14507
▁વાવ	-14508
▁વીટ	-14509
▁શિમ	-14510
▁સકં	-14511
▁સાલ	-14512
▁સેં	-14513
▁સોસ	-14514
▁સૌએ	-14515
▁હબા	-14516
▁૧૯૭	-14517
આરમાં	-14518
કાલથી	-14519
ગારેટ	-14520
ચિહ્ન	-14521
છાયું	-14522
તસવીર	-14523
દરમાં	-14524
ધાન્ય	-14525
નારાઓ	-14526
ન્ડ્ર	-14527
પરાંત	-14528
પ્રેશ	-14529
બેન્ડ	-14530
મિનાર	-14531
મુંબઈ	-14532
રક્ષા	-14533
રેકટર	-14534
લ્તાન	-14535
વિભાગ	-14536
વોર્ડ	-14537
શુલ્ક	-14538
સંમતિ	-14539
સરમાં	-14540
સ્કેટ	-14541
હુબલી	-14542
ારાની	-14543
ાર્યા	-14544
િગેશન	-14545
િલ્લા	-14546
ુંધરા	-14547
ુંબેશ	-14548
્યુફે	-14549
્યોને	-14550
▁2005	-14551
▁NDRF	-14552
▁અંશે	-14553
▁અઘરા	-14554
▁અટેક	-14555
▁અતુલ	-14556
▁અદલા	-14557
▁અમરિ	-14558
▁અવધિ	-14559
▁આઇડી	-14560
▁આઈસી	-14561
▁આગલા	-14562
▁આદું	-14563
▁આપનો	-14564
▁આશિષ	-14565
▁ઉઠવા	-14566
▁એપ્સ	-14567
▁એસટી	-14568
▁ઓળખે	-14569
▁કન્ફ	-14570
▁કમલા	-14571
▁કરૂં	-14572
▁કાજુ	-14573
▁કાલા	-14574
▁કુંભ	-14575
▁કુરે	-14576
▁કેકે	-14577
▁કેરી	-14578
▁કેળા	-14579
▁કોમ્	-14580
▁ક્રા	-14581
▁ગયેલ	-14582
▁ગાળી	-14583
▁ગુગલ	-14584
▁ગૃહો	-14585
▁ઘોડા	-14586
▁ચંદન	-14587
▁ચિલ્	-14588
▁ચુંબ	-14589
▁છુટા	-14590
▁જમાઈ	-14591
▁જાડા	-14592
▁જ્યા	-14593
▁ટકરા	-14594
▁ટીચર	-14595
▁ટુંક	-14596
▁ડીકે	-14597
▁તથ્ય	-14598
▁તરબૂ	-14599
▁તસ્ક	-14600
▁તાલિ	-14601
▁તાળી	-14602
▁તોમર	-14603
▁દામ્	-14604
▁દાવે	-14605
▁દાહો	-14606
▁દૂતા	-14607
▁દેવડ	-14608
▁દોરો	-14609
▁ધરણા	-14610
▁ધીમા	-14611
▁નરેશ	-14612
▁નિરવ	-14613
▁નીતૂ	-14614
▁નોમિ	-14615
▁નોરા	-14616
▁ન્હો	-14617
▁પદ્દ	-14618
▁પધ્ધ	-14619
▁પાકી	-14620
▁પિતૃ	-14621
▁બનાસ	-14622
▁બળવો	-14623
▁બાજી	-14624
▁બેસો	-14625
▁બોજો	-14626
▁ભયનો	-14627
▁ભરૂચ	-14628
▁ભાંગ	-14629
▁ભૂકો	-14630
▁મનથી	-14631
▁મનાઈ	-14632
▁માણો	-14633
▁મિજા	-14634
▁યુને	-14635
▁રકુલ	-14636
▁રનનો	-14637
▁રનૌત	-14638
▁રહૃા	-14639
▁રામન	-14640
▁રુબે	-14641
▁રેમો	-14642
▁રેવન	-14643
▁લહેર	-14644
▁લાઈટ	-14645
▁લીટી	-14646
▁લેતો	-14647
▁વઘાર	-14648
▁વણસી	-14649
▁વન્ય	-14650
▁વિંગ	-14651
▁વ્રત	-14652
▁શર્ટ	-14653
▁સંતા	-14654
▁સંતો	-14655
▁સચેત	-14656
▁સાધુ	-14657
▁સિયા	-14658
▁સિસો	-14659
▁સેંગ	-14660
▁સૈની	-14661
▁સોડા	-14662
▁સ્ટુ	-14663
▁હોળી	-14664
એનસીપી	-14665
ખુશીથી	-14666
જેડીએસ	-14667
જેવાલા	-14668
ડિયાના	-14669
દારોને	-14670
પશ્ચિમ	-14671
પ્રસાદ	-14672
બાદમાં	-14673
બેરંગી	-14674
બ્રન્ટ	-14675
યાત્રી	-14676
રિક્ષણ	-14677
સન્માન	-14678
સ્ટ્રા	-14679
ૈચ્છિક	-14680
▁અપાયા	-14681
▁અરજીઓ	-14682
▁અવિરત	-14683
▁આંગળી	-14684
▁આંચકા	-14685
▁આંશિક	-14686
▁આગ્રા	-14687
▁આવકના	-14688
▁ઇંગ્લ	-14689
▁ઇમર્જ	-14690
▁ઈન્ફો	-14691
▁ઈસુનો	-14692
▁ઉકેલી	-14693
▁ઉપરના	-14694
▁ઉપરની	-14695
▁ઊભેલી	-14696
▁એઈમ્સ	-14697
▁એક્સપ	-14698
▁એડમિટ	-14699
▁ઓબામા	-14700
▁ઓલઆઉટ	-14701
▁ઔષધીય	-14702
▁કમિટિ	-14703
▁કરાવે	-14704
▁કરિયા	-14705
▁કહેશો	-14706
▁કારના	-14707
▁કારને	-14708
▁કારીગ	-14709
▁કુણાલ	-14710
▁કેસરી	-14711
▁કોઈનો	-14712
▁ક્લિપ	-14713
▁ક્લીન	-14714
▁ક્ષણો	-14715
▁ખંડણી	-14716
▁ગામડા	-14717
▁ગીતને	-14718
▁ઘરેલુ	-14719
▁ચક્કા	-14720
▁ચઢ્ઢા	-14721
▁ચાન્સ	-14722
▁છવાયો	-14723
▁જગતની	-14724
▁જણાશે	-14725
▁જયશંક	-14726
▁જાતના	-14727
▁જોડવા	-14728
▁જ્વેલ	-14729
▁ટેકની	-14730
▁ડબ્બા	-14731
▁તટસ્થ	-14732
▁તપાસો	-14733
▁તબાહી	-14734
▁તિરાડ	-14735
▁તેમનુ	-14736
▁તેલનો	-14737
▁થયાની	-14738
▁દંડની	-14739
▁દત્તક	-14740
▁દેશોએ	-14741
▁નવીની	-14742
▁નહતું	-14743
▁નહેરુ	-14744
▁નહોતુ	-14745
▁નાનપણ	-14746
▁નાયડૂ	-14747
▁પત્તો	-14748
▁પન્નૂ	-14749
▁પહેરો	-14750
▁પાશ્વ	-14751
▁પીણું	-14752
▁પુનર્	-14753
▁પુરું	-14754
▁પેટની	-14755
▁પ્રદુ	-14756
▁પ્રવે	-14757
▁પ્રશિ	-14758
▁ફરોશી	-14759
▁ફાઈનલ	-14760
▁ફીલ્ડ	-14761
▁ફુટેજ	-14762
▁ફોર્ટ	-14763
▁ફ્લેગ	-14764
▁બદનામ	-14765
▁બદલાઇ	-14766
▁બહેતર	-14767
▁બિપિન	-14768
▁બેડરૂ	-14769
▁બોલતી	-14770
▁ભજવશે	-14771
▁ભટ્ટા	-14772
▁ભૂટાન	-14773
▁ભૂલશો	-14774
▁મંડળો	-14775
▁મજૂરી	-14776
▁મજૂરો	-14777
▁મહાગઠ	-14778
▁માંડી	-14779
▁માનવો	-14780
▁માવજત	-14781
▁મુંડે	-14782
▁યાજકો	-14783
▁યુઝરે	-14784
▁રહેજો	-14785
▁રાખશો	-14786
▁રાજાએ	-14787
▁રિફંડ	-14788
▁રોગના	-14789
▁રોજના	-14790
▁લાખના	-14791
▁લીલું	-14792
▁લેટિન	-14793
▁લોકેશ	-14794
▁વર્તણ	-14795
▁વહીવટ	-14796
▁વાંચે	-14797
▁વિક્ર	-14798
▁વિનામ	-14799
▁વેચવા	-14800
▁વેરિએ	-14801
▁વોર્મ	-14802
▁વ્યાસ	-14803
▁શકાતુ	-14804
▁શુક્લ	-14805
▁સપનાં	-14806
▁સમજીએ	-14807
▁સમન્સ	-14808
▁સમાધિ	-14809
▁સરહદે	-14810
▁સાજિદ	-14811
▁સાહિબ	-14812
▁સીરિય	-14813
▁સુધરી	-14814
▁સુધરે	-14815
▁સ્ટાઈ	-14816
▁સ્ટેન	-14817
▁સ્તરો	-14818
▁સ્વિચ	-14819
▁સ્વિસ	-14820
▁હમેશા	-14821
▁હાફિઝ	-14822
▁હેમંત	-14823
વ્યવહાર	-14824
ષ્ટિકોણ	-14825
સાપાત્ર	-14826
સ્થામાં	-14827
િક્સલના	-14828
્યુલેશન	-14829
▁અક્ષરો	-14830
▁અનુકરણ	-14831
▁અનુસરી	-14832
▁અમારાં	-14833
▁અવરોધો	-14834
▁અશ્વિન	-14835
▁આઈઆઈટી	-14836
▁આગેવાન	-14837
▁આપેલું	-14838
▁આશ્વાસ	-14839
▁ઉકેલવા	-14840
▁એસબીઆઇ	-14841
▁કયારેય	-14842
▁કલરમાં	-14843
▁કાઢીને	-14844
▁કારણસર	-14845
▁કાર્ગો	-14846
▁કેન્સલ	-14847
▁કોમ્પે	-14848
▁ક્વોલિ	-14849
▁ખસેડવા	-14850
▁ખોલીને	-14851
▁ગુલામી	-14852
▁ગુસ્સા	-14853
▁ગોયલને	-14854
▁ચૂકેલા	-14855
▁ચોપરાએ	-14856
▁છૂટ્યો	-14857
▁છેલ્લો	-14858
▁જનરેશન	-14859
▁જળબંબા	-14860
▁જીવનભર	-14861
▁ઝુંબેશ	-14862
▁ઠાકુરે	-14863
▁દેખાતો	-14864
▁દોડધામ	-14865
▁દ્રારા	-14866
▁ધર્યું	-14867
▁નડિયાદ	-14868
▁નાગપુર	-14869
▁નાસ્તા	-14870
▁નિર્દય	-14871
▁પલટવાર	-14872
▁પિટિશન	-14873
▁પૂછ્યા	-14874
▁પેદાશો	-14875
▁પૈસાનો	-14876
▁પોલિસી	-14877
▁પ્રાયો	-14878
▁ફેલાવે	-14879
▁ફોર્મે	-14880
▁ફોલ્ડર	-14881
▁બતાવીએ	-14882
▁બદલાતા	-14883
▁બનવાના	-14884
▁બનાવીએ	-14885
▁બળજબરી	-14886
▁બાંધકા	-14887
▁બાફેલા	-14888
▁બેન્કો	-14889
▁ભારતથી	-14890
▁ભાષાના	-14891
▁મત્સ્ય	-14892
▁મહાનગર	-14893
▁મહાસાગ	-14894
▁માંગતો	-14895
▁માનહાન	-14896
▁મેમ્બર	-14897
▁મોટેરા	-14898
▁મોનિટર	-14899
▁યુપીના	-14900
▁રંગમાં	-14901
▁રિટર્ન	-14902
▁રિવ્યૂ	-14903
▁લગાવવા	-14904
▁લગ્નથી	-14905
▁વરસ્યો	-14906
▁વેક્સી	-14907
▁વેલ્યુ	-14908
▁શખ્સની	-14909
▁શાળાની	-14910
▁સંગઠિત	-14911
▁સંલગ્ન	-14912
▁સદસ્યો	-14913
▁સપાટીએ	-14914
▁સર્વને	-14915
▁સહાયની	-14916
▁સહિતનો	-14917
▁સિબ્બલ	-14918
▁સીનિયર	-14919
▁સેક્સી	-14920
▁સ્થાપક	-14921
▁સ્થાપન	-14922
▁હૃદયને	-14923
▁હેઠળની	-14924
▁હેપ્પી	-14925
▁હેરફેર	-14926
▁હેલ્ધી	-14927
જિસ્ટ્રે	-14928
શ્યોરન્સ	-14929
▁અંતઃકરણ	-14930
▁અદાલતના	-14931
▁અનુભવશો	-14932
▁અનુયાયી	-14933
▁અસ્વસ્થ	-14934
▁આંબેડકર	-14935
▁આત્માની	-14936
▁ઉપયોગની	-14937
▁એકેડેમી	-14938
▁ઓક્સિજન	-14939
▁કન્ટેનર	-14940
▁કબજિયાત	-14941
▁કમિટીની	-14942
▁કરનારાઓ	-14943
▁કરવાનાં	-14944
▁કારોબાર	-14945
▁કાર્બોહ	-14946
▁કાર્યને	-14947
▁કેટલાંય	-14948
▁ખોરાકની	-14949
▁ગુપ્તાએ	-14950
▁ગુમાવતા	-14951
▁જાણ્યું	-14952
▁જિલ્લાઓ	-14953
▁જીવવાની	-14954
▁ટ્રેક્સ	-14955
▁ડિપોઝિટ	-14956
▁તકેદારી	-14957
▁દુઃખાવો	-14958
▁નજીકમાં	-14959
▁નામાંકન	-14960
▁નિપજયું	-14961
▁નિયમમાં	-14962
▁નુકશાની	-14963
▁નેપાળના	-14964
▁નોંધનીય	-14965
▁પરિક્ષણ	-14966
▁પરિચાલન	-14967
▁પહેર્યા	-14968
▁પહેર્યો	-14969
▁પુનર્ગઠ	-14970
▁પૂર્વજો	-14971
▁પૂર્વીય	-14972
▁પ્રકાશન	-14973
▁પ્રત્યુ	-14974
▁પ્રમોટર	-14975
▁પ્રસાદે	-14976
▁પ્રેમની	-14977
▁ફર્નિચર	-14978
▁ફેક્ટરી	-14979
▁બંનેનું	-14980
▁બચ્ચનને	-14981
▁બનાવાયા	-14982
▁બાસ્કેટ	-14983
▁બ્રાન્ચ	-14984
▁ભણવામાં	-14985
▁મંતવ્યો	-14986
▁મકાનમાં	-14987
▁મનોરંજક	-14988
▁મશરૂમ્સ	-14989
▁મહાનાયક	-14990
▁મુંબઇની	-14991
▁યાત્રીઓ	-14992
▁યુદ્ધના	-14993
▁રમવાનું	-14994
▁રહેવાથી	-14995
▁રીપોર્ટ	-14996
▁રેલવેના	-14997
▁રોગચાળા	-14998
▁વર્ષનાં	-14999
▁વસુંધરા	-15000
▁વિપક્ષે	-15001
▁વૈવાહિક	-15002
▁શખ્સોની	-15003
▁શેતાનના	-15004
▁સક્સેના	-15005
▁સમાચારો	-15006
▁સરનામાં	-15007
▁સામસામે	-15008
▁સિંધિયા	-15009
▁સીબીઆઇએ	-15010
▁સુબ્રમણ	-15011
▁સુયોજનો	-15012
▁સેવાઓની	-15013
▁સોંપ્યો	-15014
▁સોશ્યિલ	-15015
▁સ્ટોક્સ	-15016
▁સ્વિકાર	-15017
▁હાઉસમાં	-15018
▁હોશિયાર	-15019
▁આઇસોલેશન	-15020
▁ઉત્સાહથી	-15021
▁એન્ટરપ્ર	-15022
▁ઓલિમ્પિક	-15023
▁કેરેક્ટર	-15024
▁કોમોડિટી	-15025
▁કોરિયાના	-15026
▁કોરિયાની	-15027
▁ક્ષમતાને	-15028
▁ખેલાડીઓએ	-15029
▁ગોસ્વામી	-15030
▁ચક્કાજામ	-15031
▁ચાર્જિંગ	-15032
▁ચિંતાજનક	-15033
▁જાપાનમાં	-15034
▁જોરશોરથી	-15035
▁ડિસઓર્ડર	-15036
▁તાજેતરની	-15037
▁તિરસ્કાર	-15038
▁દર્શાવતા	-15039
▁દિવાળીની	-15040
▁પરિપૂર્ણ	-15041
▁પીડિતાના	-15042
▁પુસ્તિકા	-15043
▁પ્રવાસની	-15044
▁ફરિયાદને	-15045
▁ફાઇનાન્સ	-15046
▁ફેલાયેલી	-15047
▁બાઇબલનું	-15048
▁બીસીસીઆઇ	-15049
▁બેંગલુરૂ	-15050
▁બેન્કિંગ	-15051
▁બોલાવ્યો	-15052
▁મંદિરનું	-15053
▁મુલાકાતો	-15054
▁મેન્યુફે	-15055
▁યુરોપમાં	-15056
▁યોગદાનને	-15057
▁રાજીનામા	-15058
▁રિયાલિટી	-15059
▁રોકાયેલા	-15060
▁લોન્ચિંગ	-15061
▁વર્ષગાંઠ	-15062
▁વાહનોમાં	-15063
▁વિચારોને	-15064
▁વિશ્વનાથ	-15065
▁વિશ્વનું	-15066
▁સર્વેમાં	-15067
▁સાંત્વના	-15068
▁સુપ્રીમે	-15069
▁સ્થિતિની	-15070
▁સ્વાર્થી	-15071
▁હાલાકીનો	-15072
▁અગ્નિશામક	-15073
▁અધિકારીને	-15074
▁અભિયાનમાં	-15075
▁અમદાવાદની	-15076
▁ઈન્ડિયાની	-15077
▁ઉદ્યોગમાં	-15078
▁એસોસિયેશન	-15079
▁કર્ણાટકની	-15080
▁ખરીદવામાં	-15081
▁ગુજરાતનાં	-15082
▁દુર્ભાગ્ય	-15083
▁પ્રાંતમાં	-15084
▁પ્રોબ્લેમ	-15085
▁ફોરેન્સિક	-15086
▁ફ્રન્ટમાં	-15087
▁બોલિવુડના	-15088
▁મતવિસ્તાર	-15089
▁મહામારીના	-15090
▁મિટિંગમાં	-15091
▁રંગબેરંગી	-15092
▁રુબેલ્સને	-15093
▁રૂપાંતરિત	-15094
▁રોજગારીની	-15095
▁વાતચીતમાં	-15096
▁વાદળછાયું	-15097
▁વાયુસેનાએ	-15098
▁વિચારસરણી	-15099
▁વ્યક્તિનો	-15100
▁શિયાળામાં	-15101
▁શિવસેનાને	-15102
▁સંક્રમણના	-15103
▁સુરક્ષાના	-15104
▁સુરેન્દ્ર	-15105
▁સ્પેસિફિક	-15106
▁સ્વાતંત્ર	-15107
▁સ્વીકાર્ય	-15108
▁સ્વૈચ્છિક	-15109
▁અભિનેત્રીઓ	-15110
▁અભિવ્યક્તિ	-15111
▁ઉમેદવારોના	-15112
▁દાખલામાંથી	-15113
▁નિર્માણમાં	-15114
▁પર્યાવરણીય	-15115
▁પ્રક્રિયાઓ	-15116
▁પ્રતિસ્પર્	-15117
▁પ્રવાસીઓને	-15118
▁બળાત્કારનો	-15119
▁બેક્ટેરિયા	-15120
▁વેન્ટિલેટર	-15121
▁વ્યવસ્થાની	-15122
▁સુપ્રીમમાં	-15123
▁સેલિબ્રેશન	-15124
▁હાઇકોર્ટના	-15125
▁ઇંગ્લેન્ડના	-15126
▁કોંગ્રેસનાં	-15127
▁ધારાસભ્યોના	-15128
▁ધારાસભ્યોની	-15129
▁ધારાસભ્યોને	-15130
▁પાયોનિયરીંગ	-15131
▁પ્રતિબદ્ધતા	-15132
▁યેદિયુરપ્પા	-15133
▁રિસેપ્શનમાં	-15134
▁વપરાશકર્તાઓ	-15135
▁અર્થતંત્રમાં	-15136
▁ઇન્ફ્રાસ્ટ્ર	-15137
▁ઇલેક્ટ્રોનિક	-15138
▁ફિંગરપ્રિન્ટ	-15139
▁મેગાપિક્સલના	-15140
▁રાષ્ટ્રપતિના	-15141
▁સેમિફાઇનલમાં	-15142
▁સ્વીકારવામાં	-15143
▁ટુર્નામેન્ટમાં	-15144
,”	-15145
21	-15146
31	-15147
72	-15148
85	-15149
DS	-15150
NO	-15151
PA	-15152
RA	-15153
aw	-15154
ec	-15155
jp	-15156
pp	-15157
ty	-15158
ઈએ	-15159
ઘલ	-15160
ઢિ	-15161
નન	-15162
પં	-15163
ળક	-15164
ૂપ	-15165
ેડ	-15166
ેન	-15167
▁ો	-15168
500	-15169
SBI	-15170
ang	-15171
art	-15172
eng	-15173
ind	-15174
ric	-15175
ter	-15176
ંઢે	-15177
અર્	-15178
આના	-15179
ઈન્	-15180
એમએ	-15181
ગના	-15182
ગાય	-15183
ગાહ	-15184
ગીર	-15185
ગ્ધ	-15186
ચલા	-15187
છાડ	-15188
છોડ	-15189
જાગ	-15190
ટીક	-15191
ટ્ર	-15192
ડેડ	-15193
ણેએ	-15194
તાળ	-15195
દ્ઘ	-15196
નીઓ	-15197
નોટ	-15198
ફની	-15199
ફિશ	-15200
બંગ	-15201
બરે	-15202
બૂક	-15203
ભવી	-15204
મણા	-15205
માય	-15206
મિસ	-15207
મોસ	-15208
યાર	-15209
લાદ	-15210
લીસ	-15211
વજો	-15212
વતો	-15213
શ્ડ	-15214
સંઘ	-15215
સંચ	-15216
સકે	-15217
સરત	-15218
સરી	-15219
હરે	-15220
હિર	-15221
હીર	-15222
િર્	-15223
▁03	-15224
▁3:	-15225
▁71	-15226
▁77	-15227
▁:⁠	-15228
▁CA	-15229
▁CO	-15230
▁St	-15231
▁di	-15232
▁on	-15233
▁અઢ	-15234
▁ઈદ	-15235
▁ઊલ	-15236
▁એં	-15237
▁એથ	-15238
▁ઑલ	-15239
▁ખ્	-15240
▁ગલ	-15241
▁ઘમ	-15242
▁ચૈ	-15243
▁ટચ	-15244
▁ધબ	-15245
▁નસ	-15246
▁ફૈ	-15247
▁બ્	-15248
▁ભિ	-15249
▁મઠ	-15250
▁હડ	-15251
▁૩૮	-15252
▁૪૫	-15253
▁‘‘	-15254
ંડું	-15255
આઇઆર	-15256
આઈપી	-15257
એનયુ	-15258
કરાળ	-15259
ક્સન	-15260
ગંગા	-15261
ગિરી	-15262
છતાં	-15263
જન્મ	-15264
જિંગ	-15265
જીવી	-15266
ટીવી	-15267
ટ્રે	-15268
ણોની	-15269
તરીય	-15270
તિયા	-15271
દાણા	-15272
ધીરે	-15273
ધ્ધા	-15274
નમ્ર	-15275
ન્ડી	-15276
ન્દુ	-15277
પક્વ	-15278
પાડા	-15279
પીંગ	-15280
પેટી	-15281
પોર્	-15282
પોષણ	-15283
ફર્ડ	-15284
ભેદો	-15285
ભોજન	-15286
માર્	-15287
મોટા	-15288
યાહે	-15289
રાટી	-15290
રાનો	-15291
રોધી	-15292
ર્પણ	-15293
ર્બિ	-15294
લીનો	-15295
લોકો	-15296
લ્લુ	-15297
વતું	-15298
વાતી	-15299
સલાહ	-15300
સીઆર	-15301
સ્કે	-15302
હાપણ	-15303
િટેજ	-15304
િયાર	-15305
ૈર્ય	-15306
૭માં	-15307
▁(20	-15308
▁102	-15309
▁115	-15310
▁2-0	-15311
▁2.0	-15312
▁3.5	-15313
▁ICC	-15314
▁NRC	-15315
▁RSS	-15316
▁SMS	-15317
▁gov	-15318
▁www	-15319
▁અખા	-15320
▁અગર	-15321
▁આનુ	-15322
▁આપણ	-15323
▁આળસ	-15324
▁ઊઠે	-15325
▁એટે	-15326
▁એસએ	-15327
▁ઓનર	-15328
▁કઝા	-15329
▁કરત	-15330
▁કશી	-15331
▁કુળ	-15332
▁કૂક	-15333
▁કૂલ	-15334
▁કેવ	-15335
▁કોઠ	-15336
▁કૌર	-15337
▁ખંજ	-15338
▁ખખડ	-15339
▁ખાઓ	-15340
▁ખાવ	-15341
▁ખૂલ	-15342
▁ગણો	-15343
▁ગોડ	-15344
▁ઘનિ	-15345
▁ચંપ	-15346
▁ચલણ	-15347
▁ચહલ	-15348
▁છંટ	-15349
▁છીણ	-15350
▁જસદ	-15351
▁જૉન	-15352
▁ટાગ	-15353
▁ટેવ	-15354
▁ટોય	-15355
▁ડાઈ	-15356
▁ડોગ	-15357
▁તરસ	-15358
▁તોય	-15359
▁દંગ	-15360
▁દબદ	-15361
▁નુહ	-15362
▁પગે	-15363
▁પછા	-15364
▁પાં	-15365
▁પિચ	-15366
▁પિય	-15367
▁પીર	-15368
▁પેક	-15369
▁પોઇ	-15370
▁ફેમ	-15371
▁ફોજ	-15372
▁બધે	-15373
▁બુઝ	-15374
▁બેર	-15375
▁બેવ	-15376
▁ભાખ	-15377
▁મહુ	-15378
▁મિડ	-15379
▁મીણ	-15380
▁મેથ	-15381
▁મોસ	-15382
▁યાર	-15383
▁યૂટ	-15384
▁રસા	-15385
▁રીઝ	-15386
▁રૂથ	-15387
▁લટક	-15388
▁લાજ	-15389
▁લોગ	-15390
▁લોસ	-15391
▁વિથ	-15392
▁શાલ	-15393
▁શેલ	-15394
▁સમઘ	-15395
▁સિમ	-15396
▁સોપ	-15397
▁હલા	-15398
▁હળવ	-15399
▁હુડ	-15400
akist	-15401
gress	-15402
ઉત્તર	-15403
એમઓયુ	-15404
કાલીન	-15405
જાતની	-15406
જીયાત	-15407
ડેમાં	-15408
ન્હવી	-15409
બ્રહ્	-15410
માણિક	-15411
માનું	-15412
મિક્સ	-15413
ર્ચના	-15414
લિકોમ	-15415
લિવુડ	-15416
વૉર્ડ	-15417
શનુમા	-15418
શ્કરી	-15419
સવીસન	-15420
સ્પીડ	-15421
સ્માન	-15422
હોલ્ડ	-15423
ાંજલિ	-15424
ારોપણ	-15425
િકલ્સ	-15426
િતાવહ	-15427
િયાલા	-15428
▁2007	-15429
▁5000	-15430
▁અંગૂ	-15431
▁અંધા	-15432
▁અડચણ	-15433
▁અડધો	-15434
▁અપ્ર	-15435
▁આબાદ	-15436
▁ઇડીએ	-15437
▁ઉંચી	-15438
▁ઉકાળ	-15439
▁ઉધરસ	-15440
▁ઉપલા	-15441
▁ઉભું	-15442
▁ઉલટી	-15443
▁એકેય	-15444
▁એનએસ	-15445
▁એમજી	-15446
▁એરબે	-15447
▁કર્ન	-15448
▁કાઢો	-15449
▁કિશન	-15450
▁કેસઃ	-15451
▁ખગોળ	-15452
▁ખારા	-15453
▁ખુર્	-15454
▁ખેમુ	-15455
▁ખ્યા	-15456
▁ગંદા	-15457
▁ગમતી	-15458
▁ગોટા	-15459
▁ઘટતી	-15460
▁ઘોડો	-15461
▁ચંકી	-15462
▁ચમત્	-15463
▁ચરાઈ	-15464
▁ચહલે	-15465
▁ચૂનો	-15466
▁છાતી	-15467
▁છેડો	-15468
▁જંતુ	-15469
▁જમણે	-15470
▁જહાં	-15471
▁જીવો	-15472
▁ટપાલ	-15473
▁ડેઝી	-15474
▁તેવુ	-15475
▁થોમસ	-15476
▁દફના	-15477
▁દુરુ	-15478
▁દૂર્	-15479
▁દેશી	-15480
▁દ્રઢ	-15481
▁ધારે	-15482
▁ધારો	-15483
▁ધોરી	-15484
▁નઝીર	-15485
▁નર્વ	-15486
▁નવાજ	-15487
▁નાકા	-15488
▁નાતા	-15489
▁પડદા	-15490
▁પાટા	-15491
▁પાના	-15492
▁પાપો	-15493
▁પાયલ	-15494
▁પાસ્	-15495
▁પીતા	-15496
▁ફુગા	-15497
▁ફૂંક	-15498
▁બધાજ	-15499
▁બાલ્	-15500
▁બિપા	-15501
▁બિસ્	-15502
▁બૂમો	-15503
▁બેલ્	-15504
▁બ્રશ	-15505
▁મંગલ	-15506
▁મજૂર	-15507
▁મનને	-15508
▁મસાજ	-15509
▁માઉસ	-15510
▁માતૃ	-15511
▁માદા	-15512
▁માલા	-15513
▁મીના	-15514
▁મુદત	-15515
▁મુદા	-15516
▁મેરે	-15517
▁યામી	-15518
▁યાર્	-15519
▁રમખા	-15520
▁રમાઇ	-15521
▁રસેલ	-15522
▁રહીશ	-15523
▁રાઈડ	-15524
▁રાઉત	-15525
▁રાજપ	-15526
▁રાણા	-15527
▁રીતઃ	-15528
▁રૂઢિ	-15529
▁રેતી	-15530
▁રોના	-15531
▁લંબા	-15532
▁લઘુમ	-15533
▁લાઈવ	-15534
▁લીવર	-15535
▁લેખન	-15536
▁લેફ્	-15537
▁લ્યૂ	-15538
▁વક્ત	-15539
▁વસતિ	-15540
▁વાઈસ	-15541
▁વારસ	-15542
▁વિઝન	-15543
▁વીતા	-15544
▁વોઈસ	-15545
▁શંકર	-15546
▁શૂટર	-15547
▁શોએબ	-15548
▁સંગત	-15549
▁સંસ્	-15550
▁સગીર	-15551
▁સમયા	-15552
▁સરકો	-15553
▁સાઈડ	-15554
▁સીઇઓ	-15555
▁સુગર	-15556
▁સૂકી	-15557
▁સોંગ	-15558
▁સોહા	-15559
▁હઝકી	-15560
▁હતાશ	-15561
▁હળવી	-15562
▁હવાઇ	-15563
ક્શન્સ	-15564
જોશમાં	-15565
ડ્રન્ટ	-15566
ન્સેલર	-15567
પૃથ્વી	-15568
મેકમાં	-15569
વાલમાં	-15570
વાળાને	-15571
શીપમાં	-15572
સિસ્ટમ	-15573
સ્પષ્ટ	-15574
િયન્સે	-15575
્યુટિવ	-15576
્રેટેડ	-15577
▁1,000	-15578
▁India	-15579
▁અંતરે	-15580
▁અડીને	-15581
▁અધ્યા	-15582
▁અનમોલ	-15583
▁અન્ના	-15584
▁અસ્વી	-15585
▁આંચકો	-15586
▁આગળનો	-15587
▁ઇશ્વર	-15588
▁ઈલેવન	-15589
▁ઉતરાણ	-15590
▁એડમિન	-15591
▁એન્‍ડ	-15592
▁એમનાં	-15593
▁એમ્બે	-15594
▁ઓટોમો	-15595
▁ઓપરેટ	-15596
▁ઓળખતા	-15597
▁કફોડી	-15598
▁કમજોર	-15599
▁કશ્યપ	-15600
▁કહ્યો	-15601
▁કામથી	-15602
▁કોઇની	-15603
▁ક્લાય	-15604
▁ક્લોઝ	-15605
▁ખજાનો	-15606
▁ખર્ચો	-15607
▁ગભરાટ	-15608
▁ઘેટું	-15609
▁ચશ્મા	-15610
▁ચાલકે	-15611
▁ચીનને	-15612
▁ચેનલો	-15613
▁છૂટયો	-15614
▁છેડતી	-15615
▁જનતાએ	-15616
▁જાતનો	-15617
▁જાફરી	-15618
▁જીતશે	-15619
[...]
